{
  "version": "1.0",
  "truncation": null,
  "padding": null,
  "added_tokens": [
    {
      "id": 0,
      "content": "<PAD>",
      "single_word": false,
      "lstrip": false,
      "rstrip": false,
      "normalized": false,
      "special": true
    },
    {
      "id": 1,
      "content": "<UNK>",
      "single_word": false,
      "lstrip": false,
      "rstrip": false,
      "normalized": false,
      "special": true
    },
    {
      "id": 2,
      "content": "<BOS>",
      "single_word": false,
      "lstrip": false,
      "rstrip": false,
      "normalized": false,
      "special": true
    },
    {
      "id": 3,
      "content": "<EOS>",
      "single_word": false,
      "lstrip": false,
      "rstrip": false,
      "normalized": false,
      "special": true
    },
    {
      "id": 4,
      "content": "<|im_start|>",
      "single_word": false,
      "lstrip": false,
      "rstrip": false,
      "normalized": false,
      "special": true
    },
    {
      "id": 5,
      "content": "<|im_end|>",
      "single_word": false,
      "lstrip": false,
      "rstrip": false,
      "normalized": false,
      "special": true
    }
  ],
  "normalizer": null,
  "pre_tokenizer": {
    "type": "ByteLevel",
    "add_prefix_space": false,
    "trim_offsets": true,
    "use_regex": true
  },
  "post_processor": {
    "type": "TemplateProcessing",
    "single": [
      {
        "SpecialToken": {
          "id": "<BOS>",
          "type_id": 0
        }
      },
      {
        "Sequence": {
          "id": "A",
          "type_id": 0
        }
      },
      {
        "SpecialToken": {
          "id": "<EOS>",
          "type_id": 0
        }
      }
    ],
    "pair": [
      {
        "SpecialToken": {
          "id": "<BOS>",
          "type_id": 0
        }
      },
      {
        "Sequence": {
          "id": "A",
          "type_id": 0
        }
      },
      {
        "SpecialToken": {
          "id": "<EOS>",
          "type_id": 0
        }
      },
      {
        "SpecialToken": {
          "id": "<BOS>",
          "type_id": 0
        }
      },
      {
        "Sequence": {
          "id": "B",
          "type_id": 0
        }
      },
      {
        "SpecialToken": {
          "id": "<EOS>",
          "type_id": 0
        }
      }
    ],
    "special_tokens": {
      "<BOS>": {
        "id": "<BOS>",
        "ids": [
          2
        ],
        "tokens": [
          "<BOS>"
        ]
      },
      "<EOS>": {
        "id": "<EOS>",
        "ids": [
          3
        ],
        "tokens": [
          "<EOS>"
        ]
      }
    }
  },
  "decoder": {
    "type": "ByteLevel",
    "add_prefix_space": true,
    "trim_offsets": true,
    "use_regex": true
  },
  "model": {
    "type": "BPE",
    "dropout": null,
    "unk_token": "<UNK>",
    "continuing_subword_prefix": null,
    "end_of_word_suffix": null,
    "fuse_unk": false,
    "byte_fallback": false,
    "ignore_merges": false,
    "vocab": {
      "<PAD>": 0,
      "<UNK>": 1,
      "<BOS>": 2,
      "<EOS>": 3,
      "<|im_start|>": 4,
      "<|im_end|>": 5,
      "!": 6,
      "\"": 7,
      "#": 8,
      "$": 9,
      "%": 10,
      "&": 11,
      "'": 12,
      "(": 13,
      ")": 14,
      "*": 15,
      "+": 16,
      ",": 17,
      "-": 18,
      ".": 19,
      "/": 20,
      "0": 21,
      "1": 22,
      "2": 23,
      "3": 24,
      "4": 25,
      "5": 26,
      "6": 27,
      "7": 28,
      "8": 29,
      "9": 30,
      ":": 31,
      ";": 32,
      "<": 33,
      "=": 34,
      ">": 35,
      "?": 36,
      "@": 37,
      "A": 38,
      "B": 39,
      "C": 40,
      "D": 41,
      "E": 42,
      "F": 43,
      "G": 44,
      "H": 45,
      "I": 46,
      "J": 47,
      "K": 48,
      "L": 49,
      "M": 50,
      "N": 51,
      "O": 52,
      "P": 53,
      "Q": 54,
      "R": 55,
      "S": 56,
      "T": 57,
      "U": 58,
      "V": 59,
      "W": 60,
      "X": 61,
      "Y": 62,
      "Z": 63,
      "[": 64,
      "\\": 65,
      "]": 66,
      "^": 67,
      "`": 68,
      "a": 69,
      "b": 70,
      "c": 71,
      "d": 72,
      "e": 73,
      "f": 74,
      "g": 75,
      "h": 76,
      "i": 77,
      "j": 78,
      "k": 79,
      "l": 80,
      "m": 81,
      "n": 82,
      "o": 83,
      "p": 84,
      "q": 85,
      "r": 86,
      "s": 87,
      "t": 88,
      "u": 89,
      "v": 90,
      "w": 91,
      "x": 92,
      "y": 93,
      "z": 94,
      "|": 95,
      "~": 96,
      "¡": 97,
      "¢": 98,
      "£": 99,
      "¤": 100,
      "¥": 101,
      "¦": 102,
      "§": 103,
      "¨": 104,
      "©": 105,
      "ª": 106,
      "«": 107,
      "¬": 108,
      "®": 109,
      "¯": 110,
      "°": 111,
      "±": 112,
      "²": 113,
      "³": 114,
      "´": 115,
      "µ": 116,
      "¶": 117,
      "·": 118,
      "¸": 119,
      "¹": 120,
      "º": 121,
      "»": 122,
      "¼": 123,
      "½": 124,
      "¾": 125,
      "¿": 126,
      "Â": 127,
      "Ã": 128,
      "Ä": 129,
      "Å": 130,
      "Æ": 131,
      "Ê": 132,
      "Ì": 133,
      "Î": 134,
      "Ð": 135,
      "Ñ": 136,
      "Ø": 137,
      "Ù": 138,
      "à": 139,
      "á": 140,
      "â": 141,
      "ã": 142,
      "å": 143,
      "æ": 144,
      "ç": 145,
      "é": 146,
      "ï": 147,
      "Ċ": 148,
      "č": 149,
      "Ġ": 150,
      "Ģ": 151,
      "ģ": 152,
      "Ĥ": 153,
      "ĥ": 154,
      "Ħ": 155,
      "ħ": 156,
      "Ĩ": 157,
      "ĩ": 158,
      "Ī": 159,
      "ī": 160,
      "Ĭ": 161,
      "ĭ": 162,
      "Į": 163,
      "į": 164,
      "İ": 165,
      "ı": 166,
      "Ĳ": 167,
      "ĳ": 168,
      "Ĵ": 169,
      "ĵ": 170,
      "Ķ": 171,
      "ķ": 172,
      "ĸ": 173,
      "Ĺ": 174,
      "ĺ": 175,
      "Ļ": 176,
      "ļ": 177,
      "Ľ": 178,
      "ľ": 179,
      "Ŀ": 180,
      "ŀ": 181,
      "Ł": 182,
      "ł": 183,
      "Ń": 184,
      "Ġt": 185,
      "he": 186,
      "Ġa": 187,
      "in": 188,
      "Ġthe": 189,
      "er": 190,
      "on": 191,
      "Ġ,": 192,
      "re": 193,
      "Ġs": 194,
      "Ġo": 195,
      "Ġw": 196,
      "ed": 197,
      "un": 198,
      "Ġ.": 199,
      "at": 200,
      "nd": 201,
      "or": 202,
      "Ġc": 203,
      "it": 204,
      "Ġf": 205,
      "en": 206,
      "is": 207,
      "Ġof": 208,
      "es": 209,
      "Ġb": 210,
      "Ġin": 211,
      "ar": 212,
      "unk": 213,
      "an": 214,
      "Ġ<": 215,
      "al": 216,
      "Ġand": 217,
      "Ġp": 218,
      "ing": 219,
      "as": 220,
      "Ġto": 221,
      "Ġm": 222,
      "ro": 223,
      "ic": 224,
      "Ġd": 225,
      "Ġh": 226,
      "ion": 227,
      "le": 228,
      "ĠT": 229,
      "Ġ=": 230,
      "Ġre": 231,
      "Ġ\"": 232,
      "Ġth": 233,
      "ent": 234,
      "ou": 235,
      "ĠA": 236,
      "Ġ1": 237,
      "il": 238,
      "ĠS": 239,
      "st": 240,
      "Ġl": 241,
      "čĊ": 242,
      "ĠčĊ": 243,
      "om": 244,
      "Ġe": 245,
      "Ġn": 246,
      "Ġ@": 247,
      "am": 248,
      "ĠC": 249,
      "el": 250,
      "ad": 251,
      "Ġwas": 252,
      "ac": 253,
      "ĠThe": 254,
      "Ġon": 255,
      "Ġbe": 256,
      "ur": 257,
      "ly": 258,
      "ĠM": 259,
      "Ġ'": 260,
      "ĠI": 261,
      "Ġg": 262,
      "Ġfor": 263,
      "iv": 264,
      "ol": 265,
      "ter": 266,
      "ĠB": 267,
      "-@": 268,
      "Ġ@-@": 269,
      "im": 270,
      "id": 271,
      "ir": 272,
      "Ġas": 273,
      "ct": 274,
      "ig": 275,
      "th": 276,
      "ow": 277,
      "ith": 278,
      "Ġst": 279,
      "ĠH": 280,
      "us": 281,
      "Ġ2": 282,
      "ay": 283,
      "Ġthat": 284,
      "Ġwith": 285,
      "her": 286,
      "ot": 287,
      "ce": 288,
      "ver": 289,
      "ut": 290,
      "ation": 291,
      "et": 292,
      "Ġis": 293,
      "ĠP": 294,
      "Ġwh": 295,
      "ch": 296,
      "Ġby": 297,
      "ĠR": 298,
      "Ġ)": 299,
      "Ġ(": 300,
      "Ġal": 301,
      "ĠF": 302,
      "ĠD": 303,
      "Ġcon": 304,
      "em": 305,
      "ul": 306,
      "ĠW": 307,
      "Ġat": 308,
      "Ġit": 309,
      "Ġ19": 310,
      "and": 311,
      "ain": 312,
      "rom": 313,
      "os": 314,
      "ĠN": 315,
      "Ġan": 316,
      "ĠG": 317,
      "ĠL": 318,
      "ers": 319,
      "Ġhe": 320,
      "est": 321,
      "ag": 322,
      "av": 323,
      "00": 324,
      "ĠJ": 325,
      "Ġse": 326,
      "um": 327,
      "Ġde": 328,
      "Ġhis": 329,
      "Ġr": 330,
      "Ġfrom": 331,
      "od": 332,
      "ĠO": 333,
      "ri": 334,
      "Ġcom": 335,
      "ĠE": 336,
      "pe": 337,
      "und": 338,
      "ist": 339,
      "Ġpro": 340,
      "if": 341,
      "ld": 342,
      "ies": 343,
      "ere": 344,
      "ort": 345,
      "Ġv": 346,
      "res": 347,
      "Ġsu": 348,
      "ore": 349,
      "Ġwere": 350,
      "ill": 351,
      "ĠIn": 352,
      "ap": 353,
      "ong": 354,
      "ew": 355,
      "op": 356,
      "igh": 357,
      "ich": 358,
      "Ġor": 359,
      "ate": 360,
      "art": 361,
      "all": 362,
      "ard": 363,
      "ak": 364,
      "Ġch": 365,
      "ber": 366,
      "ame": 367,
      "Ġex": 368,
      "gh": 369,
      "ab": 370,
      "ud": 371,
      "Ġpl": 372,
      "se": 373,
      "ated": 374,
      "ant": 375,
      "ity": 376,
      "Ġare": 377,
      "Ġâ": 378,
      "oc": 379,
      "ive": 380,
      "ess": 381,
      "qu": 382,
      "Ġsh": 383,
      "ĠâĢ": 384,
      "Ġhad": 385,
      "Ġk": 386,
      "ack": 387,
      "Ġwhich": 388,
      "up": 389,
      "ĠU": 390,
      "red": 391,
      "Ġy": 392,
      "ĠK": 393,
      "Ġle": 394,
      "ov": 395,
      "our": 396,
      "Ġnot": 397,
      "ment": 398,
      "ast": 399,
      "ip": 400,
      "ĠSt": 401,
      "rit": 402,
      "ord": 403,
      "ear": 404,
      "pt": 405,
      "Ġtr": 406,
      "ge": 407,
      "ally": 408,
      "ian": 409,
      "ther": 410,
      "ost": 411,
      "ine": 412,
      "ave": 413,
      "ight": 414,
      "oun": 415,
      "ell": 416,
      "Ġ3": 417,
      "ish": 418,
      "cl": 419,
      "ary": 420,
      "ĠCh": 421,
      "Ġ200": 422,
      "ust": 423,
      "irst": 424,
      "ia": 425,
      "Ġ;": 426,
      "pp": 427,
      "te": 428,
      "Ġcomp": 429,
      "Ġtheir": 430,
      "Ġbut": 431,
      "cc": 432,
      "so": 433,
      "ction": 434,
      "fter": 435,
      "Ġfirst": 436,
      "ous": 437,
      "ure": 438,
      "Ġits": 439,
      "ould": 440,
      "ra": 441,
      "ĠâĢĵ": 442,
      "ide": 443,
      "Ġwhe": 444,
      "Ġcont": 445,
      "Ġar": 446,
      "ue": 447,
      "ical": 448,
      "ome": 449,
      "Ġun": 450,
      "wo": 451,
      "og": 452,
      "hed": 453,
      "Ġ20": 454,
      "Ġ:": 455,
      "ial": 456,
      "ub": 457,
      "ie": 458,
      "Ġher": 459,
      "Ġalso": 460,
      "ition": 461,
      "Ġro": 462,
      "Ġint": 463,
      "ĠV": 464,
      "own": 465,
      "Ġcl": 466,
      "ater": 467,
      "out": 468,
      "ign": 469,
      "Ġus": 470,
      "orm": 471,
      "ork": 472,
      "Ġab": 473,
      "Ġad": 474,
      "ok": 475,
      "ff": 476,
      "per": 477,
      "Ġhave": 478,
      "age": 479,
      "ru": 480,
      "ire": 481,
      "ĠHe": 482,
      "Ġone": 483,
      "ass": 484,
      "Ġhas": 485,
      "Ġrec": 486,
      "low": 487,
      "mer": 488,
      "ime": 489,
      "Ġbeen": 490,
      "Ġtwo": 491,
      "Ġ4": 492,
      "du": 493,
      "Ġres": 494,
      "ĠTh": 495,
      "Ġ18": 496,
      ".@": 497,
      "Ġ@.@": 498,
      "Ġper": 499,
      "ond": 500,
      "Ġ5": 501,
      "ree": 502,
      "Ġbo": 503,
      "Ġwho": 504,
      "ence": 505,
      "uring": 506,
      "ough": 507,
      "land": 508,
      "ted": 509,
      "Ġthis": 510,
      "are": 511,
      "Ġbec": 512,
      "ile": 513,
      "ry": 514,
      "pl": 515,
      "ory": 516,
      "ance": 517,
      "ugh": 518,
      "ect": 519,
      "ĠIt": 520,
      "ans": 521,
      "Ġsc": 522,
      "Ġplay": 523,
      "ĠAl": 524,
      "Ġthey": 525,
      "clud": 526,
      "Ġyear": 527,
      "Ġ201": 528,
      "Ġpart": 529,
      "Ġag": 530,
      "ade": 531,
      "Ġdes": 532,
      "ations": 533,
      "Ġman": 534,
      "ric": 535,
      "Ġother": 536,
      "Ġdis": 537,
      "ult": 538,
      "Ġte": 539,
      "ely": 540,
      "Ġafter": 541,
      "ach": 542,
      "Ġj": 543,
      "Ġser": 544,
      "Ġover": 545,
      "over": 546,
      "Ġoff": 547,
      "Ġup": 548,
      ",@": 549,
      "Ġ@,@": 550,
      "ang": 551,
      "Ġinclud": 552,
      "Ġsp": 553,
      "ions": 554,
      "Ġen": 555,
      "ite": 556,
      "urn": 557,
      "act": 558,
      "ound": 559,
      "ount": 560,
      "Ġim": 561,
      "ace": 562,
      "ice": 563,
      "iz": 564,
      "ib": 565,
      "wn": 566,
      "Ġout": 567,
      "ke": 568,
      "ress": 569,
      "ĠY": 570,
      "ark": 571,
      "Ġtime": 572,
      "Ġne": 573,
      "Ġinto": 574,
      "Ġfin": 575,
      "Ġpre": 576,
      "Ġev": 577,
      "ced": 578,
      "port": 579,
      "we": 580,
      "ĠOn": 581,
      "Ġspe": 582,
      "ces": 583,
      "Ġwould": 584,
      "Ġmore": 585,
      "Ġshe": 586,
      "Ġcomm": 587,
      "ason": 588,
      "Ġatt": 589,
      "ward": 590,
      "rough": 591,
      "Ġall": 592,
      "ren": 593,
      "ose": 594,
      "one": 595,
      "ail": 596,
      "ited": 597,
      "Ġhim": 598,
      "amp": 599,
      "Ġwe": 600,
      "tern": 601,
      "ied": 602,
      "ens": 603,
      "oin": 604,
      "ased": 605,
      "Ġ6": 606,
      "ĠUn": 607,
      "Ġcent": 608,
      "rib": 609,
      "ĠRe": 610,
      "Ġwork": 611,
      "ents": 612,
      "ild": 613,
      "ĠSe": 614,
      "ix": 615,
      "Ġme": 616,
      "ood": 617,
      "ase": 618,
      "les": 619,
      "ings": 620,
      "ts": 621,
      "man": 622,
      "round": 623,
      "Ġ7": 624,
      "Ġfe": 625,
      "Ġthem": 626,
      "able": 627,
      "ious": 628,
      "Ġwhen": 629,
      "Ġbet": 630,
      "Ġsong": 631,
      "ake": 632,
      "ors": 633,
      "Ġsec": 634,
      "ates": 635,
      "als": 636,
      "vel": 637,
      "ubl": 638,
      "Ġear": 639,
      "Ġrem": 640,
      "ĠAn": 641,
      "old": 642,
      "iss": 643,
      "ered": 644,
      "Ġkn": 645,
      "form": 646,
      "Ġmost": 647,
      "Ġduring": 648,
      "gan": 649,
      "ath": 650,
      "aus": 651,
      "Ġonly": 652,
      "fer": 653,
      "under": 654,
      "ilm": 655,
      "Ġnew": 656,
      "Ġgame": 657,
      "oy": 658,
      "ved": 659,
      "ember": 660,
      "ve": 661,
      "orth": 662,
      "ollow": 663,
      "ween": 664,
      "Ġ199": 665,
      "reat": 666,
      "ĠAs": 667,
      "way": 668,
      "outh": 669,
      "ĠAr": 670,
      "Ġ9": 671,
      "Ġ8": 672,
      "Ġrel": 673,
      "Ġcan": 674,
      "Ġabout": 675,
      "ters": 676,
      "Ġagain": 677,
      "Ġseason": 678,
      "Ġthree": 679,
      "Ġcons": 680,
      "Ġthan": 681,
      "ĠEn": 682,
      "ick": 683,
      "ug": 684,
      "ĠMar": 685,
      "Ġbetween": 686,
      "att": 687,
      "aw": 688,
      "ral": 689,
      "Ġrecord": 690,
      "Ġsome": 691,
      "ational": 692,
      "Ġunder": 693,
      "ons": 694,
      "Ġchar": 695,
      "cted": 696,
      "ular": 697,
      "fore": 698,
      "Ġthrough": 699,
      "ind": 700,
      "ict": 701,
      "Ġlater": 702,
      "hip": 703,
      "iew": 704,
      "Ġcol": 705,
      "Ġnum": 706,
      "Ġ00": 707,
      "ĠCom": 708,
      "ft": 709,
      "ision": 710,
      "Ġwrit": 711,
      "Ġwhile": 712,
      "ĠDe": 713,
      "Ġprodu": 714,
      "Ġpos": 715,
      "Ġfilm": 716,
      "Ġrele": 717,
      "Ġver": 718,
      "ames": 719,
      "Ġend": 720,
      "Ġinter": 721,
      "ished": 722,
      "Ġap": 723,
      "ey": 724,
      "Ġpe": 725,
      "Ġmade": 726,
      "Ġpr": 727,
      "Ġform": 728,
      "ning": 729,
      "Ġfl": 730,
      "Ġreg": 731,
      "Ġass": 732,
      "orld": 733,
      "Ġwhere": 734,
      "Ġso": 735,
      "Ġspec": 736,
      "ĠNew": 737,
      "Ġmov": 738,
      "ever": 739,
      "meric": 740,
      "ĠAmeric": 741,
      "ury": 742,
      "Ġlar": 743,
      "bum": 744,
      "Ġac": 745,
      "Ġapp": 746,
      "Ġret": 747,
      "ron": 748,
      "Ġfollow": 749,
      "ener": 750,
      "Ġno": 751,
      "Ġbu": 752,
      "Ġsuch": 753,
      "Ġdef": 754,
      "Ġsecond": 755,
      "ived": 756,
      "Ġfour": 757,
      "ock": 758,
      "aid": 759,
      "Ġmus": 760,
      "Ġqu": 761,
      "Ġacc": 762,
      "Ġused": 763,
      "Ġsub": 764,
      "olog": 765,
      "Ġinc": 766,
      "Ġact": 767,
      "ike": 768,
      "ĠAt": 769,
      "rop": 770,
      "Ġday": 771,
      "ĠThis": 772,
      "ars": 773,
      "ĠLe": 774,
      "Ġpubl": 775,
      "ific": 776,
      "Ġam": 777,
      "ual": 778,
      "Ġcall": 779,
      "Ġalbum": 780,
      "Ġind": 781,
      "hes": 782,
      "Ġ000": 783,
      "Ġbefore": 784,
      "Ġdo": 785,
      "Ġappe": 786,
      "ob": 787,
      "ily": 788,
      "oh": 789,
      "Ġbeing": 790,
      "ank": 791,
      "Ġgr": 792,
      "Ġco": 793,
      "any": 794,
      "Ġyears": 795,
      "ĠEng": 796,
      "Ġthere": 797,
      "Ġsupp": 798,
      "Ġgro": 799,
      "end": 800,
      "ck": 801,
      "owever": 802,
      "ating": 803,
      "ane": 804,
      "Ġfound": 805,
      "Ġ0": 806,
      "Ġele": 807,
      "Ġhigh": 808,
      "Ġset": 809,
      "iel": 810,
      "Ġep": 811,
      "ife": 812,
      "ics": 813,
      "orn": 814,
      "hen": 815,
      "Ġsy": 816,
      "ird": 817,
      "Ġent": 818,
      "other": 819,
      "iver": 820,
      "Ġsur": 821,
      "ained": 822,
      "Ġ10": 823,
      "Ġseries": 824,
      "igin": 825,
      "Ġnumber": 826,
      "pen": 827,
      "ten": 828,
      "ll": 829,
      "ince": 830,
      "Ġloc": 831,
      "ause": 832,
      "Ġdec": 833,
      "Ġpres": 834,
      "ph": 835,
      "velop": 836,
      "Ġboth": 837,
      "ode": 838,
      "Ġsever": 839,
      "ities": 840,
      "cept": 841,
      "Ġ12": 842,
      "Ġthen": 843,
      "Ġincluding": 844,
      "ines": 845,
      "Ġepis": 846,
      "son": 847,
      "ĠBrit": 848,
      "Ġ/": 849,
      "Ġagainst": 850,
      "Ġwell": 851,
      "Ġbecame": 852,
      "Ġknown": 853,
      "ject": 854,
      "ĠâĢĶ": 855,
      "ros": 856,
      "ised": 857,
      "Ġpo": 858,
      "ton": 859,
      "Ġcharac": 860,
      "Ġadd": 861,
      "Ġperform": 862,
      "Ġdesc": 863,
      "Ġsing": 864,
      "Ġbl": 865,
      "Ġgo": 866,
      "Ġcap": 867,
      "Ġ198": 868,
      "Ġdire": 869,
      "urch": 870,
      "ĠJoh": 871,
      "aj": 872,
      "Ġ16": 873,
      "ale": 874,
      "Ġback": 875,
      "Ġmany": 876,
      "ĠSh": 877,
      "Ġpop": 878,
      "pr": 879,
      "Ġmain": 880,
      "ident": 881,
      "though": 882,
      "ĠUnited": 883,
      "Ġinv": 884,
      "Ġstud": 885,
      "its": 886,
      "Ġlong": 887,
      "ise": 888,
      "ather": 889,
      "ures": 890,
      "Ġtrans": 891,
      "Ġorigin": 892,
      "io": 893,
      "ĠJohn": 894,
      "ĠBr": 895,
      "iet": 896,
      "ert": 897,
      "ement": 898,
      "Ġcentury": 899,
      "Ġmon": 900,
      "Ġteam": 901,
      "ober": 902,
      "ĠAfter": 903,
      "ool": 904,
      "ĠSc": 905,
      "Ġest": 906,
      "Ġdevelop": 907,
      "Ġshow": 908,
      "ann": 909,
      "Ġmin": 910,
      "ield": 911,
      "ek": 912,
      "ower": 913,
      "Ġem": 914,
      "ier": 915,
      "elf": 916,
      "Ġ194": 917,
      "air": 918,
      "ute": 919,
      "Ġcre": 920,
      "Ġseveral": 921,
      "ĠShe": 922,
      "Ġlead": 923,
      "uch": 924,
      "Ġ17": 925,
      "ared": 926,
      "Ġbegan": 927,
      "Ġ196": 928,
      "ful": 929,
      "ivers": 930,
      "ern": 931,
      "Ġ11": 932,
      "Ġ15": 933,
      "Ġmill": 934,
      "Ġdif": 935,
      "Ġcontin": 936,
      "Ġ197": 937,
      "overn": 938,
      "Ġsign": 939,
      "ually": 940,
      "ram": 941,
      "view": 942,
      "Ġsm": 943,
      "ired": 944,
      "ative": 945,
      "Ġmay": 946,
      "Ġship": 947,
      "Ġcomple": 948,
      "Ġbr": 949,
      "Ġcould": 950,
      "Ġearly": 951,
      "Ġcrit": 952,
      "Ġdid": 953,
      "Ġcalled": 954,
      "ains": 955,
      "Ġart": 956,
      "Ġepisode": 957,
      "til": 958,
      "Ġnear": 959,
      "Ġob": 960,
      "ĠInd": 961,
      "Ġhist": 962,
      "Ġpol": 963,
      "Ġdescrib": 964,
      "led": 965,
      "Ġbel": 966,
      "emb": 967,
      "ued": 968,
      "Ġrece": 969,
      "ople": 970,
      "iam": 971,
      "une": 972,
      "Ġalong": 973,
      "Ġrun": 974,
      "ins": 975,
      "Ġter": 976,
      "imes": 977,
      "ments": 978,
      "Ġdep": 979,
      "Ġbro": 980,
      "ccess": 981,
      "Ġsaid": 982,
      "ley": 983,
      "ĠWh": 984,
      "Ġfeat": 985,
      "ĠAmerican": 986,
      "Ġdown": 987,
      "ven": 988,
      "ĠIs": 989,
      "Ġinst": 990,
      "Ġthese": 991,
      "aking": 992,
      "ĠMay": 993,
      "der": 994,
      "Ġmil": 995,
      "Ġdist": 996,
      "ĠAust": 997,
      "Ġthough": 998,
      "gest": 999,
      "ĠGer": 1000,
      "ross": 1001,
      "Ġdisc": 1002,
      "yl": 1003,
      "ĠBritish": 1004,
      "Ġoper": 1005,
      "Ġuntil": 1006,
      "ĠZ": 1007,
      "ove": 1008,
      "ting": 1009,
      "oot": 1010,
      "Ġstart": 1011,
      "anc": 1012,
      "Ġcity": 1013,
      "Ġsame": 1014,
      "rap": 1015,
      "Ġinf": 1016,
      "ured": 1017,
      "Ġprev": 1018,
      "Ġreleased": 1019,
      "els": 1020,
      "Ġgener": 1021,
      "ty": 1022,
      "ange": 1023,
      "Ġexp": 1024,
      "Ġown": 1025,
      "ized": 1026,
      "Ġany": 1027,
      "Ġreturn": 1028,
      "tend": 1029,
      "amed": 1030,
      "ĠThey": 1031,
      "ially": 1032,
      "ĠWar": 1033,
      "Ġkm": 1034,
      "ided": 1035,
      "Ġland": 1036,
      "Ġdesign": 1037,
      "Ġwar": 1038,
      "Ġrep": 1039,
      "Ġmusic": 1040,
      "Ġprov": 1041,
      "Ġimp": 1042,
      "Ġmillion": 1043,
      "Ġbecause": 1044,
      "Ġarea": 1045,
      "Ġuse": 1046,
      "ajor": 1047,
      "ĠCon": 1048,
      "Ġcar": 1049,
      "Ġfam": 1050,
      "Ġair": 1051,
      "az": 1052,
      "ĠAug": 1053,
      "ĠAugust": 1054,
      "oman": 1055,
      "Ġlike": 1056,
      "Ġopen": 1057,
      "Ġsuccess": 1058,
      "Ġmat": 1059,
      "osed": 1060,
      "Ġsim": 1061,
      "ĠFr": 1062,
      "ĠChr": 1063,
      "Ġocc": 1064,
      "erson": 1065,
      "ink": 1066,
      "ep": 1067,
      "enn": 1068,
      "Ġconst": 1069,
      "ook": 1070,
      "Ġpeople": 1071,
      "ull": 1072,
      "Ġeff": 1073,
      "hy": 1074,
      "ium": 1075,
      "Ġins": 1076,
      "Ġpass": 1077,
      "chool": 1078,
      "Ġoffic": 1079,
      "stem": 1080,
      "ible": 1081,
      "xt": 1082,
      "Ġsix": 1083,
      "Ġcount": 1084,
      "Ġ195": 1085,
      "Ġsupport": 1086,
      "ĠBl": 1087,
      "ĠBe": 1088,
      "Ġaround": 1089,
      "my": 1090,
      "ĠHowever": 1091,
      "Ġsmall": 1092,
      "ah": 1093,
      "Ġwin": 1094,
      "Ġ%": 1095,
      "ĠSept": 1096,
      "uc": 1097,
      "Ġnorth": 1098,
      "Ġadv": 1099,
      "Ġdam": 1100,
      "Ġgroup": 1101,
      "Ġstr": 1102,
      "ĠCar": 1103,
      "Ġpoin": 1104,
      "Ġeach": 1105,
      "ĠSeptember": 1106,
      "ues": 1107,
      "ony": 1108,
      "Ġconsid": 1109,
      "Ġmet": 1110,
      "ouse": 1111,
      "Ġfollowing": 1112,
      "ĠPl": 1113,
      "Ġcharacter": 1114,
      "ĠJu": 1115,
      "erv": 1116,
      "ists": 1117,
      "wards": 1118,
      "ĠWorld": 1119,
      "Ġlife": 1120,
      "ms": 1121,
      "Ġed": 1122,
      "ĠAustral": 1123,
      "Ġhead": 1124,
      "Ġ13": 1125,
      "aining": 1126,
      "Ġfive": 1127,
      "Ġmod": 1128,
      "Ġcontro": 1129,
      "Ġgovern": 1130,
      "Ġattack": 1131,
      "ole": 1132,
      "Ġ193": 1133,
      "ording": 1134,
      "ĠComm": 1135,
      "ient": 1136,
      "ales": 1137,
      "Ġvar": 1138,
      "oss": 1139,
      "uth": 1140,
      "ĠAll": 1141,
      "Ġwill": 1142,
      "ĠTe": 1143,
      "Ġlarge": 1144,
      "Ġever": 1145,
      "ution": 1146,
      "ets": 1147,
      "Ġ191": 1148,
      "ĠII": 1149,
      "ĠHer": 1150,
      "Ġgu": 1151,
      "ĠCol": 1152,
      "Ġann": 1153,
      "Ġreport": 1154,
      "row": 1155,
      "Ġconc": 1156,
      "ague": 1157,
      "ural": 1158,
      "ĠUS": 1159,
      "ĠMe": 1160,
      "ĠCl": 1161,
      "rote": 1162,
      "lish": 1163,
      "ĠJune": 1164,
      "Ġbook": 1165,
      "ĠNorth": 1166,
      "aving": 1167,
      "aced": 1168,
      "ĠEu": 1169,
      "ash": 1170,
      "ĠFor": 1171,
      "Ġtit": 1172,
      "ĠGerman": 1173,
      "dom": 1174,
      "Ġsince": 1175,
      "ĠStates": 1176,
      "ik": 1177,
      "Ġprom": 1178,
      "Ġsouth": 1179,
      "Ġreceived": 1180,
      "Ġmajor": 1181,
      "Ġfinal": 1182,
      "ilt": 1183,
      "med": 1184,
      "ped": 1185,
      "Ġname": 1186,
      "ately": 1187,
      "ivision": 1188,
      "ĠJan": 1189,
      "ĠAd": 1190,
      "pect": 1191,
      "ĠOct": 1192,
      "Ġpartic": 1193,
      "Ġsystem": 1194,
      "ĠSouth": 1195,
      "Ġpublic": 1196,
      "Ġcare": 1197,
      "Ġstate": 1198,
      "Ġdr": 1199,
      "ĠChrist": 1200,
      "Ġwhat": 1201,
      "ĠKing": 1202,
      "ives": 1203,
      "Ġdirect": 1204,
      "uary": 1205,
      "Ġlast": 1206,
      "Ġhel": 1207,
      "Ġdescribed": 1208,
      "tle": 1209,
      "hel": 1210,
      "Ġext": 1211,
      "ĠOctober": 1212,
      "ored": 1213,
      "Ġ14": 1214,
      "Ġline": 1215,
      "Ġ$": 1216,
      "Ġappear": 1217,
      "Ġrest": 1218,
      "ĠCan": 1219,
      "Ġbatt": 1220,
      "Ġweek": 1221,
      "Ġplayed": 1222,
      "cess": 1223,
      "Ġclass": 1224,
      "Ġbuild": 1225,
      "Ġincre": 1226,
      "Ġtook": 1227,
      "ropical": 1228,
      "Ġnow": 1229,
      "ĠFe": 1230,
      "ĠNov": 1231,
      "arl": 1232,
      "Ġ[": 1233,
      "Ġ]": 1234,
      "ĠYork": 1235,
      "gin": 1236,
      "Ġworld": 1237,
      "aged": 1238,
      "ĠJuly": 1239,
      "Ġwrote": 1240,
      "Ġlate": 1241,
      "ages": 1242,
      "..": 1243,
      "ĠTr": 1244,
      "iving": 1245,
      "empt": 1246,
      "Ã©": 1247,
      "ional": 1248,
      "ble": 1249,
      "Ġwon": 1250,
      "Ġspecies": 1251,
      "ology": 1252,
      "ideo": 1253,
      "Ġstru": 1254,
      "aim": 1255,
      "Ġchild": 1256,
      "Ġ...": 1257,
      "Ġmuch": 1258,
      "Ġ25": 1259,
      "ĠDuring": 1260,
      "Ġdue": 1261,
      "ody": 1262,
      "ified": 1263,
      "Ġserv": 1264,
      "ĠApr": 1265,
      "Ġsingle": 1266,
      "ĠApril": 1267,
      "Ġcamp": 1268,
      "Ġallow": 1269,
      "ats": 1270,
      "iod": 1271,
      "min": 1272,
      "ĠGu": 1273,
      "Ġshort": 1274,
      "Ġport": 1275,
      "Ġdeath": 1276,
      "Ġvers": 1277,
      "Ġjust": 1278,
      "ball": 1279,
      "Ġty": 1280,
      "Ġmar": 1281,
      "Ġanother": 1282,
      "Ġincluded": 1283,
      "ĠEuro": 1284,
      "Ġposs": 1285,
      "ĠJanuary": 1286,
      "Ġold": 1287,
      "ility": 1288,
      "ively": 1289,
      "Ġstorm": 1290,
      "get": 1291,
      "Ġeven": 1292,
      "Ġdiffer": 1293,
      "Ġgun": 1294,
      "Ġwithin": 1295,
      "ĠEngland": 1296,
      "Ġlist": 1297,
      "ission": 1298,
      "Ġleft": 1299,
      "Ġresult": 1300,
      "ism": 1301,
      "omin": 1302,
      "Ġposition": 1303,
      "Ġnamed": 1304,
      "Ġbased": 1305,
      "Ġestab": 1306,
      "Ġif": 1307,
      "Ġconf": 1308,
      "ants": 1309,
      "Ġarr": 1310,
      "Ġalthough": 1311,
      "Ġvis": 1312,
      "Ġprog": 1313,
      "Ġattempt": 1314,
      "ax": 1315,
      "ont": 1316,
      "Ġ30": 1317,
      "Ġvery": 1318,
      "Ġappro": 1319,
      "ina": 1320,
      "Ġthird": 1321,
      "Ġgames": 1322,
      "by": 1323,
      "ital": 1324,
      "Ġtop": 1325,
      "Ġref": 1326,
      "ĠAnd": 1327,
      "akes": 1328,
      "Ġbelie": 1329,
      "Ġtrack": 1330,
      "ctions": 1331,
      "ĠMarch": 1332,
      "ner": 1333,
      "ple": 1334,
      "Ġlit": 1335,
      "ĠGr": 1336,
      "Ġprevious": 1337,
      "Ġfamily": 1338,
      "ĠMus": 1339,
      "ĠPro": 1340,
      "ĠNovember": 1341,
      "Ġpower": 1342,
      "Ġtri": 1343,
      "Ġreview": 1344,
      "Ġperiod": 1345,
      "Ġevent": 1346,
      "ĠQ": 1347,
      "Ġbest": 1348,
      "Ġhome": 1349,
      "ĠGe": 1350,
      "mber": 1351,
      "Ġway": 1352,
      "ilar": 1353,
      "urric": 1354,
      "Ġschool": 1355,
      "Ġresp": 1356,
      "ĠRo": 1357,
      "ĠEurope": 1358,
      "Ġwater": 1359,
      "ĠHis": 1360,
      "Ġgovernment": 1361,
      "ances": 1362,
      "ograp": 1363,
      "ently": 1364,
      "cember": 1365,
      "Ġexpl": 1366,
      "ĠDecember": 1367,
      "Ġ192": 1368,
      "Ġmen": 1369,
      "ret": 1370,
      "Ġthose": 1371,
      "avy": 1372,
      "raft": 1373,
      "ĠThere": 1374,
      "ĠBy": 1375,
      "ger": 1376,
      "Ġturn": 1377,
      "Ġconstru": 1378,
      "ience": 1379,
      "Ġhum": 1380,
      "Ġplace": 1381,
      "ĠCity": 1382,
      "ulation": 1383,
      "Ġorgan": 1384,
      "Ġsl": 1385,
      "Ġbuilt": 1386,
      "ature": 1387,
      "Ġbre": 1388,
      "pend": 1389,
      "ards": 1390,
      "urther": 1391,
      "Ġgreat": 1392,
      "ians": 1393,
      "ides": 1394,
      "Ġstory": 1395,
      "Ġprote": 1396,
      "Ġcommand": 1397,
      "ached": 1398,
      "Ġkill": 1399,
      "Ġmonth": 1400,
      "ĠWhen": 1401,
      "Ġcolle": 1402,
      "ched": 1403,
      "hest": 1404,
      "Ġsent": 1405,
      "Ġperson": 1406,
      "Ġoriginal": 1407,
      "ript": 1408,
      "iversity": 1409,
      "itary": 1410,
      "Ġmake": 1411,
      "Ġhand": 1412,
      "Ġopp": 1413,
      "eder": 1414,
      "Ġ100": 1415,
      "Ġ2009": 1416,
      "Ġ2010": 1417,
      "Ġmed": 1418,
      "Ġvideo": 1419,
      "ĠNational": 1420,
      "ĠÂ": 1421,
      "Ġ2008": 1422,
      "Ġauth": 1423,
      "Ġrequ": 1424,
      "Ġhal": 1425,
      "ention": 1426,
      "Ġpresent": 1427,
      "oci": 1428,
      "aur": 1429,
      "por": 1430,
      "Ġmark": 1431,
      "Ġph": 1432,
      "Ġsug": 1433,
      "ham": 1434,
      "Ġclub": 1435,
      "Ġeng": 1436,
      "ences": 1437,
      "riend": 1438,
      "iven": 1439,
      "aster": 1440,
      "elt": 1441,
      "ene": 1442,
      "Ġview": 1443,
      "ĠMc": 1444,
      "ically": 1445,
      "self": 1446,
      "ĠRiver": 1447,
      "Ġmoved": 1448,
      "Ġled": 1449,
      "Ġrole": 1450,
      "Ġaddition": 1451,
      "Ġcapt": 1452,
      "Ġstand": 1453,
      "Ġstill": 1454,
      "Ġcame": 1455,
      "Ġleg": 1456,
      "Ġlocal": 1457,
      "Ġiss": 1458,
      "Ġrepl": 1459,
      "rench": 1460,
      "gy": 1461,
      "ense": 1462,
      "ĠPr": 1463,
      "aff": 1464,
      "Ġoften": 1465,
      "Ġhistory": 1466,
      "urricane": 1467,
      "Ġcommon": 1468,
      "Ġcaus": 1469,
      "Ġdest": 1470,
      "ival": 1471,
      "ĠWe": 1472,
      "Ġcour": 1473,
      "ae": 1474,
      "ison": 1475,
      "ĠMan": 1476,
      "Ġdem": 1477,
      "aken": 1478,
      "Ġeffect": 1479,
      "ery": 1480,
      "Ġfew": 1481,
      "be": 1482,
      "ĠBo": 1483,
      "ady": 1484,
      "ĠNo": 1485,
      "ops": 1486,
      "Ġ2007": 1487,
      "Ġnext": 1488,
      "Ġconsidered": 1489,
      "ĠFl": 1490,
      "Ġtrad": 1491,
      "ories": 1492,
      "eng": 1493,
      "Ġplayer": 1494,
      "Ġsuggest": 1495,
      "ling": 1496,
      "lev": 1497,
      "Ġstar": 1498,
      "astern": 1499,
      "ĠSp": 1500,
      "ĠFrench": 1501,
      "Ġexper": 1502,
      "side": 1503,
      "Ġmy": 1504,
      "Ġsimilar": 1505,
      "Ġcareer": 1506,
      "ĠOne": 1507,
      "Ġrecorded": 1508,
      "ĠEnglish": 1509,
      "Ġside": 1510,
      "uss": 1511,
      "Ġright": 1512,
      "ĠPe": 1513,
      "ined": 1514,
      "Ġcr": 1515,
      "Ġinit": 1516,
      "let": 1517,
      "Ġimport": 1518,
      "Ġreal": 1519,
      "ĠOr": 1520,
      "Ġclaim": 1521,
      "que": 1522,
      "ĠBatt": 1523,
      "Ġcompany": 1524,
      "ai": 1525,
      "Ġcover": 1526,
      "Ġpublished": 1527,
      "ĠBro": 1528,
      "Ġdeb": 1529,
      "Ġcontinued": 1530,
      "Ġcontr": 1531,
      "rew": 1532,
      "arn": 1533,
      "idge": 1534,
      "Ġrefer": 1535,
      "Ġyou": 1536,
      "Ġtake": 1537,
      "Ġbas": 1538,
      "Ġwithout": 1539,
      "Ġsold": 1540,
      "Ġmid": 1541,
      "ĠPh": 1542,
      "ternational": 1543,
      "Ġsongs": 1544,
      "Ġdifferent": 1545,
      "Ġsay": 1546,
      "Ġtown": 1547,
      "Ġformer": 1548,
      "ĠWith": 1549,
      "Ġant": 1550,
      "ior": 1551,
      "Ġwind": 1552,
      "Ġheld": 1553,
      "ĠComp": 1554,
      "atter": 1555,
      "ister": 1556,
      "uted": 1557,
      "ĠAcc": 1558,
      "Ġamong": 1559,
      "ness": 1560,
      "Ġmemb": 1561,
      "Ġlevel": 1562,
      "lu": 1563,
      "Ġtot": 1564,
      "Ġarch": 1565,
      "Ġroad": 1566,
      "Ġtem": 1567,
      "Ġpolit": 1568,
      "Ġfield": 1569,
      "ged": 1570,
      "Ġwritten": 1571,
      "arch": 1572,
      "thing": 1573,
      "ĠState": 1574,
      "bs": 1575,
      "Ġplan": 1576,
      "Ġevery": 1577,
      "ps": 1578,
      "Ġes": 1579,
      "ĠPort": 1580,
      "Ġhalf": 1581,
      "alk": 1582,
      "Ġ21": 1583,
      "ĠDivision": 1584,
      "ampions": 1585,
      "Ġtw": 1586,
      "Ġ2011": 1587,
      "Ġrelease": 1588,
      "resent": 1589,
      "ves": 1590,
      "estern": 1591,
      "iment": 1592,
      "ĠWill": 1593,
      "ead": 1594,
      "Ġbecome": 1595,
      "Ġav": 1596,
      "Ġfurther": 1597,
      "Ġmag": 1598,
      "Ġ2006": 1599,
      "Ġcommun": 1600,
      "tended": 1601,
      "ĠAccording": 1602,
      "ĠAlthough": 1603,
      "ensive": 1604,
      "Ġwest": 1605,
      "Ġhowever": 1606,
      "Ġchurch": 1607,
      "Ġ23": 1608,
      "Ġdays": 1609,
      "Ġstrong": 1610,
      "ĠCanad": 1611,
      "yle": 1612,
      "itar": 1613,
      "Ġeast": 1614,
      "Ġfind": 1615,
      "Ġversion": 1616,
      "roy": 1617,
      "lear": 1618,
      "Ġjoin": 1619,
      "ung": 1620,
      "br": 1621,
      "bru": 1622,
      "Ġ&": 1623,
      "ott": 1624,
      "ried": 1625,
      "ĠChurch": 1626,
      "Ġcompet": 1627,
      "Ġtitle": 1628,
      "ĠCount": 1629,
      "Ġparticular": 1630,
      "ne": 1631,
      "pite": 1632,
      "mp": 1633,
      "Ġlow": 1634,
      "Ġmilitary": 1635,
      "Ġpar": 1636,
      "Ġdel": 1637,
      "par": 1638,
      "Ġbeh": 1639,
      "rodu": 1640,
      "ĠRoman": 1641,
      "Ġorder": 1642,
      "ĠLeague": 1643,
      "Ġauthor": 1644,
      "Ġprop": 1645,
      "ĠMin": 1646,
      "Ġdefe": 1647,
      "Ġcontrol": 1648,
      "Ġfoot": 1649,
      "aly": 1650,
      "outher": 1651,
      "ĠSong": 1652,
      "ĠFebru": 1653,
      "outhern": 1654,
      "ĠFebruary": 1655,
      "ĠPer": 1656,
      "ĠGener": 1657,
      "Ġtimes": 1658,
      "fric": 1659,
      "Ġgave": 1660,
      "Ġ22": 1661,
      "Ġless": 1662,
      "Ġ!": 1663,
      "Ġsit": 1664,
      "Ġ26": 1665,
      "Ġreported": 1666,
      "Ġmembers": 1667,
      "Ġfr": 1668,
      "Ġband": 1669,
      "ĠDyl": 1670,
      "Ġvict": 1671,
      "raw": 1672,
      "ĠDylan": 1673,
      "Ġ24": 1674,
      "ots": 1675,
      "Ġchang": 1676,
      "ĠGeor": 1677,
      "Ġfore": 1678,
      "ĠAb": 1679,
      "Ġnort": 1680,
      "Ġproduced": 1681,
      "ches": 1682,
      "Ġ2012": 1683,
      "levision": 1684,
      "Ġprof": 1685,
      "Ġel": 1686,
      "Ġtotal": 1687,
      "augh": 1688,
      "ices": 1689,
      "ĠPark": 1690,
      "ĠOld": 1691,
      "ailed": 1692,
      "ering": 1693,
      "urs": 1694,
      "Ġstat": 1695,
      "ĠWest": 1696,
      "line": 1697,
      "aces": 1698,
      "Ġproduction": 1699,
      "Ġpopular": 1700,
      "iety": 1701,
      "Ġfre": 1702,
      "Ġdecl": 1703,
      "ception": 1704,
      "Ġtropical": 1705,
      "ĠBar": 1706,
      "Ġnov": 1707,
      "ront": 1708,
      "hern": 1709,
      "oung": 1710,
      "Ġproject": 1711,
      "Ġsol": 1712,
      "Ġforces": 1713,
      "ĠJap": 1714,
      "itions": 1715,
      "Ġpoint": 1716,
      "Ġchildren": 1717,
      "ĠJapan": 1718,
      "Ġcur": 1719,
      "Ġcult": 1720,
      "Ġhaving": 1721,
      "ĠPar": 1722,
      "Ġinclude": 1723,
      "reen": 1724,
      "Ġcritic": 1725,
      "Ġobs": 1726,
      "Ġhistor": 1727,
      "pec": 1728,
      "ler": 1729,
      "Ġ28": 1730,
      "Ġinvol": 1731,
      "ĠX": 1732,
      "alion": 1733,
      "Ġlost": 1734,
      "Ġinflu": 1735,
      "Ġgiven": 1736,
      "Ġwant": 1737,
      "ĠAss": 1738,
      "inc": 1739,
      "ression": 1740,
      "Ġcountry": 1741,
      "sh": 1742,
      "Ġtro": 1743,
      "Ġfire": 1744,
      "Ġsignific": 1745,
      "Ġrepresent": 1746,
      "Ġmanag": 1747,
      "ape": 1748,
      "omen": 1749,
      "ize": 1750,
      "Ġ2013": 1751,
      "ĠSim": 1752,
      "chn": 1753,
      "Ġsite": 1754,
      "omet": 1755,
      "Ġseen": 1756,
      "osp": 1757,
      "Ġeight": 1758,
      "ĠDes": 1759,
      "Ġprogram": 1760,
      "Ġmaking": 1761,
      "ĠAm": 1762,
      "vers": 1763,
      "Ġnever": 1764,
      "Ġfar": 1765,
      "ĠMiss": 1766,
      "Ġstated": 1767,
      "Ġestabl": 1768,
      "Ġpress": 1769,
      "Ġdet": 1770,
      "ĠAfric": 1771,
      "Ġcomb": 1772,
      "ĠEd": 1773,
      "ĠGeneral": 1774,
      "Ġbody": 1775,
      "Ġshould": 1776,
      "Ġaff": 1777,
      "ĠCent": 1778,
      "ĠWhile": 1779,
      "Ġmatch": 1780,
      "ither": 1781,
      "Ġfact": 1782,
      "ploy": 1783,
      "Ġreturned": 1784,
      "reet": 1785,
      "ising": 1786,
      "Ġpat": 1787,
      "ĠDav": 1788,
      "ĠUniversity": 1789,
      "rent": 1790,
      "craft": 1791,
      "Ġfem": 1792,
      "enc": 1793,
      "Ġord": 1794,
      "Ġft": 1795,
      "Ġpost": 1796,
      "ĠPol": 1797,
      "ours": 1798,
      "ĠThese": 1799,
      "Ġ190": 1800,
      "ĠAmerica": 1801,
      "ĠEar": 1802,
      "Ġships": 1803,
      "Ġestablished": 1804,
      "Ġsound": 1805,
      "Ġhow": 1806,
      "Ġisland": 1807,
      "sequ": 1808,
      "Ġearl": 1809,
      "ampionship": 1810,
      "Ġpopulation": 1811,
      "Ġannoun": 1812,
      "Ġreached": 1813,
      "Ġequ": 1814,
      "ĠSte": 1815,
      "Ġstruct": 1816,
      "ĠJack": 1817,
      "Ġchart": 1818,
      "Ġ50": 1819,
      "Ġaway": 1820,
      "reland": 1821,
      "Ġsoc": 1822,
      "ades": 1823,
      "ĠIreland": 1824,
      "ably": 1825,
      "Ġnoted": 1826,
      "ĠAir": 1827,
      "igade": 1828,
      "ĠHa": 1829,
      "Ġtoo": 1830,
      "play": 1831,
      "aul": 1832,
      "ope": 1833,
      "Ġfriend": 1834,
      "Ġgod": 1835,
      "Ġground": 1836,
      "Ġthroughout": 1837,
      "Ġacross": 1838,
      "Ġdeveloped": 1839,
      "Ġthought": 1840,
      "Ġlight": 1841,
      "ĠEv": 1842,
      "fic": 1843,
      "ox": 1844,
      "Ġseven": 1845,
      "me": 1846,
      "Ġgen": 1847,
      "Ġ27": 1848,
      "ĠLond": 1849,
      "Ġintrodu": 1850,
      "ĠLondon": 1851,
      "Ġdiv": 1852,
      "Ġusing": 1853,
      "Ġhimself": 1854,
      "ground": 1855,
      "Ġdevelopment": 1856,
      "ĠNe": 1857,
      "ĠWilliam": 1858,
      "Ġgood": 1859,
      "Ġdestroy": 1860,
      "Ġla": 1861,
      "ĠFeder": 1862,
      "ford": 1863,
      "Ġhig": 1864,
      "Ġlim": 1865,
      "aint": 1866,
      "ument": 1867,
      "most": 1868,
      "Ġfelt": 1869,
      "ese": 1870,
      "ĠMich": 1871,
      "Ġsignificant": 1872,
      "used": 1873,
      "reek": 1874,
      "ĠAustralia": 1875,
      "yn": 1876,
      "idence": 1877,
      "ctor": 1878,
      "ological": 1879,
      "Ġperformed": 1880,
      "Ġimportant": 1881,
      "au": 1882,
      "Ġcast": 1883,
      "work": 1884,
      "Ġpra": 1885,
      "amb": 1886,
      "Ġwriting": 1887,
      "ĠAtl": 1888,
      "Ġmiles": 1889,
      "Ġcou": 1890,
      "Ġfather": 1891,
      "arr": 1892,
      "ords": 1893,
      "Ġtelevision": 1894,
      "oon": 1895,
      "Ġide": 1896,
      "int": 1897,
      "ream": 1898,
      "Ġinterest": 1899,
      "ĠBlack": 1900,
      "Ġvarious": 1901,
      "atic": 1902,
      "ivil": 1903,
      "Ġareas": 1904,
      "Ġhuman": 1905,
      "imately": 1906,
      "Ġtour": 1907,
      "Ġnight": 1908,
      "Ġblack": 1909,
      "ones": 1910,
      "Ġfull": 1911,
      "Ġdied": 1912,
      "Ġtyp": 1913,
      "Ġwent": 1914,
      "Ġlook": 1915,
      "utes": 1916,
      "Ġprot": 1917,
      "Ġwat": 1918,
      "Ġwhite": 1919,
      "ĠRich": 1920,
      "Ġrad": 1921,
      "ĠChar": 1922,
      "aren": 1923,
      "Ġactiv": 1924,
      "Ġdoes": 1925,
      "Ġsuccessful": 1926,
      "aign": 1927,
      "ĠRober": 1928,
      "Ġevents": 1929,
      "Ġneed": 1930,
      "ĠReg": 1931,
      "Ġsk": 1932,
      "Ġlaw": 1933,
      "ief": 1934,
      "ĠRoad": 1935,
      "Ġplayers": 1936,
      "Ġstarted": 1937,
      "ges": 1938,
      "ĠRoy": 1939,
      "ĠJames": 1940,
      "Ġmodern": 1941,
      "Ġten": 1942,
      "ask": 1943,
      "Ġmm": 1944,
      "Ġdiscover": 1945,
      "Ġsee": 1946,
      "Ġfeet": 1947,
      "Ġformed": 1948,
      "Ġcor": 1949,
      "itive": 1950,
      "Ġpoem": 1951,
      "tain": 1952,
      "Ġrange": 1953,
      "antic": 1954,
      "Ġconv": 1955,
      "Ġperformance": 1956,
      "ĠCounty": 1957,
      "Ġmix": 1958,
      "Ġhouse": 1959,
      "Ġstyle": 1960,
      "rick": 1961,
      "Ġrelations": 1962,
      "Ġbuilding": 1963,
      "Ġball": 1964,
      "Ġcaused": 1965,
      "Ġcat": 1966,
      "Ġforce": 1967,
      "na": 1968,
      "Ġage": 1969,
      "Ġread": 1970,
      "Ġprim": 1971,
      "Ġput": 1972,
      "ald": 1973,
      "ster": 1974,
      "ration": 1975,
      "ĠEl": 1976,
      "Ġvill": 1977,
      "Ġtrav": 1978,
      "Ġtechn": 1979,
      "ĠYou": 1980,
      "Ġcy": 1981,
      "alth": 1982,
      "Ġcreated": 1983,
      "af": 1984,
      "ael": 1985,
      "ico": 1986,
      "ĠPal": 1987,
      "Ġ189": 1988,
      "Ġofficial": 1989,
      "Ġnovel": 1990,
      "con": 1991,
      "Ġ2004": 1992,
      "Ġsuff": 1993,
      "Ġ2005": 1994,
      "ublic": 1995,
      "Ġentire": 1996,
      "isc": 1997,
      "ĠTo": 1998,
      "ush": 1999,
      "Ġke": 2000,
      "ogn": 2001,
      "Ġable": 2002,
      "Ġpolitical": 2003,
      "ec": 2004,
      "Ġfun": 2005,
      "ourn": 2006,
      "Ġcharacters": 2007,
      "Ġsum": 2008,
      "Ġget": 2009,
      "Ġothers": 2010,
      "Ġrelig": 2011,
      "Ġcoast": 2012,
      "ĠMag": 2013,
      "ĠHigh": 2014,
      "Ġconstruction": 2015,
      "omb": 2016,
      "Ġbird": 2017,
      "Ġbegin": 2018,
      "aves": 2019,
      "abor": 2020,
      "iness": 2021,
      "oll": 2022,
      "Ġoccur": 2023,
      "ring": 2024,
      "Ġson": 2025,
      "Ġpit": 2026,
      "Ġpri": 2027,
      "epend": 2028,
      "Ġcert": 2029,
      "ĠTown": 2030,
      "ĠâĢĻ": 2031,
      "day": 2032,
      "ying": 2033,
      "Ġred": 2034,
      "ĠGl": 2035,
      "ressed": 2036,
      "Ġonce": 2037,
      "ample": 2038,
      "Ġremained": 2039,
      "ĠAng": 2040,
      "Ġlocated": 2041,
      "ination": 2042,
      "rest": 2043,
      "iting": 2044,
      "asing": 2045,
      "ĠCare": 2046,
      "Ġste": 2047,
      "isted": 2048,
      "Ġbecom": 2049,
      "Ġsurv": 2050,
      "Ġpromot": 2051,
      "Ġbattle": 2052,
      "fall": 2053,
      "Ġlik": 2054,
      "Ġnational": 2055,
      "ĠCor": 2056,
      "Ġscored": 2057,
      "Ġworks": 2058,
      "Ġdiffic": 2059,
      "ĠKingdom": 2060,
      "Ġdifficult": 2061,
      "ĠHist": 2062,
      "ected": 2063,
      "Ġproduc": 2064,
      "Ġmeet": 2065,
      "Ġcompleted": 2066,
      "ĠIsland": 2067,
      "ĠAustralian": 2068,
      "Ġcampaign": 2069,
      "Ġtradition": 2070,
      "Ġannounced": 2071,
      "ĠSom": 2072,
      "ĠCal": 2073,
      "Ġrank": 2074,
      "ĠSec": 2075,
      "uck": 2076,
      "Ġstars": 2077,
      "Ġregion": 2078,
      "ator": 2079,
      "Ġfig": 2080,
      "Ġhold": 2081,
      "Ġrock": 2082,
      "Ġguns": 2083,
      "ĠCup": 2084,
      "ĠMor": 2085,
      "ĠCompany": 2086,
      "iers": 2087,
      "rie": 2088,
      "Ġprocess": 2089,
      "Ġlittle": 2090,
      "hem": 2091,
      "Ġfav": 2092,
      "Ġfight": 2093,
      "ĠRec": 2094,
      "Ġhighway": 2095,
      "Ġgoal": 2096,
      "Ġinstead": 2097,
      "Ġhelp": 2098,
      "Ġtre": 2099,
      "ivid": 2100,
      "irc": 2101,
      "Ġpred": 2102,
      "ĠCro": 2103,
      "Ġval": 2104,
      "Ġgrow": 2105,
      "Ġadded": 2106,
      "itted": 2107,
      "ament": 2108,
      "Ġgl": 2109,
      "rought": 2110,
      "Ġcross": 2111,
      "ĠOl": 2112,
      "Ġlet": 2113,
      "Ġleast": 2114,
      "Ġfollowed": 2115,
      "Ġfac": 2116,
      "Ġfront": 2117,
      "Ġredu": 2118,
      "ounc": 2119,
      "Ġ31": 2120,
      "Ġpeak": 2121,
      "Ġappeared": 2122,
      "Ġborn": 2123,
      "Ġrev": 2124,
      "quad": 2125,
      "ĠKe": 2126,
      "Ġknow": 2127,
      "Ġkilled": 2128,
      "leet": 2129,
      "Ġoriginally": 2130,
      "Ġmonths": 2131,
      "Ġer": 2132,
      "reg": 2133,
      "Ġwife": 2134,
      "Ġcomment": 2135,
      "elling": 2136,
      "ĠArmy": 2137,
      "Ġsouthern": 2138,
      "orse": 2139,
      "ĠDavid": 2140,
      "oice": 2141,
      "Ġcas": 2142,
      "Ġloss": 2143,
      "ĠBill": 2144,
      "ĠGrand": 2145,
      "Ġfif": 2146,
      "enced": 2147,
      "ality": 2148,
      "Ġhurricane": 2149,
      "enth": 2150,
      "Ġnuc": 2151,
      "ĠHam": 2152,
      "ries": 2153,
      "Ġwomen": 2154,
      "Ġassoci": 2155,
      "Ġident": 2156,
      "Ġeastern": 2157,
      "Ġagre": 2158,
      "ĠMusic": 2159,
      "bo": 2160,
      "Ġ29": 2161,
      "angu": 2162,
      "Ġrelationship": 2163,
      "Ã¡": 2164,
      "ÃŃ": 2165,
      "Ġmass": 2166,
      "Ġ2003": 2167,
      "Ġcritics": 2168,
      "off": 2169,
      "Ġmother": 2170,
      "ĠSome": 2171,
      "Ġaccom": 2172,
      "ĠFrance": 2173,
      "Ġeventually": 2174,
      "Ġaward": 2175,
      "ĠSup": 2176,
      "acy": 2177,
      "Ġ40": 2178,
      "Ġ185": 2179,
      "Ġfeatures": 2180,
      "gr": 2181,
      "Ġbus": 2182,
      "lect": 2183,
      "idd": 2184,
      "ĠOther": 2185,
      "Ġ2015": 2186,
      "field": 2187,
      "Ġlive": 2188,
      "Ġbroad": 2189,
      "com": 2190,
      "Ġaud": 2191,
      "Ġcond": 2192,
      "Ġanim": 2193,
      "Ġyoung": 2194,
      "ray": 2195,
      "Ġtaken": 2196,
      "Ġcell": 2197,
      "Ġstri": 2198,
      "app": 2199,
      "Ġroute": 2200,
      "Ġrecogn": 2201,
      "Ġappoin": 2202,
      "Ġfourth": 2203,
      "ĠTwo": 2204,
      "Ġserved": 2205,
      "here": 2206,
      "Ġbar": 2207,
      "ully": 2208,
      "ĠEx": 2209,
      "Äģ": 2210,
      "ota": 2211,
      "emy": 2212,
      "Ġestim": 2213,
      "Ġdamage": 2214,
      "Ġprofess": 2215,
      "Ġlack": 2216,
      "Ġheavy": 2217,
      "antry": 2218,
      "arliam": 2219,
      "ique": 2220,
      "inal": 2221,
      "Ġsw": 2222,
      "Ġbase": 2223,
      "Ġeither": 2224,
      "Ġsex": 2225,
      "Ġdecided": 2226,
      "ĠBattalion": 2227,
      "Ġaver": 2228,
      "osaur": 2229,
      "ĠLove": 2230,
      "Ġproble": 2231,
      "Ġvoc": 2232,
      "ĠSw": 2233,
      "olution": 2234,
      "Ġcondom": 2235,
      "Ġcommer": 2236,
      "Ġbehind": 2237,
      "Ġtoget": 2238,
      "aper": 2239,
      "azine": 2240,
      "Ġbelieved": 2241,
      "Ġtogether": 2242,
      "Ġmor": 2243,
      "Ġsepar": 2244,
      "ĠRobert": 2245,
      "chie": 2246,
      "Ġsuper": 2247,
      "Ġarg": 2248,
      "ille": 2249,
      "ĠGod": 2250,
      "ought": 2251,
      "Ġplaying": 2252,
      "ountain": 2253,
      "Ġindivid": 2254,
      "ĠCarey": 2255,
      "arliament": 2256,
      "Ġve": 2257,
      "Ġimpro": 2258,
      "igned": 2259,
      "ization": 2260,
      "lo": 2261,
      "Ġcreat": 2262,
      "Ġexample": 2263,
      "Ġspecial": 2264,
      "ĠRoyal": 2265,
      "ouncil": 2266,
      "ĠMon": 2267,
      "Ġalmost": 2268,
      "Ġclos": 2269,
      "Ġclose": 2270,
      "Ġ188": 2271,
      "Ġmove": 2272,
      "Ġaccept": 2273,
      "ements": 2274,
      "Ġquar": 2275,
      "Ġleading": 2276,
      "hys": 2277,
      "ĠMex": 2278,
      "ĠEuropean": 2279,
      "cial": 2280,
      "mar": 2281,
      "Ġburn": 2282,
      "Ġlangu": 2283,
      "Ġask": 2284,
      "Ġgenerally": 2285,
      "Ġservice": 2286,
      "ĠFederer": 2287,
      "Ġtowards": 2288,
      "Ġmater": 2289,
      "Ġround": 2290,
      "aching": 2291,
      "Ġelements": 2292,
      "Ġopened": 2293,
      "Ġfall": 2294,
      "Ġhy": 2295,
      "Ġarm": 2296,
      "Ġsour": 2297,
      "Ġbrought": 2298,
      "Ġdou": 2299,
      "ĠSer": 2300,
      "urb": 2301,
      "ĠBer": 2302,
      "ĠBrigade": 2303,
      "Ġweeks": 2304,
      "Ġmiss": 2305,
      "Ġnon": 2306,
      "ĠInternational": 2307,
      "Ġfinished": 2308,
      "iction": 2309,
      "Ġce": 2310,
      "Ġcirc": 2311,
      "ĠCr": 2312,
      "ĠIr": 2313,
      "ĠWales": 2314,
      "Ġra": 2315,
      "illa": 2316,
      "rict": 2317,
      "Ġlaun": 2318,
      "Ġsaw": 2319,
      "icated": 2320,
      "ceed": 2321,
      "Ġstudy": 2322,
      "Ġfeatured": 2323,
      "Ġhost": 2324,
      "ĠViet": 2325,
      "Ġrespect": 2326,
      "Ġaircraft": 2327,
      "iation": 2328,
      "Ġregular": 2329,
      "ĠFlor": 2330,
      "Ġdraw": 2331,
      "ida": 2332,
      "Ġenc": 2333,
      "iron": 2334,
      "ests": 2335,
      "Ġvol": 2336,
      "ĠWhite": 2337,
      "Ġgeneral": 2338,
      "Ġpoints": 2339,
      "ned": 2340,
      "read": 2341,
      "Ġrese": 2342,
      "ston": 2343,
      "ĠHen": 2344,
      "etwork": 2345,
      "ĠPart": 2346,
      "ways": 2347,
      "Ġelect": 2348,
      "Ġdirected": 2349,
      "uter": 2350,
      "ze": 2351,
      "ounted": 2352,
      "ĠChampionship": 2353,
      "Ġcentral": 2354,
      "Ġprovided": 2355,
      "hic": 2356,
      "Ġaction": 2357,
      "ordan": 2358,
      "Ġmeas": 2359,
      "val": 2360,
      "Ġfund": 2361,
      "Ġinform": 2362,
      "ĠAct": 2363,
      "ĠSy": 2364,
      "ĠHar": 2365,
      "Ġ35": 2366,
      "Ġupon": 2367,
      "ĠPlay": 2368,
      "Ġdirector": 2369,
      "ography": 2370,
      "iol": 2371,
      "Ġwall": 2372,
      "ĠGame": 2373,
      "Ġmean": 2374,
      "Ġappearance": 2375,
      "eum": 2376,
      "Ġwid": 2377,
      "ĠFollow": 2378,
      "ĠJordan": 2379,
      "umb": 2380,
      "ĠEast": 2381,
      "Ġ186": 2382,
      "Ġcoll": 2383,
      "Ġearlier": 2384,
      "Ġmi": 2385,
      "ĠFrom": 2386,
      "odes": 2387,
      "Ġyard": 2388,
      "ĠThom": 2389,
      "ency": 2390,
      "ĠPres": 2391,
      "Ġsequ": 2392,
      "Ġrather": 2393,
      "Ġking": 2394,
      "Ġ2014": 2395,
      "Ġflood": 2396,
      "Ġfemale": 2397,
      "ĠAtlantic": 2398,
      "bit": 2399,
      "ino": 2400,
      "irl": 2401,
      "Ġindust": 2402,
      "medi": 2403,
      "Ġcurrent": 2404,
      "Ġtroops": 2405,
      "Ġlargest": 2406,
      "Ġvictory": 2407,
      "ĠFollowing": 2408,
      "oring": 2409,
      "Ġren": 2410,
      "Ġreve": 2411,
      "ĠJew": 2412,
      "Ġdev": 2413,
      "Ġsubsequ": 2414,
      "Ġemploy": 2415,
      "Ġoperations": 2416,
      "ĠChristian": 2417,
      "Ġparticularly": 2418,
      "ĠGeorge": 2419,
      "Ġmanager": 2420,
      "ming": 2421,
      "Ġachie": 2422,
      "Ġcost": 2423,
      "ĠMad": 2424,
      "ĠHouse": 2425,
      "ĠDay": 2426,
      "ĠHero": 2427,
      "cher": 2428,
      "oid": 2429,
      "ĠMary": 2430,
      "ude": 2431,
      "ĠRep": 2432,
      "Ġopening": 2433,
      "Ġwanted": 2434,
      "stit": 2435,
      "Ġbeg": 2436,
      "ĠDu": 2437,
      "Ġcondu": 2438,
      "mb": 2439,
      "eler": 2440,
      "ĠRed": 2441,
      "orts": 2442,
      "Ġyards": 2443,
      "Ġevidence": 2444,
      "iber": 2445,
      "Ġcut": 2446,
      "Ġreason": 2447,
      "ouri": 2448,
      "Ġriver": 2449,
      "Ġprob": 2450,
      "Ġexc": 2451,
      "ounter": 2452,
      "ĠCommand": 2453,
      "Ġnorthern": 2454,
      "ĠFlorida": 2455,
      "Ġmember": 2456,
      "Ġstage": 2457,
      "Ġinsp": 2458,
      "cast": 2459,
      "Ġleng": 2460,
      "ĠRock": 2461,
      "ĠStreet": 2462,
      "Ġ500": 2463,
      "Ġoutside": 2464,
      "Ġcrew": 2465,
      "Ġallowed": 2466,
      "Ġpossible": 2467,
      "Ġengine": 2468,
      "oo": 2469,
      "Ġfoc": 2470,
      "Ġbi": 2471,
      "Ġstren": 2472,
      "action": 2473,
      "Ġsaying": 2474,
      "sel": 2475,
      "Ġill": 2476,
      "ĠMed": 2477,
      "ellow": 2478,
      "ĠOliv": 2479,
      "cript": 2480,
      "erous": 2481,
      "atural": 2482,
      "ania": 2483,
      "Ġhit": 2484,
      "Ġhours": 2485,
      "Ġwhom": 2486,
      "west": 2487,
      "Ġcase": 2488,
      "anch": 2489,
      "ential": 2490,
      "Ġnomin": 2491,
      "conom": 2492,
      "ators": 2493,
      "Ġfort": 2494,
      "Ġdeter": 2495,
      "Ġexist": 2496,
      "Ġ2001": 2497,
      "Ġworked": 2498,
      "Ġregard": 2499,
      "ĠMissouri": 2500,
      "alt": 2501,
      "ĠMost": 2502,
      "ĠOd": 2503,
      "Ġpract": 2504,
      "Ġstreng": 2505,
      "eal": 2506,
      "atin": 2507,
      "Ġmot": 2508,
      "ama": 2509,
      "ĠBra": 2510,
      "Ġworking": 2511,
      "Ġterrit": 2512,
      "Ġrespons": 2513,
      "Ġlength": 2514,
      "cent": 2515,
      "nder": 2516,
      "ĠMy": 2517,
      "Ġnews": 2518,
      "Ġreb": 2519,
      "osition": 2520,
      "ĠGal": 2521,
      "artment": 2522,
      "Ġdefend": 2523,
      "board": 2524,
      "Ġmaterial": 2525,
      "ata": 2526,
      "Ġbur": 2527,
      "Ġmach": 2528,
      "Ġgold": 2529,
      "Ġpoor": 2530,
      "Ġdesigned": 2531,
      "Ġfree": 2532,
      "Ġlove": 2533,
      "ĠBay": 2534,
      "ĠPaul": 2535,
      "Ġseem": 2536,
      "ump": 2537,
      "Ġrul": 2538,
      "Ġneg": 2539,
      "ĠTech": 2540,
      "thod": 2541,
      "Ġstay": 2542,
      "ĠWal": 2543,
      "anding": 2544,
      "Ġpraised": 2545,
      "uel": 2546,
      "ĠCo": 2547,
      "ĠMark": 2548,
      "Ġforced": 2549,
      "ĠFirst": 2550,
      "ights": 2551,
      "ishing": 2552,
      "Ġremains": 2553,
      "ĠIndian": 2554,
      "Ġavail": 2555,
      "Ġfootball": 2556,
      "ores": 2557,
      "ĠBest": 2558,
      "Ġ187": 2559,
      "Ġ1970": 2560,
      "ĠPhil": 2561,
      "Ġbill": 2562,
      "ana": 2563,
      "Ġthink": 2564,
      "Ġstation": 2565,
      "Ġwinds": 2566,
      "ĠMichael": 2567,
      "less": 2568,
      "Ġtreat": 2569,
      "Ġcop": 2570,
      "ĠWil": 2571,
      "Ġquick": 2572,
      "Ġgoals": 2573,
      "Ġincreased": 2574,
      "Ġcontract": 2575,
      "heast": 2576,
      "ened": 2577,
      "Ġpast": 2578,
      "Ġdi": 2579,
      "aps": 2580,
      "Ġpreviously": 2581,
      "ĠÂ£": 2582,
      "ius": 2583,
      "vest": 2584,
      "ica": 2585,
      "Ġgre": 2586,
      "ago": 2587,
      "ĠEgy": 2588,
      "Ġabove": 2589,
      "Ġreplaced": 2590,
      "ĠEgypt": 2591,
      "gg": 2592,
      "ule": 2593,
      "xas": 2594,
      "ĠCap": 2595,
      "ĠBut": 2596,
      "vert": 2597,
      "Ġsoon": 2598,
      "Ġinvest": 2599,
      "ĠRichard": 2600,
      "Ġcivil": 2601,
      "Ġly": 2602,
      "ĠBus": 2603,
      "Ġviol": 2604,
      "ĠDespite": 2605,
      "Ġbusiness": 2606,
      "Ġhon": 2607,
      "Ġinterview": 2608,
      "Ġmer": 2609,
      "Ġthreat": 2610,
      "ession": 2611,
      "Ġ2000": 2612,
      "ributed": 2613,
      "Ġwriter": 2614,
      "ĠÂ°": 2615,
      "Ġcommercial": 2616,
      "ĠHenry": 2617,
      "erved": 2618,
      "asion": 2619,
      "Ġmph": 2620,
      "irth": 2621,
      "ĠHill": 2622,
      "Ġunits": 2623,
      "hens": 2624,
      "ĠCanada": 2625,
      "Ġestimated": 2626,
      "Ġclear": 2627,
      "ara": 2628,
      "ĠSan": 2629,
      "Ġ1990": 2630,
      "Ġaccount": 2631,
      "anned": 2632,
      "ĠQue": 2633,
      "Ġesc": 2634,
      "Ġquarter": 2635,
      "Ġsomet": 2636,
      "Ġpain": 2637,
      "ĠKh": 2638,
      "Ġclaimed": 2639,
      "Ġjoined": 2640,
      "ĠJapanese": 2641,
      "Ġhighest": 2642,
      "uation": 2643,
      "Ġtrib": 2644,
      "utive": 2645,
      "Ġplaced": 2646,
      "Ġspecific": 2647,
      "Ġsurf": 2648,
      "ĠBrown": 2649,
      "ĠOldham": 2650,
      "Ġinvolved": 2651,
      "wh": 2652,
      "ye": 2653,
      "Ġz": 2654,
      "Ġmust": 2655,
      "ĠTimes": 2656,
      "Ġlo": 2657,
      "Ġsigned": 2658,
      "Ġdiscuss": 2659,
      "Ġsuggested": 2660,
      "ĠPresident": 2661,
      "ĠTor": 2662,
      "ĠVir": 2663,
      "Ġparts": 2664,
      "ĠDep": 2665,
      "Ġcourt": 2666,
      "Ġwestern": 2667,
      "oms": 2668,
      "ett": 2669,
      "Ġintens": 2670,
      "Ġ183": 2671,
      "ĠOlivier": 2672,
      "BC": 2673,
      "iter": 2674,
      "Ġproper": 2675,
      "Ġleague": 2676,
      "clus": 2677,
      "Ġitself": 2678,
      "Ġpriv": 2679,
      "ĠCarol": 2680,
      "ĠVietn": 2681,
      "lic": 2682,
      "Ġpers": 2683,
      "ĠDr": 2684,
      "ĠWhe": 2685,
      "ĠLater": 2686,
      "istic": 2687,
      "wood": 2688,
      "Ġobject": 2689,
      "ĠIndia": 2690,
      "Ġaverage": 2691,
      "ĠMexico": 2692,
      "tt": 2693,
      "Ġtaking": 2694,
      "thlet": 2695,
      "Ġchange": 2696,
      "Ġshot": 2697,
      "ĠArab": 2698,
      "Ġavailable": 2699,
      "ington": 2700,
      "ĠSchool": 2701,
      "olic": 2702,
      "osing": 2703,
      "ĠGovern": 2704,
      "Ġcome": 2705,
      "Ġscene": 2706,
      "ĠMcC": 2707,
      "Ġintroduced": 2708,
      "Ġcycl": 2709,
      "ving": 2710,
      "Ġfly": 2711,
      "ĠIm": 2712,
      "Ġwhose": 2713,
      "Ġrecording": 2714,
      "Ġtransport": 2715,
      "Ġterm": 2716,
      "Ġvillage": 2717,
      "now": 2718,
      "ita": 2719,
      "Ġinj": 2720,
      "Ġhous": 2721,
      "ĠCong": 2722,
      "achel": 2723,
      "Ġheav": 2724,
      "ĠVal": 2725,
      "Ġtransfer": 2726,
      "Ġbrother": 2727,
      "ĠThomas": 2728,
      "bor": 2729,
      "nes": 2730,
      "ximately": 2731,
      "ĠHall": 2732,
      "ĠVar": 2733,
      "Ġreligious": 2734,
      "ĠIrish": 2735,
      "ready": 2736,
      "Ġpen": 2737,
      "lected": 2738,
      "Ġrace": 2739,
      "quar": 2740,
      "ibility": 2741,
      "Ġbreak": 2742,
      "porary": 2743,
      "Ġtravel": 2744,
      "AF": 2745,
      "band": 2746,
      "onst": 2747,
      "Ġslow": 2748,
      "Ġtold": 2749,
      "Ġdon": 2750,
      "Ġnetwork": 2751,
      "acing": 2752,
      "ĠPac": 2753,
      "Ġ36": 2754,
      "ĠBritain": 2755,
      "Ġshows": 2756,
      "Ġ1960": 2757,
      "Ġdamaged": 2758,
      "rated": 2759,
      "Ġ-": 2760,
      "Ġnames": 2761,
      "ĠCard": 2762,
      "Ġstop": 2763,
      "ĠHel": 2764,
      "Ġrail": 2765,
      "pected": 2766,
      "Ġexec": 2767,
      "abit": 2768,
      "Ġremov": 2769,
      "Ġincreasing": 2770,
      "Ġturned": 2771,
      "ĠRepublic": 2772,
      "Ġmult": 2773,
      "Ġlines": 2774,
      "Ġgive": 2775,
      "ĠHurricane": 2776,
      "ĠThat": 2777,
      "Ġsubject": 2778,
      "Ġnine": 2779,
      "ĠMany": 2780,
      "ĠGreat": 2781,
      "Ġdespite": 2782,
      "ĠScient": 2783,
      "Ġnearly": 2784,
      "ĠGuitar": 2785,
      "Ġappointed": 2786,
      "Ġsize": 2787,
      "Ġpie": 2788,
      "ĠSm": 2789,
      "ĠNot": 2790,
      "oney": 2791,
      "Ġfeel": 2792,
      "Ġcomplet": 2793,
      "ĠZeal": 2794,
      "Ġcommunity": 2795,
      "Ġstructure": 2796,
      "ĠZealand": 2797,
      "Ġ?": 2798,
      "Ġop": 2799,
      "Ġphys": 2800,
      "Ġdate": 2801,
      "Ġhard": 2802,
      "ĠSun": 2803,
      "Ġeconom": 2804,
      "elled": 2805,
      "Ġdiss": 2806,
      "Ġindepend": 2807,
      "Ġsurround": 2808,
      "Ġpassed": 2809,
      "Ġeduc": 2810,
      "ault": 2811,
      "Ġinternational": 2812,
      "Ġpur": 2813,
      "ĠMac": 2814,
      "iding": 2815,
      "ĠNY": 2816,
      "ĠGold": 2817,
      "ruction": 2818,
      "ĠUnion": 2819,
      "ronic": 2820,
      "Ġestablish": 2821,
      "Ġliter": 2822,
      "Ġinitially": 2823,
      "pecially": 2824,
      "Ġcertain": 2825,
      "head": 2826,
      "Ġwithd": 2827,
      "Ġalready": 2828,
      "Ġ184": 2829,
      "Ġimmedi": 2830,
      "Ġgrad": 2831,
      "Ġgoing": 2832,
      "Ġsocial": 2833,
      "Ġfailed": 2834,
      "Ġmight": 2835,
      "ĠAc": 2836,
      "ĠRou": 2837,
      "ume": 2838,
      "Ġdeal": 2839,
      "Ġrap": 2840,
      "Ġchap": 2841,
      "ĠChines": 2842,
      "Ġdisplay": 2843,
      "Ġ60": 2844,
      "Ġassist": 2845,
      "anna": 2846,
      "Ġwinning": 2847,
      "Ġarchae": 2848,
      "ĠEarly": 2849,
      "ĠChinese": 2850,
      "Ġstates": 2851,
      "ĠEver": 2852,
      "Ġtraining": 2853,
      "hedral": 2854,
      "Ġ45": 2855,
      "Ġscore": 2856,
      "Ġaccording": 2857,
      "Ġcapital": 2858,
      "Ġoccup": 2859,
      "Ġtype": 2860,
      "Ġespecially": 2861,
      "Ġlanguage": 2862,
      "Ġprobably": 2863,
      "ĠPacific": 2864,
      "Ġfood": 2865,
      "arily": 2866,
      "Ġdoc": 2867,
      "ĠMont": 2868,
      "ĠEm": 2869,
      "iff": 2870,
      "Ġ2002": 2871,
      "Ġminor": 2872,
      "ĠColle": 2873,
      "Ġissue": 2874,
      "Ġdebut": 2875,
      "Ġforest": 2876,
      "for": 2877,
      "Ġtest": 2878,
      "Ġwood": 2879,
      "Ġfut": 2880,
      "aled": 2881,
      "Ġmale": 2882,
      "Ġdaugh": 2883,
      "urt": 2884,
      "ĠPre": 2885,
      "Ġstudio": 2886,
      "ĠIII": 2887,
      "ties": 2888,
      "Ġtow": 2889,
      "ĠMos": 2890,
      "Ġconn": 2891,
      "ĠOs": 2892,
      "Ġincludes": 2893,
      "Ġspent": 2894,
      "Ġarrived": 2895,
      "Ġordered": 2896,
      "ĠHistory": 2897,
      "ĠWheeler": 2898,
      "ĠÃ": 2899,
      "ĠAg": 2900,
      "ĠAwards": 2901,
      "ĠSl": 2902,
      "ĠFilm": 2903,
      "ĠJin": 2904,
      "Ġarmy": 2905,
      "Ġenough": 2906,
      "Ġremaining": 2907,
      "Ġparticip": 2908,
      "Ġvisit": 2909,
      "ĠCanadian": 2910,
      "onse": 2911,
      "Ġfail": 2912,
      "Ġmem": 2913,
      "ĠCath": 2914,
      "Ġforward": 2915,
      "ĠNavy": 2916,
      "odies": 2917,
      "Ġmixed": 2918,
      "Ġsometimes": 2919,
      "atory": 2920,
      "Ġcru": 2921,
      "ula": 2922,
      "ĠUK": 2923,
      "Ġcomplete": 2924,
      "Ġapproximately": 2925,
      "Ġreviews": 2926,
      "Ġrequired": 2927,
      "ĠPeter": 2928,
      "fect": 2929,
      "nel": 2930,
      "aries": 2931,
      "Ġpot": 2932,
      "Ġlatter": 2933,
      "ĠCreek": 2934,
      "ays": 2935,
      "ĠRes": 2936,
      "ulated": 2937,
      "ilities": 2938,
      "ĠSing": 2939,
      "ĠRose": 2940,
      "ĠDon": 2941,
      "Ġrain": 2942,
      "Ġabs": 2943,
      "Ġcenter": 2944,
      "Ġremain": 2945,
      "ference": 2946,
      "ĠAssoci": 2947,
      "ĠAfrica": 2948,
      "Ġbeginning": 2949,
      "hib": 2950,
      "ulf": 2951,
      "ĠLaw": 2952,
      "Ġblock": 2953,
      "ĠAngel": 2954,
      "eth": 2955,
      "tation": 2956,
      "Ġlower": 2957,
      "ateg": 2958,
      "Ġdecision": 2959,
      "Ġanti": 2960,
      "Ġlimited": 2961,
      "enes": 2962,
      "Ġdro": 2963,
      "ste": 2964,
      "chol": 2965,
      "Ġusually": 2966,
      "ĠArt": 2967,
      "Ġadditional": 2968,
      "Ġchanges": 2969,
      "ĠRegiment": 2970,
      "ites": 2971,
      "Ġden": 2972,
      "ĠMo": 2973,
      "ĠRachel": 2974,
      "ĠJer": 2975,
      "rian": 2976,
      "Ġjourn": 2977,
      "Ġbetter": 2978,
      "Ġindic": 2979,
      "Ġpresident": 2980,
      "Ġrunning": 2981,
      "Ġresponse": 2982,
      "ĠVirgin": 2983,
      "itz": 2984,
      "ĠSoc": 2985,
      "Ġkey": 2986,
      "Ġpositive": 2987,
      "Ġended": 2988,
      "Ġlarger": 2989,
      "Ġstudents": 2990,
      "ĠSuper": 2991,
      "Ġwoman": 2992,
      "Ġmention": 2993,
      "ĠNort": 2994,
      "Ġdead": 2995,
      "Ġsupported": 2996,
      "Ġmagazine": 2997,
      "quadron": 2998,
      "Ġtouch": 2999,
      "ĠAward": 3000,
      "lymp": 3001,
      "ĠPenn": 3002,
      "ĠOlymp": 3003,
      "Ġnotes": 3004,
      "ĠStud": 3005,
      "rics": 3006,
      "ĠScott": 3007,
      "Ġpolice": 3008,
      "Ġdepression": 3009,
      "Ġpressure": 3010,
      "Ġwide": 3011,
      "Ġcal": 3012,
      "aval": 3013,
      "ĠVer": 3014,
      "Ġpoet": 3015,
      "ĠCharles": 3016,
      "Ġbirds": 3017,
      "gl": 3018,
      "tr": 3019,
      "edy": 3020,
      "enty": 3021,
      "Ġshown": 3022,
      "Ġ1995": 3023,
      "Ġquest": 3024,
      "Ġprevent": 3025,
      "ĠBillboard": 3026,
      "ases": 3027,
      "aph": 3028,
      "aker": 3029,
      "Ġspace": 3030,
      "Ġrelated": 3031,
      "Ġfuture": 3032,
      "back": 3033,
      "Ġ38": 3034,
      "Ġ1980": 3035,
      "Ġprovide": 3036,
      "Ġdefeated": 3037,
      "Ġfifth": 3038,
      "go": 3039,
      "rd": 3040,
      "uf": 3041,
      "Ġface": 3042,
      "arm": 3043,
      "Ġhom": 3044,
      "ĠTV": 3045,
      "ĠTom": 3046,
      "stant": 3047,
      "ĠPri": 3048,
      "uments": 3049,
      "Ġdiscovered": 3050,
      "ih": 3051,
      "leg": 3052,
      "ĠTer": 3053,
      "owl": 3054,
      "Ġstaff": 3055,
      "ĠFort": 3056,
      "Ġsyn": 3057,
      "Ġfeature": 3058,
      "Ġtemper": 3059,
      "ĠRoute": 3060,
      "men": 3061,
      "ss": 3062,
      "Ġanc": 3063,
      "Ġ80": 3064,
      "Ġprior": 3065,
      "Ġbecoming": 3066,
      "co": 3067,
      "uals": 3068,
      "Ġaut": 3069,
      "Ġbirth": 3070,
      "Ġdoll": 3071,
      "ids": 3072,
      "irt": 3073,
      "ands": 3074,
      "ifa": 3075,
      "mitted": 3076,
      "Ġcm": 3077,
      "ĠWestern": 3078,
      "Ġsection": 3079,
      "ĠOff": 3080,
      "riage": 3081,
      "Ġexam": 3082,
      "Ġsmaller": 3083,
      "Ġfrequ": 3084,
      "gely": 3085,
      "inct": 3086,
      "onc": 3087,
      "Ġintended": 3088,
      "ĠApp": 3089,
      "idents": 3090,
      "bert": 3091,
      "aby": 3092,
      "Ġscreen": 3093,
      "Ġdisp": 3094,
      "Ġgroups": 3095,
      "Ġidea": 3096,
      "ĠScientology": 3097,
      "aring": 3098,
      "Ġconclud": 3099,
      "ĠInf": 3100,
      "ishop": 3101,
      "Ġpercent": 3102,
      "Ġthemsel": 3103,
      "Ġmostly": 3104,
      "ĠFrank": 3105,
      "Ġmetres": 3106,
      "ĠHaifa": 3107,
      "stein": 3108,
      "Ġthemselves": 3109,
      "aut": 3110,
      "ney": 3111,
      "orial": 3112,
      "Ġfleet": 3113,
      "anies": 3114,
      "ĠTur": 3115,
      "ĠHot": 3116,
      "agon": 3117,
      "quare": 3118,
      "ĠStar": 3119,
      "Ġ2016": 3120,
      "ĠYear": 3121,
      "Ġminutes": 3122,
      "Ġcaptured": 3123,
      "Ġreferred": 3124,
      "Ġlikely": 3125,
      "Ġresearch": 3126,
      "Ġsurface": 3127,
      "Ġword": 3128,
      "Ġfir": 3129,
      "enon": 3130,
      "Ġdomin": 3131,
      "ĠSince": 3132,
      "ching": 3133,
      "ĠLa": 3134,
      "iforn": 3135,
      "Ġoffice": 3136,
      "Ġlargely": 3137,
      "Ġmusical": 3138,
      "rief": 3139,
      "ĠCroat": 3140,
      "Ġprofessional": 3141,
      "Ġproblems": 3142,
      "ĠAssociation": 3143,
      "down": 3144,
      "Ġflow": 3145,
      "ĠParliament": 3146,
      "ĠFI": 3147,
      "ĠLight": 3148,
      "rael": 3149,
      "Ġ75": 3150,
      "Ġentered": 3151,
      "Ġmedia": 3152,
      "ee": 3153,
      "gar": 3154,
      "Ġsem": 3155,
      "Ġmakes": 3156,
      "Ġcontem": 3157,
      "Ġmoving": 3158,
      "Ġamount": 3159,
      "Ġbroadcast": 3160,
      "ners": 3161,
      "Ġcer": 3162,
      "Ġder": 3163,
      "ĠSov": 3164,
      "omm": 3165,
      "Ġlearn": 3166,
      "Ġcontains": 3167,
      "Ġemb": 3168,
      "Ġconstructed": 3169,
      "ĠPortug": 3170,
      "Ġradio": 3171,
      "quarters": 3172,
      "gu": 3173,
      "uk": 3174,
      "Ã³": 3175,
      "oul": 3176,
      "Ġlink": 3177,
      "ĠOper": 3178,
      "sec": 3179,
      "Ġens": 3180,
      "Ġ1999": 3181,
      "Ġkeep": 3182,
      "Ġsummer": 3183,
      "ĠCaliforn": 3184,
      "bers": 3185,
      "ises": 3186,
      "Ġpair": 3187,
      "Ġmoney": 3188,
      "acted": 3189,
      "ĠRuss": 3190,
      "ĠJe": 3191,
      "pped": 3192,
      "ples": 3193,
      "Ġguitar": 3194,
      "Ġeffects": 3195,
      "Ġcele": 3196,
      "ios": 3197,
      "to": 3198,
      "ville": 3199,
      "ergy": 3200,
      "itte": 3201,
      "isions": 3202,
      "anish": 3203,
      "Ġnature": 3204,
      "ĠCouncil": 3205,
      "Ġstories": 3206,
      "ĠHow": 3207,
      "cean": 3208,
      "Ġsea": 3209,
      "Ġvoice": 3210,
      "Ġgrant": 3211,
      "ĠIsrael": 3212,
      "Ġ1950": 3213,
      "Ġmajority": 3214,
      "Ġlisted": 3215,
      "Ġobserv": 3216,
      "ĠEarth": 3217,
      "Ġranked": 3218,
      "ĠJewish": 3219,
      "uz": 3220,
      "Ġself": 3221,
      "Ġparen": 3222,
      "Ġlay": 3223,
      "Ġadop": 3224,
      "Ġcreate": 3225,
      "Ġarrang": 3226,
      "Ġexperience": 3227,
      "ĠGalvest": 3228,
      "ĠGalveston": 3229,
      "den": 3230,
      "uing": 3231,
      "eding": 3232,
      "ĠMet": 3233,
      "ĠWood": 3234,
      "ĠOtt": 3235,
      "Ġleaving": 3236,
      "Ġcritical": 3237,
      "Ġthus": 3238,
      "ĠChic": 3239,
      "Ġprimary": 3240,
      "Ġfavor": 3241,
      "ires": 3242,
      "lor": 3243,
      "Ġschol": 3244,
      "Ġlived": 3245,
      "urity": 3246,
      "owler": 3247,
      "Ġalways": 3248,
      "ĠAnother": 3249,
      "Ġconsist": 3250,
      "Ġlocation": 3251,
      "ylv": 3252,
      "minist": 3253,
      "Ġgods": 3254,
      "Ġagreed": 3255,
      "Ġlyrics": 3256,
      "iest": 3257,
      "reak": 3258,
      "Ġbrief": 3259,
      "Ġpay": 3260,
      "Ġlab": 3261,
      "imate": 3262,
      "ĠFin": 3263,
      "ĠGo": 3264,
      "aven": 3265,
      "Ġrare": 3266,
      "teen": 3267,
      "Ġcompl": 3268,
      "Ġfilms": 3269,
      "Ġruns": 3270,
      "Ġofficers": 3271,
      "Ġcontroll": 3272,
      "Ġlaunched": 3273,
      "ĠCalifornia": 3274,
      "ping": 3275,
      "pool": 3276,
      "tar": 3277,
      "Ġcoin": 3278,
      "ĠServ": 3279,
      "ĠCamp": 3280,
      "ĠBey": 3281,
      "Ġcolon": 3282,
      "Ġsett": 3283,
      "Ġteams": 3284,
      "Ġculture": 3285,
      "Ġfriends": 3286,
      "osaurus": 3287,
      "Ġquickly": 3288,
      "ĠCatholic": 3289,
      "ĠHol": 3290,
      "change": 3291,
      "Ġmeant": 3292,
      "Ġepisodes": 3293,
      "ĠBrad": 3294,
      "Ġminute": 3295,
      "hester": 3296,
      "Ġproposed": 3297,
      "Ġoccurred": 3298,
      "oor": 3299,
      "pan": 3300,
      "ror": 3301,
      "ĠAle": 3302,
      "urg": 3303,
      "ĠIf": 3304,
      "arts": 3305,
      "ĠUp": 3306,
      "Ġwhether": 3307,
      "oke": 3308,
      "key": 3309,
      "Ġprem": 3310,
      "Ġattr": 3311,
      "Ġassigned": 3312,
      "Ġaccess": 3313,
      "Ġsettle": 3314,
      "Ġincrease": 3315,
      "Ġequip": 3316,
      "kan": 3317,
      "zy": 3318,
      "Ġsat": 3319,
      "atively": 3320,
      "Ġfans": 3321,
      "Ġpian": 3322,
      "ĠSaint": 3323,
      "Ġvot": 3324,
      "illery": 3325,
      "Ġtraff": 3326,
      "Ġadap": 3327,
      "Ġforms": 3328,
      "ification": 3329,
      "Ġappears": 3330,
      "Ġdefeat": 3331,
      "Ġchanged": 3332,
      "Ġdestroyed": 3333,
      "Ġtraffic": 3334,
      "Ġtons": 3335,
      "ĠMr": 3336,
      "imum": 3337,
      "ĠNic": 3338,
      "ĠNix": 3339,
      "ability": 3340,
      "Ġ400": 3341,
      "Ġscript": 3342,
      "Ġcommission": 3343,
      "Ġearth": 3344,
      "Ġlonger": 3345,
      "ospital": 3346,
      "ĠCentral": 3347,
      "Ġmeaning": 3348,
      "ĠChicago": 3349,
      "rup": 3350,
      "asy": 3351,
      "ĠRoss": 3352,
      "Ġjob": 3353,
      "Ġ70": 3354,
      "Ġtheme": 3355,
      "Ġnumbers": 3356,
      "Ġ1940": 3357,
      "Ġconcern": 3358,
      "ĠBattle": 3359,
      "Ġsoldiers": 3360,
      "Ġcompetition": 3361,
      "sis": 3362,
      "Ġmom": 3363,
      "Ġreach": 3364,
      "aded": 3365,
      "ĠHaw": 3366,
      "andon": 3367,
      "Ġleave": 3368,
      "Ġtrade": 3369,
      "ruit": 3370,
      "Ġbound": 3371,
      "ĠAlice": 3372,
      "vey": 3373,
      "Ġcarried": 3374,
      "onym": 3375,
      "Ġawarded": 3376,
      "Ġfocus": 3377,
      "ĠNorthern": 3378,
      "Ġcelebr": 3379,
      "Ġhop": 3380,
      "Ġgirl": 3381,
      "ĠLatin": 3382,
      "undred": 3383,
      "Ġ33": 3384,
      "Ġ1998": 3385,
      "ĠEnter": 3386,
      "ĠQu": 3387,
      "Ġconducted": 3388,
      "Ġprivate": 3389,
      "Ġdaughter": 3390,
      "Ġsil": 3391,
      "Ġcred": 3392,
      "Ġnatural": 3393,
      "ĠLou": 3394,
      "Ġdeep": 3395,
      "ĠOver": 3396,
      "bery": 3397,
      "Ġrecords": 3398,
      "Ġunderst": 3399,
      "Ġsubsequently": 3400,
      "Ġnewsp": 3401,
      "Ġcause": 3402,
      "Ġtourn": 3403,
      "ĠMey": 3404,
      "Ġanaly": 3405,
      "Ġran": 3406,
      "ortun": 3407,
      "Ġplans": 3408,
      "Ġ300": 3409,
      "Ġunc": 3410,
      "ĠVilla": 3411,
      "ĠScot": 3412,
      "Ġconsider": 3413,
      "Ġ1930": 3414,
      "Ġfighting": 3415,
      "oir": 3416,
      "Ġtakes": 3417,
      "itect": 3418,
      "Ġbord": 3419,
      "ari": 3420,
      "Ġded": 3421,
      "ĠMer": 3422,
      "iva": 3423,
      "ĠDj": 3424,
      "Ġshoot": 3425,
      "ĠAlkan": 3426,
      "Ġoverall": 3427,
      "Ġ1993": 3428,
      "Ġinfluence": 3429,
      "ĠPolish": 3430,
      "ĠSecond": 3431,
      "Ġcommented": 3432,
      "Ġindustry": 3433,
      "Ġ+": 3434,
      "Ġcle": 3435,
      "Ġbomb": 3436,
      "ĠMa": 3437,
      "usband": 3438,
      "ĠPat": 3439,
      "ĠFore": 3440,
      "ĠLiver": 3441,
      "ruct": 3442,
      "ĠItal": 3443,
      "Ġserious": 3444,
      "Ġfinally": 3445,
      "Ġelection": 3446,
      "Ġbring": 3447,
      "Ġconcert": 3448,
      "Ġasked": 3449,
      "ĠNixon": 3450,
      "ĠLiverpool": 3451,
      "tained": 3452,
      "ĠTay": 3453,
      "Ġemer": 3454,
      "ĠForm": 3455,
      "Ġdeg": 3456,
      "Ġkil": 3457,
      "Ġ32": 3458,
      "Ġcompared": 3459,
      "Ġwhole": 3460,
      "Ġimm": 3461,
      "Ġmethod": 3462,
      "Ġending": 3463,
      "Ġgreater": 3464,
      "hou": 3465,
      "oly": 3466,
      "sen": 3467,
      "Ġdone": 3468,
      "ĠBC": 3469,
      "ĠGro": 3470,
      "Ġunable": 3471,
      "ĠIts": 3472,
      "ĠSever": 3473,
      "ĠTexas": 3474,
      "ĠChristm": 3475,
      "Ġmarried": 3476,
      "Ġpositions": 3477,
      "Ġdouble": 3478,
      "stitute": 3479,
      "well": 3480,
      "inent": 3481,
      "Ġour": 3482,
      "Ġinn": 3483,
      "anced": 3484,
      "ĠTre": 3485,
      "ĠTour": 3486,
      "aches": 3487,
      "ĠLady": 3488,
      "erset": 3489,
      "Ġupper": 3490,
      "Ġcann": 3491,
      "Ġbuildings": 3492,
      "ĠSomerset": 3493,
      "gian": 3494,
      "Ġtar": 3495,
      "Ġsus": 3496,
      "Ġche": 3497,
      "Ġdram": 3498,
      "ĠTropical": 3499,
      "Ġthick": 3500,
      "ĠMart": 3501,
      "Ġgot": 3502,
      "umn": 3503,
      "ills": 3504,
      "Ġyet": 3505,
      "Ġcentre": 3506,
      "Ġearned": 3507,
      "Ġflight": 3508,
      "anks": 3509,
      "ĠMosley": 3510,
      "unt": 3511,
      "Ġcounter": 3512,
      "Ġbig": 3513,
      "Ġliving": 3514,
      "ĠCour": 3515,
      "ĠMil": 3516,
      "ĠThree": 3517,
      "Ġparty": 3518,
      "Ġenv": 3519,
      "aily": 3520,
      "Ġ1996": 3521,
      "Ġ90": 3522,
      "Ġacqu": 3523,
      "Ġpersonal": 3524,
      "Ġstandard": 3525,
      "Ġissued": 3526,
      "Ġnucle": 3527,
      "Ġbegins": 3528,
      "ĠBusch": 3529,
      "Ġrapid": 3530,
      "gen": 3531,
      "Ġpurch": 3532,
      "ĠTenn": 3533,
      "Ġthrow": 3534,
      "Ġlog": 3535,
      "ĠMount": 3536,
      "Ġkind": 3537,
      "ĠStr": 3538,
      "Ġbox": 3539,
      "Ġterms": 3540,
      "Ġdirectly": 3541,
      "Ġmarked": 3542,
      "Ġmarket": 3543,
      "ittee": 3544,
      "dle": 3545,
      "Ġult": 3546,
      "ĠSk": 3547,
      "amer": 3548,
      "ĠBel": 3549,
      "ulted": 3550,
      "ĠLake": 3551,
      "Ġhero": 3552,
      "Ġhealth": 3553,
      "Ġscenes": 3554,
      "ails": 3555,
      "Ġmovement": 3556,
      "Ġbooks": 3557,
      "Ġmarriage": 3558,
      "ĠSpanish": 3559,
      "Ġstatus": 3560,
      "ĠTaylor": 3561,
      "ĠChristmas": 3562,
      "Ġdom": 3563,
      "ĠBack": 3564,
      "ĠFowler": 3565,
      "Ġconcept": 3566,
      "Ġhelped": 3567,
      "Ġportray": 3568,
      "Ġslight": 3569,
      "ĠSeveral": 3570,
      "Ġund": 3571,
      "Ġtell": 3572,
      "Ġbatter": 3573,
      "ĠJo": 3574,
      "umed": 3575,
      "istics": 3576,
      "Ġplanned": 3577,
      "Ġsched": 3578,
      "Ġstarting": 3579,
      "Ġattacks": 3580,
      "Ġschools": 3581,
      "Ġexperi": 3582,
      "ĠAfrican": 3583,
      "Ġsuffered": 3584,
      "Ġtraditional": 3585,
      "Ġinformation": 3586,
      "Ġopt": 3587,
      "itor": 3588,
      "iser": 3589,
      "Ġdig": 3590,
      "Ġdark": 3591,
      "Ġgiving": 3592,
      "ĠPit": 3593,
      "alled": 3594,
      "ĠStorm": 3595,
      "Ġjud": 3596,
      "Ġspeed": 3597,
      "Ġperformances": 3598,
      "Ġfigure": 3599,
      "Ġassociated": 3600,
      "Ġinspired": 3601,
      "ĠInfantry": 3602,
      "AS": 3603,
      "ma": 3604,
      "Ġx": 3605,
      "itude": 3606,
      "Ġdivision": 3607,
      "Ġhusband": 3608,
      "ĠTw": 3609,
      "ĠSam": 3610,
      "ĠJane": 3611,
      "Ġclosed": 3612,
      "Ġabandon": 3613,
      "athan": 3614,
      "ĠArch": 3615,
      "Ġleaders": 3616,
      "embly": 3617,
      "Ġpresented": 3618,
      "Ġcondoms": 3619,
      "Ġsource": 3620,
      "ĠParty": 3621,
      "Ġmachine": 3622,
      "ĠSoviet": 3623,
      "awn": 3624,
      "Ġmur": 3625,
      "ĠFoot": 3626,
      "Ġvia": 3627,
      "Ġpresence": 3628,
      "Ġgreatest": 3629,
      "Ġinitial": 3630,
      "ĠSeries": 3631,
      "Ġraised": 3632,
      "Ġdetermin": 3633,
      "II": 3634,
      "iant": 3635,
      "mium": 3636,
      "Ġwound": 3637,
      "ĠCross": 3638,
      "ĠBob": 3639,
      "Ġexcept": 3640,
      "Ġunit": 3641,
      "Ġroom": 3642,
      "ĠVict": 3643,
      "Ġuses": 3644,
      "Ġwriters": 3645,
      "Ġcontinue": 3646,
      "Ġnearby": 3647,
      "aught": 3648,
      "ĠParis": 3649,
      "ĠCarolina": 3650,
      "Ġeducation": 3651,
      "Ġdocument": 3652,
      "ĠRosebery": 3653,
      "ĠVirginia": 3654,
      "Ã³n": 3655,
      "ylvania": 3656,
      "ks": 3657,
      "itation": 3658,
      "Ġnorm": 3659,
      "ĠBoy": 3660,
      "ĠLive": 3661,
      "Ġplot": 3662,
      "raf": 3663,
      "Ġuns": 3664,
      "Ġdism": 3665,
      "Ġimage": 3666,
      "iami": 3667,
      "Ġcollection": 3668,
      "Ġcovered": 3669,
      "Ġcyclone": 3670,
      "ĠPenns": 3671,
      "cing": 3672,
      "oration": 3673,
      "Ġhundred": 3674,
      "Ġrein": 3675,
      "olk": 3676,
      "ĠBen": 3677,
      "ĠJam": 3678,
      "ĠJust": 3679,
      "Ġchall": 3680,
      "Ġcomposed": 3681,
      "Ġweap": 3682,
      "ĠAnt": 3683,
      "Ġcomplex": 3684,
      "Ġannual": 3685,
      "Ġservices": 3686,
      "incip": 3687,
      "ĠQueen": 3688,
      "ĠCollege": 3689,
      "erve": 3690,
      "atre": 3691,
      "Ġbodies": 3692,
      "Ġreally": 3693,
      "ĠCer": 3694,
      "ĠRob": 3695,
      "eway": 3696,
      "Ġextended": 3697,
      "Ġ1997": 3698,
      "Ġnumerous": 3699,
      "Ġpolic": 3700,
      "Ġcommander": 3701,
      "Ġcathedral": 3702,
      "Ġproducer": 3703,
      "Ġfigures": 3704,
      "Ġterritory": 3705,
      "oncÃ©": 3706,
      "ĠBeyoncÃ©": 3707,
      "bar": 3708,
      "joy": 3709,
      "ken": 3710,
      "Ġtor": 3711,
      "Ġfell": 3712,
      "Ġpark": 3713,
      "Ġpath": 3714,
      "icted": 3715,
      "Ġthings": 3716,
      "ĠSix": 3717,
      "ĠMiami": 3718,
      "etic": 3719,
      "aging": 3720,
      "Ġdepend": 3721,
      "ĠOpen": 3722,
      "essa": 3723,
      "Ġenjoy": 3724,
      "ĠGermany": 3725,
      "ĠMuseum": 3726,
      "Ġproteins": 3727,
      "Ġvocals": 3728,
      "rical": 3729,
      "erbe": 3730,
      "anded": 3731,
      "ĠNations": 3732,
      "Ġsev": 3733,
      "ift": 3734,
      "Ġ39": 3735,
      "ously": 3736,
      "Ġprep": 3737,
      "Ġsomething": 3738,
      "Ġoperation": 3739,
      "ĠClub": 3740,
      "Ġwaters": 3741,
      "anz": 3742,
      "anas": 3743,
      "ĠTheir": 3744,
      "estival": 3745,
      "Ġcompanies": 3746,
      "ĠThrough": 3747,
      "Ġhighly": 3748,
      "Ġattacked": 3749,
      "Ġattempts": 3750,
      "Ġrequest": 3751,
      "Ġmorning": 3752,
      "Ġstrength": 3753,
      "Ġinvestig": 3754,
      "ĠService": 3755,
      "ny": 3756,
      "Ġtalk": 3757,
      "Ġreject": 3758,
      "admium": 3759,
      "ĠIll": 3760,
      "Ġaspect": 3761,
      "ander": 3762,
      "ĠInn": 3763,
      "Ġdise": 3764,
      "Ġfinanc": 3765,
      "Ġtransl": 3766,
      "Ġmetal": 3767,
      "Ġconfir": 3768,
      "ĠPrince": 3769,
      "Ġera": 3770,
      "Ġindividual": 3771,
      "Ġimmediately": 3772,
      "ĠPennsylvania": 3773,
      "lim": 3774,
      "Ġpil": 3775,
      "ĠSur": 3776,
      "ĠSquadron": 3777,
      "ademy": 3778,
      "uries": 3779,
      "Ġstone": 3780,
      "ĠGames": 3781,
      "ĠInter": 3782,
      "apo": 3783,
      "Ġnecess": 3784,
      "Ġinterse": 3785,
      "Ġincor": 3786,
      "Ġartist": 3787,
      "Ġdistance": 3788,
      "Ġallowing": 3789,
      "Ġpowerful": 3790,
      "Ġsituation": 3791,
      "Ġnuclear": 3792,
      "Ġremoved": 3793,
      "Ġpiano": 3794,
      "NA": 3795,
      "mon": 3796,
      "ply": 3797,
      "vement": 3798,
      "Ġhabit": 3799,
      "olf": 3800,
      "ĠHum": 3801,
      "ĠWater": 3802,
      "Ġselected": 3803,
      "ipp": 3804,
      "Ġrecover": 3805,
      "lands": 3806,
      "Ġoffered": 3807,
      "ibly": 3808,
      "Ġstudies": 3809,
      "Ġartillery": 3810,
      "Ġinside": 3811,
      "Ġadvance": 3812,
      "Ġvariety": 3813,
      "ĠJackson": 3814,
      "Ġneeded": 3815,
      "Ġpeaked": 3816,
      "ĠScotland": 3817,
      "TV": 3818,
      "Ġhot": 3819,
      "Ġnative": 3820,
      "chan": 3821,
      "Ġattend": 3822,
      "ĠJose": 3823,
      "Ġrate": 3824,
      "ĠUnder": 3825,
      "Ġ42": 3826,
      "Ġ182": 3827,
      "Ġmeans": 3828,
      "Ġ1991": 3829,
      "ĠChris": 3830,
      "Ġcountries": 3831,
      "Ġheadquarters": 3832,
      "Ġattempted": 3833,
      "ĠSomal": 3834,
      "Ġcopies": 3835,
      "pole": 3836,
      "Ġsaf": 3837,
      "rol": 3838,
      "ĠAI": 3839,
      "adium": 3840,
      "imony": 3841,
      "ether": 3842,
      "ĠLos": 3843,
      "Ġsearch": 3844,
      "ria": 3845,
      "anta": 3846,
      "Ġkick": 3847,
      "ĠChina": 3848,
      "Ġscoring": 3849,
      "ribution": 3850,
      "Ġprincip": 3851,
      "Ġcoach": 3852,
      "Ġtracks": 3853,
      "Ġhands": 3854,
      "Ġarchitect": 3855,
      "Ġcasual": 3856,
      "Ġrespectively": 3857,
      "Ġresponsible": 3858,
      "Ġpurp": 3859,
      "track": 3860,
      "een": 3861,
      "Ġpurs": 3862,
      "Ġmole": 3863,
      "ĠMajor": 3864,
      "Ġrule": 3865,
      "ĠOut": 3866,
      "Ġ47": 3867,
      "Ġsymb": 3868,
      "Ġdescribes": 3869,
      "Ġimpact": 3870,
      "Ġadvant": 3871,
      "Ġappearances": 3872,
      "ĠAnderson": 3873,
      "ĠBoth": 3874,
      "Ġgenus": 3875,
      "Ġhigher": 3876,
      "Ġwidely": 3877,
      "ĠDepartment": 3878,
      "Ġtouchdown": 3879,
      "cer": 3880,
      "ha": 3881,
      "ĠCrit": 3882,
      "cend": 3883,
      "ĠDan": 3884,
      "andid": 3885,
      "ĠNor": 3886,
      "Ġtext": 3887,
      "anger": 3888,
      "Ġspir": 3889,
      "orship": 3890,
      "Ġ1992": 3891,
      "Ġsets": 3892,
      "Ġcontrovers": 3893,
      "Ġcourse": 3894,
      "Ġobserved": 3895,
      "ĠCorps": 3896,
      "Ġsexual": 3897,
      "ĠBraat": 3898,
      "Ġheavily": 3899,
      "ĠFootball": 3900,
      "of": 3901,
      "rey": 3902,
      "reme": 3903,
      "Ġpick": 3904,
      "oud": 3905,
      "ĠAre": 3906,
      "Ġadult": 3907,
      "Ġ44": 3908,
      "ports": 3909,
      "Ġ1994": 3910,
      "Ġrelief": 3911,
      "Ġamb": 3912,
      "Ġbelow": 3913,
      "Ġphot": 3914,
      "Ġmiddle": 3915,
      "Ġmeeting": 3916,
      "Ġreduced": 3917,
      "ĠAlex": 3918,
      "Ġxenon": 3919,
      "iny": 3920,
      "Ġintern": 3921,
      "icient": 3922,
      "Ġang": 3923,
      "ĠLi": 3924,
      "ĠLike": 3925,
      "Ġplat": 3926,
      "Ġadminist": 3927,
      "Ġresulted": 3928,
      "Ġboy": 3929,
      "Ġsecret": 3930,
      "Ġactive": 3931,
      "Ġsinger": 3932,
      "Ġmatches": 3933,
      "Ġsixth": 3934,
      "ĠMinnes": 3935,
      "ricket": 3936,
      "Ġaudience": 3937,
      "Ġconcluded": 3938,
      "ĠMinnesota": 3939,
      "aen": 3940,
      "car": 3941,
      "ga": 3942,
      "lict": 3943,
      "ship": 3944,
      "Ġsal": 3945,
      "ĠTem": 3946,
      "ĠTime": 3947,
      "ils": 3948,
      "akapo": 3949,
      "Ġtrue": 3950,
      "Ġlands": 3951,
      "ĠFranc": 3952,
      "inkel": 3953,
      "Ġactivity": 3954,
      "Ġactivities": 3955,
      "Ġcompletely": 3956,
      "ĠVictor": 3957,
      "Ġess": 3958,
      "isher": 3959,
      "ĠSouthern": 3960,
      "cts": 3961,
      "Ġstating": 3962,
      "ĠDel": 3963,
      "send": 3964,
      "Ġmanaged": 3965,
      "Ġopportun": 3966,
      "ĠCenter": 3967,
      "ĠTownsend": 3968,
      "Ġrevealed": 3969,
      "Ġcontemporary": 3970,
      "like": 3971,
      "atives": 3972,
      "Ġfill": 3973,
      "Ġhour": 3974,
      "ems": 3975,
      "ocr": 3976,
      "ĠSea": 3977,
      "Ġquality": 3978,
      "Ġgraph": 3979,
      "ĠColon": 3980,
      "Ġrefused": 3981,
      "Ġlevels": 3982,
      "Ġdeclared": 3983,
      "Ġtrees": 3984,
      "Ġseparate": 3985,
      "ĠItalian": 3986,
      "cause": 3987,
      "iated": 3988,
      "Ġbad": 3989,
      "ication": 3990,
      "ĠSir": 3991,
      "ĠMidd": 3992,
      "ĠFinkel": 3993,
      "ĠLong": 3994,
      "ologist": 3995,
      "Ġblue": 3996,
      "annel": 3997,
      "Ġconstit": 3998,
      "ĠBecause": 3999,
      "rowd": 4000,
      "ĠForce": 4001,
      "Ġdrum": 4002,
      "ĠWalpole": 4003,
      "Ġquestion": 4004,
      "ĠHawai": 4005,
      "ĠMeyerbe": 4006,
      "ĠFinkelstein": 4007,
      "ĠMeyerbeer": 4008,
      "MS": 4009,
      "iqu": 4010,
      "ining": 4011,
      "Ġtoday": 4012,
      "lement": 4013,
      "ĠTessa": 4014,
      "ĠSol": 4015,
      "ify": 4016,
      "aped": 4017,
      "Ġuniversity": 4018,
      "peror": 4019,
      "Ġrecent": 4020,
      "Ġshell": 4021,
      "athus": 4022,
      "Ġblood": 4023,
      "Ġbackground": 4024,
      "ĠShiva": 4025,
      "Ġfeaturing": 4026,
      "Ġinstit": 4027,
      "Ġcarry": 4028,
      "Ġmodel": 4029,
      "Ġapproach": 4030,
      "Ġcontrast": 4031,
      "Ġhistorical": 4032,
      "Ġtypically": 4033,
      "Ġparents": 4034,
      "ares": 4035,
      "Ġiron": 4036,
      "Ġactions": 4037,
      "Ġpaper": 4038,
      "ĠCast": 4039,
      "Ġris": 4040,
      "oph": 4041,
      "Ġexpected": 4042,
      "Ġ51": 4043,
      "ĠYue": 4044,
      "Ġ76": 4045,
      "Ġdescript": 4046,
      "Ġissues": 4047,
      "Ġconditions": 4048,
      "Ġmultip": 4049,
      "ĠSmith": 4050,
      "ĠSociety": 4051,
      "ĠOttoman": 4052,
      "ĠNicole": 4053,
      "uff": 4054,
      "Ġtax": 4055,
      "hew": 4056,
      "Ġwing": 4057,
      "alty": 4058,
      "ican": 4059,
      "Ġreception": 4060,
      "ĠMill": 4061,
      "ĠBet": 4062,
      "utch": 4063,
      "ĠWild": 4064,
      "ĠLit": 4065,
      "Ġrhy": 4066,
      "Ġcompos": 4067,
      "rawn": 4068,
      "Ġplays": 4069,
      "Ġattention": 4070,
      "Ġweaken": 4071,
      "oint": 4072,
      "Ġpeace": 4073,
      "Ġentr": 4074,
      "Ġmainly": 4075,
      "Ġefforts": 4076,
      "Ġbecomes": 4077,
      "Ġhouses": 4078,
      "force": 4079,
      "cle": 4080,
      "Ġwit": 4081,
      "Ġpow": 4082,
      "Ġnation": 4083,
      "ĠBalt": 4084,
      "ĠJim": 4085,
      "ĠEmp": 4086,
      "Ġ37": 4087,
      "Ġresidents": 4088,
      "Ġoffer": 4089,
      "ounds": 4090,
      "Ġwebs": 4091,
      "Ġspecim": 4092,
      "Ġsubs": 4093,
      "Ġgrand": 4094,
      "Ġemot": 4095
    },
    "merges": [
      [
        "Ġ",
        "t"
      ],
      [
        "h",
        "e"
      ],
      [
        "Ġ",
        "a"
      ],
      [
        "i",
        "n"
      ],
      [
        "Ġt",
        "he"
      ],
      [
        "e",
        "r"
      ],
      [
        "o",
        "n"
      ],
      [
        "Ġ",
        ","
      ],
      [
        "r",
        "e"
      ],
      [
        "Ġ",
        "s"
      ],
      [
        "Ġ",
        "o"
      ],
      [
        "Ġ",
        "w"
      ],
      [
        "e",
        "d"
      ],
      [
        "u",
        "n"
      ],
      [
        "Ġ",
        "."
      ],
      [
        "a",
        "t"
      ],
      [
        "n",
        "d"
      ],
      [
        "o",
        "r"
      ],
      [
        "Ġ",
        "c"
      ],
      [
        "i",
        "t"
      ],
      [
        "Ġ",
        "f"
      ],
      [
        "e",
        "n"
      ],
      [
        "i",
        "s"
      ],
      [
        "Ġo",
        "f"
      ],
      [
        "e",
        "s"
      ],
      [
        "Ġ",
        "b"
      ],
      [
        "Ġ",
        "in"
      ],
      [
        "a",
        "r"
      ],
      [
        "un",
        "k"
      ],
      [
        "a",
        "n"
      ],
      [
        "Ġ",
        "<"
      ],
      [
        "a",
        "l"
      ],
      [
        "Ġa",
        "nd"
      ],
      [
        "Ġ",
        "p"
      ],
      [
        "in",
        "g"
      ],
      [
        "a",
        "s"
      ],
      [
        "Ġt",
        "o"
      ],
      [
        "Ġ",
        "m"
      ],
      [
        "r",
        "o"
      ],
      [
        "i",
        "c"
      ],
      [
        "Ġ",
        "d"
      ],
      [
        "Ġ",
        "h"
      ],
      [
        "i",
        "on"
      ],
      [
        "l",
        "e"
      ],
      [
        "Ġ",
        "T"
      ],
      [
        "Ġ",
        "="
      ],
      [
        "Ġ",
        "re"
      ],
      [
        "Ġ",
        "\""
      ],
      [
        "Ġt",
        "h"
      ],
      [
        "en",
        "t"
      ],
      [
        "o",
        "u"
      ],
      [
        "Ġ",
        "A"
      ],
      [
        "Ġ",
        "1"
      ],
      [
        "i",
        "l"
      ],
      [
        "Ġ",
        "S"
      ],
      [
        "s",
        "t"
      ],
      [
        "Ġ",
        "l"
      ],
      [
        "č",
        "Ċ"
      ],
      [
        "Ġ",
        "čĊ"
      ],
      [
        "o",
        "m"
      ],
      [
        "Ġ",
        "e"
      ],
      [
        "Ġ",
        "n"
      ],
      [
        "Ġ",
        "@"
      ],
      [
        "a",
        "m"
      ],
      [
        "Ġ",
        "C"
      ],
      [
        "e",
        "l"
      ],
      [
        "a",
        "d"
      ],
      [
        "Ġw",
        "as"
      ],
      [
        "a",
        "c"
      ],
      [
        "ĠT",
        "he"
      ],
      [
        "Ġ",
        "on"
      ],
      [
        "Ġb",
        "e"
      ],
      [
        "u",
        "r"
      ],
      [
        "l",
        "y"
      ],
      [
        "Ġ",
        "M"
      ],
      [
        "Ġ",
        "'"
      ],
      [
        "Ġ",
        "I"
      ],
      [
        "Ġ",
        "g"
      ],
      [
        "Ġf",
        "or"
      ],
      [
        "i",
        "v"
      ],
      [
        "o",
        "l"
      ],
      [
        "t",
        "er"
      ],
      [
        "Ġ",
        "B"
      ],
      [
        "-",
        "@"
      ],
      [
        "Ġ@",
        "-@"
      ],
      [
        "i",
        "m"
      ],
      [
        "i",
        "d"
      ],
      [
        "i",
        "r"
      ],
      [
        "Ġa",
        "s"
      ],
      [
        "c",
        "t"
      ],
      [
        "i",
        "g"
      ],
      [
        "t",
        "h"
      ],
      [
        "o",
        "w"
      ],
      [
        "it",
        "h"
      ],
      [
        "Ġs",
        "t"
      ],
      [
        "Ġ",
        "H"
      ],
      [
        "u",
        "s"
      ],
      [
        "Ġ",
        "2"
      ],
      [
        "a",
        "y"
      ],
      [
        "Ġth",
        "at"
      ],
      [
        "Ġw",
        "ith"
      ],
      [
        "he",
        "r"
      ],
      [
        "o",
        "t"
      ],
      [
        "c",
        "e"
      ],
      [
        "v",
        "er"
      ],
      [
        "u",
        "t"
      ],
      [
        "at",
        "ion"
      ],
      [
        "e",
        "t"
      ],
      [
        "Ġ",
        "is"
      ],
      [
        "Ġ",
        "P"
      ],
      [
        "Ġw",
        "h"
      ],
      [
        "c",
        "h"
      ],
      [
        "Ġb",
        "y"
      ],
      [
        "Ġ",
        "R"
      ],
      [
        "Ġ",
        ")"
      ],
      [
        "Ġ",
        "("
      ],
      [
        "Ġa",
        "l"
      ],
      [
        "Ġ",
        "F"
      ],
      [
        "Ġ",
        "D"
      ],
      [
        "Ġc",
        "on"
      ],
      [
        "e",
        "m"
      ],
      [
        "u",
        "l"
      ],
      [
        "Ġ",
        "W"
      ],
      [
        "Ġa",
        "t"
      ],
      [
        "Ġ",
        "it"
      ],
      [
        "Ġ1",
        "9"
      ],
      [
        "a",
        "nd"
      ],
      [
        "a",
        "in"
      ],
      [
        "ro",
        "m"
      ],
      [
        "o",
        "s"
      ],
      [
        "Ġ",
        "N"
      ],
      [
        "Ġa",
        "n"
      ],
      [
        "Ġ",
        "G"
      ],
      [
        "Ġ",
        "L"
      ],
      [
        "er",
        "s"
      ],
      [
        "Ġ",
        "he"
      ],
      [
        "es",
        "t"
      ],
      [
        "a",
        "g"
      ],
      [
        "a",
        "v"
      ],
      [
        "0",
        "0"
      ],
      [
        "Ġ",
        "J"
      ],
      [
        "Ġs",
        "e"
      ],
      [
        "u",
        "m"
      ],
      [
        "Ġd",
        "e"
      ],
      [
        "Ġh",
        "is"
      ],
      [
        "Ġ",
        "r"
      ],
      [
        "Ġf",
        "rom"
      ],
      [
        "o",
        "d"
      ],
      [
        "Ġ",
        "O"
      ],
      [
        "r",
        "i"
      ],
      [
        "Ġc",
        "om"
      ],
      [
        "Ġ",
        "E"
      ],
      [
        "p",
        "e"
      ],
      [
        "un",
        "d"
      ],
      [
        "is",
        "t"
      ],
      [
        "Ġp",
        "ro"
      ],
      [
        "i",
        "f"
      ],
      [
        "l",
        "d"
      ],
      [
        "i",
        "es"
      ],
      [
        "er",
        "e"
      ],
      [
        "or",
        "t"
      ],
      [
        "Ġ",
        "v"
      ],
      [
        "re",
        "s"
      ],
      [
        "Ġs",
        "u"
      ],
      [
        "o",
        "re"
      ],
      [
        "Ġw",
        "ere"
      ],
      [
        "il",
        "l"
      ],
      [
        "ĠI",
        "n"
      ],
      [
        "a",
        "p"
      ],
      [
        "on",
        "g"
      ],
      [
        "e",
        "w"
      ],
      [
        "o",
        "p"
      ],
      [
        "ig",
        "h"
      ],
      [
        "ic",
        "h"
      ],
      [
        "Ġo",
        "r"
      ],
      [
        "at",
        "e"
      ],
      [
        "ar",
        "t"
      ],
      [
        "al",
        "l"
      ],
      [
        "ar",
        "d"
      ],
      [
        "a",
        "k"
      ],
      [
        "Ġc",
        "h"
      ],
      [
        "b",
        "er"
      ],
      [
        "am",
        "e"
      ],
      [
        "Ġe",
        "x"
      ],
      [
        "g",
        "h"
      ],
      [
        "a",
        "b"
      ],
      [
        "u",
        "d"
      ],
      [
        "Ġp",
        "l"
      ],
      [
        "s",
        "e"
      ],
      [
        "at",
        "ed"
      ],
      [
        "an",
        "t"
      ],
      [
        "it",
        "y"
      ],
      [
        "Ġa",
        "re"
      ],
      [
        "Ġ",
        "â"
      ],
      [
        "o",
        "c"
      ],
      [
        "iv",
        "e"
      ],
      [
        "es",
        "s"
      ],
      [
        "q",
        "u"
      ],
      [
        "Ġs",
        "h"
      ],
      [
        "Ġâ",
        "Ģ"
      ],
      [
        "Ġh",
        "ad"
      ],
      [
        "Ġ",
        "k"
      ],
      [
        "ac",
        "k"
      ],
      [
        "Ġwh",
        "ich"
      ],
      [
        "u",
        "p"
      ],
      [
        "Ġ",
        "U"
      ],
      [
        "re",
        "d"
      ],
      [
        "Ġ",
        "y"
      ],
      [
        "Ġ",
        "K"
      ],
      [
        "Ġ",
        "le"
      ],
      [
        "o",
        "v"
      ],
      [
        "ou",
        "r"
      ],
      [
        "Ġn",
        "ot"
      ],
      [
        "m",
        "ent"
      ],
      [
        "as",
        "t"
      ],
      [
        "i",
        "p"
      ],
      [
        "ĠS",
        "t"
      ],
      [
        "r",
        "it"
      ],
      [
        "or",
        "d"
      ],
      [
        "e",
        "ar"
      ],
      [
        "p",
        "t"
      ],
      [
        "Ġt",
        "r"
      ],
      [
        "g",
        "e"
      ],
      [
        "al",
        "ly"
      ],
      [
        "i",
        "an"
      ],
      [
        "t",
        "her"
      ],
      [
        "o",
        "st"
      ],
      [
        "in",
        "e"
      ],
      [
        "av",
        "e"
      ],
      [
        "igh",
        "t"
      ],
      [
        "o",
        "un"
      ],
      [
        "el",
        "l"
      ],
      [
        "Ġ",
        "3"
      ],
      [
        "is",
        "h"
      ],
      [
        "c",
        "l"
      ],
      [
        "ar",
        "y"
      ],
      [
        "ĠC",
        "h"
      ],
      [
        "Ġ2",
        "00"
      ],
      [
        "u",
        "st"
      ],
      [
        "ir",
        "st"
      ],
      [
        "i",
        "a"
      ],
      [
        "Ġ",
        ";"
      ],
      [
        "p",
        "p"
      ],
      [
        "t",
        "e"
      ],
      [
        "Ġcom",
        "p"
      ],
      [
        "Ġthe",
        "ir"
      ],
      [
        "Ġb",
        "ut"
      ],
      [
        "c",
        "c"
      ],
      [
        "s",
        "o"
      ],
      [
        "ct",
        "ion"
      ],
      [
        "f",
        "ter"
      ],
      [
        "Ġf",
        "irst"
      ],
      [
        "ou",
        "s"
      ],
      [
        "u",
        "re"
      ],
      [
        "Ġit",
        "s"
      ],
      [
        "ou",
        "ld"
      ],
      [
        "r",
        "a"
      ],
      [
        "ĠâĢ",
        "ĵ"
      ],
      [
        "id",
        "e"
      ],
      [
        "Ġw",
        "he"
      ],
      [
        "Ġcon",
        "t"
      ],
      [
        "Ġa",
        "r"
      ],
      [
        "u",
        "e"
      ],
      [
        "ic",
        "al"
      ],
      [
        "om",
        "e"
      ],
      [
        "Ġ",
        "un"
      ],
      [
        "w",
        "o"
      ],
      [
        "o",
        "g"
      ],
      [
        "he",
        "d"
      ],
      [
        "Ġ2",
        "0"
      ],
      [
        "Ġ",
        ":"
      ],
      [
        "i",
        "al"
      ],
      [
        "u",
        "b"
      ],
      [
        "i",
        "e"
      ],
      [
        "Ġ",
        "her"
      ],
      [
        "Ġal",
        "so"
      ],
      [
        "it",
        "ion"
      ],
      [
        "Ġ",
        "ro"
      ],
      [
        "Ġin",
        "t"
      ],
      [
        "Ġ",
        "V"
      ],
      [
        "ow",
        "n"
      ],
      [
        "Ġc",
        "l"
      ],
      [
        "at",
        "er"
      ],
      [
        "ou",
        "t"
      ],
      [
        "ig",
        "n"
      ],
      [
        "Ġ",
        "us"
      ],
      [
        "or",
        "m"
      ],
      [
        "or",
        "k"
      ],
      [
        "Ġa",
        "b"
      ],
      [
        "Ġa",
        "d"
      ],
      [
        "o",
        "k"
      ],
      [
        "f",
        "f"
      ],
      [
        "p",
        "er"
      ],
      [
        "Ġh",
        "ave"
      ],
      [
        "ag",
        "e"
      ],
      [
        "r",
        "u"
      ],
      [
        "i",
        "re"
      ],
      [
        "ĠH",
        "e"
      ],
      [
        "Ġon",
        "e"
      ],
      [
        "as",
        "s"
      ],
      [
        "Ġh",
        "as"
      ],
      [
        "Ġre",
        "c"
      ],
      [
        "l",
        "ow"
      ],
      [
        "m",
        "er"
      ],
      [
        "im",
        "e"
      ],
      [
        "Ġbe",
        "en"
      ],
      [
        "Ġt",
        "wo"
      ],
      [
        "Ġ",
        "4"
      ],
      [
        "d",
        "u"
      ],
      [
        "Ġre",
        "s"
      ],
      [
        "ĠT",
        "h"
      ],
      [
        "Ġ1",
        "8"
      ],
      [
        ".",
        "@"
      ],
      [
        "Ġ@",
        ".@"
      ],
      [
        "Ġp",
        "er"
      ],
      [
        "on",
        "d"
      ],
      [
        "Ġ",
        "5"
      ],
      [
        "re",
        "e"
      ],
      [
        "Ġb",
        "o"
      ],
      [
        "Ġwh",
        "o"
      ],
      [
        "en",
        "ce"
      ],
      [
        "ur",
        "ing"
      ],
      [
        "ou",
        "gh"
      ],
      [
        "l",
        "and"
      ],
      [
        "t",
        "ed"
      ],
      [
        "Ġth",
        "is"
      ],
      [
        "a",
        "re"
      ],
      [
        "Ġbe",
        "c"
      ],
      [
        "i",
        "le"
      ],
      [
        "r",
        "y"
      ],
      [
        "p",
        "l"
      ],
      [
        "or",
        "y"
      ],
      [
        "an",
        "ce"
      ],
      [
        "u",
        "gh"
      ],
      [
        "e",
        "ct"
      ],
      [
        "ĠI",
        "t"
      ],
      [
        "an",
        "s"
      ],
      [
        "Ġs",
        "c"
      ],
      [
        "Ġpl",
        "ay"
      ],
      [
        "ĠA",
        "l"
      ],
      [
        "Ġthe",
        "y"
      ],
      [
        "cl",
        "ud"
      ],
      [
        "Ġy",
        "ear"
      ],
      [
        "Ġ20",
        "1"
      ],
      [
        "Ġp",
        "art"
      ],
      [
        "Ġa",
        "g"
      ],
      [
        "ad",
        "e"
      ],
      [
        "Ġd",
        "es"
      ],
      [
        "ation",
        "s"
      ],
      [
        "Ġm",
        "an"
      ],
      [
        "r",
        "ic"
      ],
      [
        "Ġo",
        "ther"
      ],
      [
        "Ġd",
        "is"
      ],
      [
        "ul",
        "t"
      ],
      [
        "Ġt",
        "e"
      ],
      [
        "el",
        "y"
      ],
      [
        "Ġa",
        "fter"
      ],
      [
        "ac",
        "h"
      ],
      [
        "Ġ",
        "j"
      ],
      [
        "Ġs",
        "er"
      ],
      [
        "Ġo",
        "ver"
      ],
      [
        "o",
        "ver"
      ],
      [
        "Ġof",
        "f"
      ],
      [
        "Ġ",
        "up"
      ],
      [
        ",",
        "@"
      ],
      [
        "Ġ@",
        ",@"
      ],
      [
        "an",
        "g"
      ],
      [
        "Ġin",
        "clud"
      ],
      [
        "Ġs",
        "p"
      ],
      [
        "ion",
        "s"
      ],
      [
        "Ġ",
        "en"
      ],
      [
        "it",
        "e"
      ],
      [
        "ur",
        "n"
      ],
      [
        "ac",
        "t"
      ],
      [
        "o",
        "und"
      ],
      [
        "oun",
        "t"
      ],
      [
        "Ġ",
        "im"
      ],
      [
        "ac",
        "e"
      ],
      [
        "ic",
        "e"
      ],
      [
        "i",
        "z"
      ],
      [
        "i",
        "b"
      ],
      [
        "w",
        "n"
      ],
      [
        "Ġo",
        "ut"
      ],
      [
        "k",
        "e"
      ],
      [
        "res",
        "s"
      ],
      [
        "Ġ",
        "Y"
      ],
      [
        "ar",
        "k"
      ],
      [
        "Ġt",
        "ime"
      ],
      [
        "Ġn",
        "e"
      ],
      [
        "Ġint",
        "o"
      ],
      [
        "Ġf",
        "in"
      ],
      [
        "Ġp",
        "re"
      ],
      [
        "Ġe",
        "v"
      ],
      [
        "c",
        "ed"
      ],
      [
        "p",
        "ort"
      ],
      [
        "w",
        "e"
      ],
      [
        "ĠO",
        "n"
      ],
      [
        "Ġs",
        "pe"
      ],
      [
        "c",
        "es"
      ],
      [
        "Ġw",
        "ould"
      ],
      [
        "Ġm",
        "ore"
      ],
      [
        "Ġs",
        "he"
      ],
      [
        "Ġcom",
        "m"
      ],
      [
        "as",
        "on"
      ],
      [
        "Ġat",
        "t"
      ],
      [
        "w",
        "ard"
      ],
      [
        "ro",
        "ugh"
      ],
      [
        "Ġal",
        "l"
      ],
      [
        "re",
        "n"
      ],
      [
        "os",
        "e"
      ],
      [
        "on",
        "e"
      ],
      [
        "a",
        "il"
      ],
      [
        "it",
        "ed"
      ],
      [
        "Ġh",
        "im"
      ],
      [
        "am",
        "p"
      ],
      [
        "Ġw",
        "e"
      ],
      [
        "ter",
        "n"
      ],
      [
        "i",
        "ed"
      ],
      [
        "en",
        "s"
      ],
      [
        "o",
        "in"
      ],
      [
        "as",
        "ed"
      ],
      [
        "Ġ",
        "6"
      ],
      [
        "ĠU",
        "n"
      ],
      [
        "Ġc",
        "ent"
      ],
      [
        "ri",
        "b"
      ],
      [
        "ĠR",
        "e"
      ],
      [
        "Ġw",
        "ork"
      ],
      [
        "ent",
        "s"
      ],
      [
        "il",
        "d"
      ],
      [
        "ĠS",
        "e"
      ],
      [
        "i",
        "x"
      ],
      [
        "Ġm",
        "e"
      ],
      [
        "o",
        "od"
      ],
      [
        "as",
        "e"
      ],
      [
        "l",
        "es"
      ],
      [
        "ing",
        "s"
      ],
      [
        "t",
        "s"
      ],
      [
        "m",
        "an"
      ],
      [
        "ro",
        "und"
      ],
      [
        "Ġ",
        "7"
      ],
      [
        "Ġf",
        "e"
      ],
      [
        "Ġthe",
        "m"
      ],
      [
        "ab",
        "le"
      ],
      [
        "i",
        "ous"
      ],
      [
        "Ġwhe",
        "n"
      ],
      [
        "Ġbe",
        "t"
      ],
      [
        "Ġs",
        "ong"
      ],
      [
        "ak",
        "e"
      ],
      [
        "or",
        "s"
      ],
      [
        "Ġse",
        "c"
      ],
      [
        "at",
        "es"
      ],
      [
        "al",
        "s"
      ],
      [
        "v",
        "el"
      ],
      [
        "ub",
        "l"
      ],
      [
        "Ġe",
        "ar"
      ],
      [
        "Ġre",
        "m"
      ],
      [
        "ĠA",
        "n"
      ],
      [
        "ol",
        "d"
      ],
      [
        "is",
        "s"
      ],
      [
        "er",
        "ed"
      ],
      [
        "Ġk",
        "n"
      ],
      [
        "f",
        "orm"
      ],
      [
        "Ġm",
        "ost"
      ],
      [
        "Ġd",
        "uring"
      ],
      [
        "g",
        "an"
      ],
      [
        "at",
        "h"
      ],
      [
        "a",
        "us"
      ],
      [
        "Ġon",
        "ly"
      ],
      [
        "f",
        "er"
      ],
      [
        "und",
        "er"
      ],
      [
        "il",
        "m"
      ],
      [
        "Ġn",
        "ew"
      ],
      [
        "Ġg",
        "ame"
      ],
      [
        "o",
        "y"
      ],
      [
        "v",
        "ed"
      ],
      [
        "em",
        "ber"
      ],
      [
        "v",
        "e"
      ],
      [
        "or",
        "th"
      ],
      [
        "ol",
        "low"
      ],
      [
        "we",
        "en"
      ],
      [
        "Ġ19",
        "9"
      ],
      [
        "re",
        "at"
      ],
      [
        "ĠA",
        "s"
      ],
      [
        "w",
        "ay"
      ],
      [
        "ou",
        "th"
      ],
      [
        "ĠA",
        "r"
      ],
      [
        "Ġ",
        "9"
      ],
      [
        "Ġ",
        "8"
      ],
      [
        "Ġre",
        "l"
      ],
      [
        "Ġc",
        "an"
      ],
      [
        "Ġab",
        "out"
      ],
      [
        "ter",
        "s"
      ],
      [
        "Ġag",
        "ain"
      ],
      [
        "Ġse",
        "ason"
      ],
      [
        "Ġth",
        "ree"
      ],
      [
        "Ġcon",
        "s"
      ],
      [
        "Ġth",
        "an"
      ],
      [
        "ĠE",
        "n"
      ],
      [
        "ic",
        "k"
      ],
      [
        "u",
        "g"
      ],
      [
        "ĠM",
        "ar"
      ],
      [
        "Ġbet",
        "ween"
      ],
      [
        "at",
        "t"
      ],
      [
        "a",
        "w"
      ],
      [
        "r",
        "al"
      ],
      [
        "Ġrec",
        "ord"
      ],
      [
        "Ġs",
        "ome"
      ],
      [
        "ation",
        "al"
      ],
      [
        "Ġ",
        "under"
      ],
      [
        "on",
        "s"
      ],
      [
        "Ġch",
        "ar"
      ],
      [
        "ct",
        "ed"
      ],
      [
        "ul",
        "ar"
      ],
      [
        "f",
        "ore"
      ],
      [
        "Ġth",
        "rough"
      ],
      [
        "in",
        "d"
      ],
      [
        "ic",
        "t"
      ],
      [
        "Ġl",
        "ater"
      ],
      [
        "h",
        "ip"
      ],
      [
        "i",
        "ew"
      ],
      [
        "Ġc",
        "ol"
      ],
      [
        "Ġn",
        "um"
      ],
      [
        "Ġ",
        "00"
      ],
      [
        "ĠC",
        "om"
      ],
      [
        "f",
        "t"
      ],
      [
        "is",
        "ion"
      ],
      [
        "Ġw",
        "rit"
      ],
      [
        "Ġwh",
        "ile"
      ],
      [
        "ĠD",
        "e"
      ],
      [
        "Ġpro",
        "du"
      ],
      [
        "Ġp",
        "os"
      ],
      [
        "Ġf",
        "ilm"
      ],
      [
        "Ġre",
        "le"
      ],
      [
        "Ġ",
        "ver"
      ],
      [
        "am",
        "es"
      ],
      [
        "Ġe",
        "nd"
      ],
      [
        "Ġin",
        "ter"
      ],
      [
        "is",
        "hed"
      ],
      [
        "Ġa",
        "p"
      ],
      [
        "e",
        "y"
      ],
      [
        "Ġp",
        "e"
      ],
      [
        "Ġm",
        "ade"
      ],
      [
        "Ġp",
        "r"
      ],
      [
        "Ġfor",
        "m"
      ],
      [
        "n",
        "ing"
      ],
      [
        "Ġf",
        "l"
      ],
      [
        "Ġre",
        "g"
      ],
      [
        "Ġas",
        "s"
      ],
      [
        "or",
        "ld"
      ],
      [
        "Ġwhe",
        "re"
      ],
      [
        "Ġs",
        "o"
      ],
      [
        "Ġspe",
        "c"
      ],
      [
        "ĠN",
        "ew"
      ],
      [
        "Ġm",
        "ov"
      ],
      [
        "e",
        "ver"
      ],
      [
        "mer",
        "ic"
      ],
      [
        "ĠA",
        "meric"
      ],
      [
        "ur",
        "y"
      ],
      [
        "Ġl",
        "ar"
      ],
      [
        "b",
        "um"
      ],
      [
        "Ġa",
        "c"
      ],
      [
        "Ġa",
        "pp"
      ],
      [
        "Ġre",
        "t"
      ],
      [
        "r",
        "on"
      ],
      [
        "Ġf",
        "ollow"
      ],
      [
        "en",
        "er"
      ],
      [
        "Ġn",
        "o"
      ],
      [
        "Ġb",
        "u"
      ],
      [
        "Ġsu",
        "ch"
      ],
      [
        "Ġde",
        "f"
      ],
      [
        "Ġsec",
        "ond"
      ],
      [
        "iv",
        "ed"
      ],
      [
        "Ġf",
        "our"
      ],
      [
        "oc",
        "k"
      ],
      [
        "a",
        "id"
      ],
      [
        "Ġm",
        "us"
      ],
      [
        "Ġ",
        "qu"
      ],
      [
        "Ġa",
        "cc"
      ],
      [
        "Ġus",
        "ed"
      ],
      [
        "Ġsu",
        "b"
      ],
      [
        "ol",
        "og"
      ],
      [
        "Ġin",
        "c"
      ],
      [
        "Ġa",
        "ct"
      ],
      [
        "i",
        "ke"
      ],
      [
        "ĠA",
        "t"
      ],
      [
        "ro",
        "p"
      ],
      [
        "Ġd",
        "ay"
      ],
      [
        "ĠTh",
        "is"
      ],
      [
        "ar",
        "s"
      ],
      [
        "ĠL",
        "e"
      ],
      [
        "Ġp",
        "ubl"
      ],
      [
        "if",
        "ic"
      ],
      [
        "Ġa",
        "m"
      ],
      [
        "u",
        "al"
      ],
      [
        "Ġc",
        "all"
      ],
      [
        "Ġal",
        "bum"
      ],
      [
        "Ġin",
        "d"
      ],
      [
        "he",
        "s"
      ],
      [
        "Ġ00",
        "0"
      ],
      [
        "Ġbe",
        "fore"
      ],
      [
        "Ġd",
        "o"
      ],
      [
        "Ġap",
        "pe"
      ],
      [
        "o",
        "b"
      ],
      [
        "il",
        "y"
      ],
      [
        "o",
        "h"
      ],
      [
        "Ġbe",
        "ing"
      ],
      [
        "an",
        "k"
      ],
      [
        "Ġg",
        "r"
      ],
      [
        "Ġc",
        "o"
      ],
      [
        "an",
        "y"
      ],
      [
        "Ġyear",
        "s"
      ],
      [
        "ĠEn",
        "g"
      ],
      [
        "Ġthe",
        "re"
      ],
      [
        "Ġsu",
        "pp"
      ],
      [
        "Ġg",
        "ro"
      ],
      [
        "e",
        "nd"
      ],
      [
        "c",
        "k"
      ],
      [
        "ow",
        "ever"
      ],
      [
        "at",
        "ing"
      ],
      [
        "an",
        "e"
      ],
      [
        "Ġf",
        "ound"
      ],
      [
        "Ġ",
        "0"
      ],
      [
        "Ġe",
        "le"
      ],
      [
        "Ġh",
        "igh"
      ],
      [
        "Ġs",
        "et"
      ],
      [
        "i",
        "el"
      ],
      [
        "Ġe",
        "p"
      ],
      [
        "if",
        "e"
      ],
      [
        "ic",
        "s"
      ],
      [
        "or",
        "n"
      ],
      [
        "he",
        "n"
      ],
      [
        "Ġs",
        "y"
      ],
      [
        "ir",
        "d"
      ],
      [
        "Ġ",
        "ent"
      ],
      [
        "ot",
        "her"
      ],
      [
        "iv",
        "er"
      ],
      [
        "Ġs",
        "ur"
      ],
      [
        "ain",
        "ed"
      ],
      [
        "Ġ1",
        "0"
      ],
      [
        "Ġser",
        "ies"
      ],
      [
        "ig",
        "in"
      ],
      [
        "Ġnum",
        "ber"
      ],
      [
        "p",
        "en"
      ],
      [
        "t",
        "en"
      ],
      [
        "l",
        "l"
      ],
      [
        "in",
        "ce"
      ],
      [
        "Ġl",
        "oc"
      ],
      [
        "aus",
        "e"
      ],
      [
        "Ġde",
        "c"
      ],
      [
        "Ġp",
        "res"
      ],
      [
        "p",
        "h"
      ],
      [
        "vel",
        "op"
      ],
      [
        "Ġbo",
        "th"
      ],
      [
        "od",
        "e"
      ],
      [
        "Ġse",
        "ver"
      ],
      [
        "it",
        "ies"
      ],
      [
        "ce",
        "pt"
      ],
      [
        "Ġ1",
        "2"
      ],
      [
        "Ġthe",
        "n"
      ],
      [
        "Ġinclud",
        "ing"
      ],
      [
        "in",
        "es"
      ],
      [
        "Ġep",
        "is"
      ],
      [
        "s",
        "on"
      ],
      [
        "ĠB",
        "rit"
      ],
      [
        "Ġ",
        "/"
      ],
      [
        "Ġagain",
        "st"
      ],
      [
        "Ġw",
        "ell"
      ],
      [
        "Ġbec",
        "ame"
      ],
      [
        "Ġkn",
        "own"
      ],
      [
        "j",
        "ect"
      ],
      [
        "ĠâĢ",
        "Ķ"
      ],
      [
        "ro",
        "s"
      ],
      [
        "is",
        "ed"
      ],
      [
        "Ġp",
        "o"
      ],
      [
        "t",
        "on"
      ],
      [
        "Ġchar",
        "ac"
      ],
      [
        "Ġad",
        "d"
      ],
      [
        "Ġper",
        "form"
      ],
      [
        "Ġdes",
        "c"
      ],
      [
        "Ġs",
        "ing"
      ],
      [
        "Ġb",
        "l"
      ],
      [
        "Ġg",
        "o"
      ],
      [
        "Ġc",
        "ap"
      ],
      [
        "Ġ19",
        "8"
      ],
      [
        "Ġd",
        "ire"
      ],
      [
        "ur",
        "ch"
      ],
      [
        "ĠJ",
        "oh"
      ],
      [
        "a",
        "j"
      ],
      [
        "Ġ1",
        "6"
      ],
      [
        "al",
        "e"
      ],
      [
        "Ġb",
        "ack"
      ],
      [
        "Ġman",
        "y"
      ],
      [
        "ĠS",
        "h"
      ],
      [
        "Ġp",
        "op"
      ],
      [
        "p",
        "r"
      ],
      [
        "Ġm",
        "ain"
      ],
      [
        "id",
        "ent"
      ],
      [
        "th",
        "ough"
      ],
      [
        "ĠUn",
        "ited"
      ],
      [
        "Ġin",
        "v"
      ],
      [
        "Ġst",
        "ud"
      ],
      [
        "it",
        "s"
      ],
      [
        "Ġl",
        "ong"
      ],
      [
        "is",
        "e"
      ],
      [
        "at",
        "her"
      ],
      [
        "u",
        "res"
      ],
      [
        "Ġtr",
        "ans"
      ],
      [
        "Ġor",
        "igin"
      ],
      [
        "i",
        "o"
      ],
      [
        "ĠJoh",
        "n"
      ],
      [
        "ĠB",
        "r"
      ],
      [
        "i",
        "et"
      ],
      [
        "er",
        "t"
      ],
      [
        "em",
        "ent"
      ],
      [
        "Ġcent",
        "ury"
      ],
      [
        "Ġm",
        "on"
      ],
      [
        "Ġte",
        "am"
      ],
      [
        "o",
        "ber"
      ],
      [
        "ĠA",
        "fter"
      ],
      [
        "o",
        "ol"
      ],
      [
        "ĠS",
        "c"
      ],
      [
        "Ġ",
        "est"
      ],
      [
        "Ġde",
        "velop"
      ],
      [
        "Ġsh",
        "ow"
      ],
      [
        "an",
        "n"
      ],
      [
        "Ġm",
        "in"
      ],
      [
        "iel",
        "d"
      ],
      [
        "e",
        "k"
      ],
      [
        "ow",
        "er"
      ],
      [
        "Ġe",
        "m"
      ],
      [
        "i",
        "er"
      ],
      [
        "el",
        "f"
      ],
      [
        "Ġ19",
        "4"
      ],
      [
        "a",
        "ir"
      ],
      [
        "ut",
        "e"
      ],
      [
        "Ġc",
        "re"
      ],
      [
        "Ġsever",
        "al"
      ],
      [
        "ĠS",
        "he"
      ],
      [
        "Ġle",
        "ad"
      ],
      [
        "u",
        "ch"
      ],
      [
        "Ġ1",
        "7"
      ],
      [
        "a",
        "red"
      ],
      [
        "Ġbe",
        "gan"
      ],
      [
        "Ġ19",
        "6"
      ],
      [
        "f",
        "ul"
      ],
      [
        "iv",
        "ers"
      ],
      [
        "er",
        "n"
      ],
      [
        "Ġ1",
        "1"
      ],
      [
        "Ġ1",
        "5"
      ],
      [
        "Ġm",
        "ill"
      ],
      [
        "Ġd",
        "if"
      ],
      [
        "Ġcont",
        "in"
      ],
      [
        "Ġ19",
        "7"
      ],
      [
        "over",
        "n"
      ],
      [
        "Ġs",
        "ign"
      ],
      [
        "u",
        "ally"
      ],
      [
        "r",
        "am"
      ],
      [
        "v",
        "iew"
      ],
      [
        "Ġs",
        "m"
      ],
      [
        "i",
        "red"
      ],
      [
        "at",
        "ive"
      ],
      [
        "Ġm",
        "ay"
      ],
      [
        "Ġsh",
        "ip"
      ],
      [
        "Ġcomp",
        "le"
      ],
      [
        "Ġb",
        "r"
      ],
      [
        "Ġc",
        "ould"
      ],
      [
        "Ġear",
        "ly"
      ],
      [
        "Ġc",
        "rit"
      ],
      [
        "Ġd",
        "id"
      ],
      [
        "Ġcall",
        "ed"
      ],
      [
        "ain",
        "s"
      ],
      [
        "Ġar",
        "t"
      ],
      [
        "Ġepis",
        "ode"
      ],
      [
        "t",
        "il"
      ],
      [
        "Ġn",
        "ear"
      ],
      [
        "Ġo",
        "b"
      ],
      [
        "ĠI",
        "nd"
      ],
      [
        "Ġhis",
        "t"
      ],
      [
        "Ġp",
        "ol"
      ],
      [
        "Ġdesc",
        "rib"
      ],
      [
        "l",
        "ed"
      ],
      [
        "Ġb",
        "el"
      ],
      [
        "em",
        "b"
      ],
      [
        "u",
        "ed"
      ],
      [
        "Ġre",
        "ce"
      ],
      [
        "op",
        "le"
      ],
      [
        "i",
        "am"
      ],
      [
        "un",
        "e"
      ],
      [
        "Ġal",
        "ong"
      ],
      [
        "Ġr",
        "un"
      ],
      [
        "in",
        "s"
      ],
      [
        "Ġt",
        "er"
      ],
      [
        "im",
        "es"
      ],
      [
        "ment",
        "s"
      ],
      [
        "Ġde",
        "p"
      ],
      [
        "Ġb",
        "ro"
      ],
      [
        "cc",
        "ess"
      ],
      [
        "Ġs",
        "aid"
      ],
      [
        "le",
        "y"
      ],
      [
        "ĠW",
        "h"
      ],
      [
        "Ġfe",
        "at"
      ],
      [
        "ĠAmeric",
        "an"
      ],
      [
        "Ġd",
        "own"
      ],
      [
        "v",
        "en"
      ],
      [
        "ĠI",
        "s"
      ],
      [
        "Ġin",
        "st"
      ],
      [
        "Ġthe",
        "se"
      ],
      [
        "ak",
        "ing"
      ],
      [
        "ĠM",
        "ay"
      ],
      [
        "d",
        "er"
      ],
      [
        "Ġm",
        "il"
      ],
      [
        "Ġd",
        "ist"
      ],
      [
        "ĠA",
        "ust"
      ],
      [
        "Ġth",
        "ough"
      ],
      [
        "g",
        "est"
      ],
      [
        "ĠG",
        "er"
      ],
      [
        "ros",
        "s"
      ],
      [
        "Ġdis",
        "c"
      ],
      [
        "y",
        "l"
      ],
      [
        "ĠBrit",
        "ish"
      ],
      [
        "Ġo",
        "per"
      ],
      [
        "Ġun",
        "til"
      ],
      [
        "Ġ",
        "Z"
      ],
      [
        "ov",
        "e"
      ],
      [
        "t",
        "ing"
      ],
      [
        "o",
        "ot"
      ],
      [
        "Ġst",
        "art"
      ],
      [
        "an",
        "c"
      ],
      [
        "Ġc",
        "ity"
      ],
      [
        "Ġs",
        "ame"
      ],
      [
        "r",
        "ap"
      ],
      [
        "Ġin",
        "f"
      ],
      [
        "u",
        "red"
      ],
      [
        "Ġpre",
        "v"
      ],
      [
        "Ġrele",
        "ased"
      ],
      [
        "el",
        "s"
      ],
      [
        "Ġg",
        "ener"
      ],
      [
        "t",
        "y"
      ],
      [
        "an",
        "ge"
      ],
      [
        "Ġex",
        "p"
      ],
      [
        "Ġo",
        "wn"
      ],
      [
        "iz",
        "ed"
      ],
      [
        "Ġan",
        "y"
      ],
      [
        "Ġret",
        "urn"
      ],
      [
        "te",
        "nd"
      ],
      [
        "am",
        "ed"
      ],
      [
        "ĠThe",
        "y"
      ],
      [
        "i",
        "ally"
      ],
      [
        "ĠW",
        "ar"
      ],
      [
        "Ġk",
        "m"
      ],
      [
        "id",
        "ed"
      ],
      [
        "Ġl",
        "and"
      ],
      [
        "Ġdes",
        "ign"
      ],
      [
        "Ġw",
        "ar"
      ],
      [
        "Ġre",
        "p"
      ],
      [
        "Ġmus",
        "ic"
      ],
      [
        "Ġpro",
        "v"
      ],
      [
        "Ġim",
        "p"
      ],
      [
        "Ġmill",
        "ion"
      ],
      [
        "Ġbec",
        "ause"
      ],
      [
        "Ġare",
        "a"
      ],
      [
        "Ġus",
        "e"
      ],
      [
        "aj",
        "or"
      ],
      [
        "ĠC",
        "on"
      ],
      [
        "Ġc",
        "ar"
      ],
      [
        "Ġf",
        "am"
      ],
      [
        "Ġa",
        "ir"
      ],
      [
        "a",
        "z"
      ],
      [
        "ĠA",
        "ug"
      ],
      [
        "ĠAug",
        "ust"
      ],
      [
        "om",
        "an"
      ],
      [
        "Ġl",
        "ike"
      ],
      [
        "Ġo",
        "pen"
      ],
      [
        "Ġsu",
        "ccess"
      ],
      [
        "Ġm",
        "at"
      ],
      [
        "os",
        "ed"
      ],
      [
        "Ġs",
        "im"
      ],
      [
        "ĠF",
        "r"
      ],
      [
        "ĠCh",
        "r"
      ],
      [
        "Ġo",
        "cc"
      ],
      [
        "ers",
        "on"
      ],
      [
        "in",
        "k"
      ],
      [
        "e",
        "p"
      ],
      [
        "en",
        "n"
      ],
      [
        "Ġcon",
        "st"
      ],
      [
        "o",
        "ok"
      ],
      [
        "Ġpe",
        "ople"
      ],
      [
        "ul",
        "l"
      ],
      [
        "Ġe",
        "ff"
      ],
      [
        "h",
        "y"
      ],
      [
        "i",
        "um"
      ],
      [
        "Ġin",
        "s"
      ],
      [
        "Ġp",
        "ass"
      ],
      [
        "ch",
        "ool"
      ],
      [
        "Ġoff",
        "ic"
      ],
      [
        "st",
        "em"
      ],
      [
        "ib",
        "le"
      ],
      [
        "x",
        "t"
      ],
      [
        "Ġs",
        "ix"
      ],
      [
        "Ġc",
        "ount"
      ],
      [
        "Ġ19",
        "5"
      ],
      [
        "Ġsupp",
        "ort"
      ],
      [
        "ĠB",
        "l"
      ],
      [
        "ĠB",
        "e"
      ],
      [
        "Ġa",
        "round"
      ],
      [
        "m",
        "y"
      ],
      [
        "ĠH",
        "owever"
      ],
      [
        "Ġsm",
        "all"
      ],
      [
        "a",
        "h"
      ],
      [
        "Ġw",
        "in"
      ],
      [
        "Ġ",
        "%"
      ],
      [
        "ĠSe",
        "pt"
      ],
      [
        "u",
        "c"
      ],
      [
        "Ġn",
        "orth"
      ],
      [
        "Ġad",
        "v"
      ],
      [
        "Ġd",
        "am"
      ],
      [
        "Ġgro",
        "up"
      ],
      [
        "Ġst",
        "r"
      ],
      [
        "ĠC",
        "ar"
      ],
      [
        "Ġp",
        "oin"
      ],
      [
        "Ġe",
        "ach"
      ],
      [
        "ĠSept",
        "ember"
      ],
      [
        "u",
        "es"
      ],
      [
        "on",
        "y"
      ],
      [
        "Ġcons",
        "id"
      ],
      [
        "Ġm",
        "et"
      ],
      [
        "ou",
        "se"
      ],
      [
        "Ġfollow",
        "ing"
      ],
      [
        "ĠP",
        "l"
      ],
      [
        "Ġcharac",
        "ter"
      ],
      [
        "ĠJ",
        "u"
      ],
      [
        "er",
        "v"
      ],
      [
        "ist",
        "s"
      ],
      [
        "ward",
        "s"
      ],
      [
        "ĠW",
        "orld"
      ],
      [
        "Ġl",
        "ife"
      ],
      [
        "m",
        "s"
      ],
      [
        "Ġ",
        "ed"
      ],
      [
        "ĠAust",
        "ral"
      ],
      [
        "Ġhe",
        "ad"
      ],
      [
        "Ġ1",
        "3"
      ],
      [
        "ain",
        "ing"
      ],
      [
        "Ġf",
        "ive"
      ],
      [
        "Ġm",
        "od"
      ],
      [
        "Ġcont",
        "ro"
      ],
      [
        "Ġg",
        "overn"
      ],
      [
        "Ġatt",
        "ack"
      ],
      [
        "o",
        "le"
      ],
      [
        "Ġ19",
        "3"
      ],
      [
        "ord",
        "ing"
      ],
      [
        "ĠCom",
        "m"
      ],
      [
        "i",
        "ent"
      ],
      [
        "al",
        "es"
      ],
      [
        "Ġv",
        "ar"
      ],
      [
        "os",
        "s"
      ],
      [
        "u",
        "th"
      ],
      [
        "ĠAl",
        "l"
      ],
      [
        "Ġw",
        "ill"
      ],
      [
        "ĠT",
        "e"
      ],
      [
        "Ġlar",
        "ge"
      ],
      [
        "Ġe",
        "ver"
      ],
      [
        "ut",
        "ion"
      ],
      [
        "et",
        "s"
      ],
      [
        "Ġ19",
        "1"
      ],
      [
        "ĠI",
        "I"
      ],
      [
        "ĠH",
        "er"
      ],
      [
        "Ġg",
        "u"
      ],
      [
        "ĠC",
        "ol"
      ],
      [
        "Ġan",
        "n"
      ],
      [
        "Ġre",
        "port"
      ],
      [
        "ro",
        "w"
      ],
      [
        "Ġcon",
        "c"
      ],
      [
        "ag",
        "ue"
      ],
      [
        "ur",
        "al"
      ],
      [
        "ĠU",
        "S"
      ],
      [
        "ĠM",
        "e"
      ],
      [
        "ĠC",
        "l"
      ],
      [
        "ro",
        "te"
      ],
      [
        "l",
        "ish"
      ],
      [
        "ĠJ",
        "une"
      ],
      [
        "Ġbo",
        "ok"
      ],
      [
        "ĠN",
        "orth"
      ],
      [
        "av",
        "ing"
      ],
      [
        "ac",
        "ed"
      ],
      [
        "ĠE",
        "u"
      ],
      [
        "as",
        "h"
      ],
      [
        "ĠF",
        "or"
      ],
      [
        "Ġt",
        "it"
      ],
      [
        "ĠGer",
        "man"
      ],
      [
        "d",
        "om"
      ],
      [
        "Ġs",
        "ince"
      ],
      [
        "ĠSt",
        "ates"
      ],
      [
        "i",
        "k"
      ],
      [
        "Ġp",
        "rom"
      ],
      [
        "Ġs",
        "outh"
      ],
      [
        "Ġrece",
        "ived"
      ],
      [
        "Ġm",
        "ajor"
      ],
      [
        "Ġfin",
        "al"
      ],
      [
        "il",
        "t"
      ],
      [
        "m",
        "ed"
      ],
      [
        "p",
        "ed"
      ],
      [
        "Ġn",
        "ame"
      ],
      [
        "at",
        "ely"
      ],
      [
        "iv",
        "ision"
      ],
      [
        "ĠJ",
        "an"
      ],
      [
        "ĠA",
        "d"
      ],
      [
        "pe",
        "ct"
      ],
      [
        "ĠO",
        "ct"
      ],
      [
        "Ġpart",
        "ic"
      ],
      [
        "Ġsy",
        "stem"
      ],
      [
        "ĠS",
        "outh"
      ],
      [
        "Ġpubl",
        "ic"
      ],
      [
        "Ġc",
        "are"
      ],
      [
        "Ġst",
        "ate"
      ],
      [
        "Ġd",
        "r"
      ],
      [
        "ĠChr",
        "ist"
      ],
      [
        "Ġwh",
        "at"
      ],
      [
        "ĠK",
        "ing"
      ],
      [
        "iv",
        "es"
      ],
      [
        "Ġdire",
        "ct"
      ],
      [
        "u",
        "ary"
      ],
      [
        "Ġl",
        "ast"
      ],
      [
        "Ġhe",
        "l"
      ],
      [
        "Ġdescrib",
        "ed"
      ],
      [
        "t",
        "le"
      ],
      [
        "he",
        "l"
      ],
      [
        "Ġex",
        "t"
      ],
      [
        "ĠOct",
        "ober"
      ],
      [
        "ore",
        "d"
      ],
      [
        "Ġ1",
        "4"
      ],
      [
        "Ġl",
        "ine"
      ],
      [
        "Ġ",
        "$"
      ],
      [
        "Ġappe",
        "ar"
      ],
      [
        "Ġre",
        "st"
      ],
      [
        "ĠC",
        "an"
      ],
      [
        "Ġb",
        "att"
      ],
      [
        "Ġwe",
        "ek"
      ],
      [
        "Ġplay",
        "ed"
      ],
      [
        "c",
        "ess"
      ],
      [
        "Ġcl",
        "ass"
      ],
      [
        "Ġbu",
        "ild"
      ],
      [
        "Ġinc",
        "re"
      ],
      [
        "Ġto",
        "ok"
      ],
      [
        "rop",
        "ical"
      ],
      [
        "Ġn",
        "ow"
      ],
      [
        "ĠF",
        "e"
      ],
      [
        "ĠN",
        "ov"
      ],
      [
        "ar",
        "l"
      ],
      [
        "Ġ",
        "["
      ],
      [
        "Ġ",
        "]"
      ],
      [
        "ĠY",
        "ork"
      ],
      [
        "g",
        "in"
      ],
      [
        "Ġw",
        "orld"
      ],
      [
        "ag",
        "ed"
      ],
      [
        "ĠJu",
        "ly"
      ],
      [
        "Ġw",
        "rote"
      ],
      [
        "Ġl",
        "ate"
      ],
      [
        "ag",
        "es"
      ],
      [
        ".",
        "."
      ],
      [
        "ĠT",
        "r"
      ],
      [
        "iv",
        "ing"
      ],
      [
        "em",
        "pt"
      ],
      [
        "Ã",
        "©"
      ],
      [
        "ion",
        "al"
      ],
      [
        "b",
        "le"
      ],
      [
        "Ġw",
        "on"
      ],
      [
        "Ġspec",
        "ies"
      ],
      [
        "olog",
        "y"
      ],
      [
        "ide",
        "o"
      ],
      [
        "Ġst",
        "ru"
      ],
      [
        "a",
        "im"
      ],
      [
        "Ġch",
        "ild"
      ],
      [
        "Ġ.",
        ".."
      ],
      [
        "Ġm",
        "uch"
      ],
      [
        "Ġ2",
        "5"
      ],
      [
        "ĠD",
        "uring"
      ],
      [
        "Ġd",
        "ue"
      ],
      [
        "od",
        "y"
      ],
      [
        "if",
        "ied"
      ],
      [
        "Ġser",
        "v"
      ],
      [
        "ĠA",
        "pr"
      ],
      [
        "Ġsing",
        "le"
      ],
      [
        "ĠApr",
        "il"
      ],
      [
        "Ġc",
        "amp"
      ],
      [
        "Ġal",
        "low"
      ],
      [
        "at",
        "s"
      ],
      [
        "i",
        "od"
      ],
      [
        "m",
        "in"
      ],
      [
        "ĠG",
        "u"
      ],
      [
        "Ġsh",
        "ort"
      ],
      [
        "Ġp",
        "ort"
      ],
      [
        "Ġde",
        "ath"
      ],
      [
        "Ġver",
        "s"
      ],
      [
        "Ġj",
        "ust"
      ],
      [
        "b",
        "all"
      ],
      [
        "Ġt",
        "y"
      ],
      [
        "Ġm",
        "ar"
      ],
      [
        "Ġan",
        "other"
      ],
      [
        "Ġinclud",
        "ed"
      ],
      [
        "ĠEu",
        "ro"
      ],
      [
        "Ġpos",
        "s"
      ],
      [
        "ĠJan",
        "uary"
      ],
      [
        "Ġo",
        "ld"
      ],
      [
        "il",
        "ity"
      ],
      [
        "iv",
        "ely"
      ],
      [
        "Ġst",
        "orm"
      ],
      [
        "g",
        "et"
      ],
      [
        "Ġev",
        "en"
      ],
      [
        "Ġdif",
        "fer"
      ],
      [
        "Ġg",
        "un"
      ],
      [
        "Ġwith",
        "in"
      ],
      [
        "ĠEng",
        "land"
      ],
      [
        "Ġl",
        "ist"
      ],
      [
        "iss",
        "ion"
      ],
      [
        "Ġle",
        "ft"
      ],
      [
        "Ġres",
        "ult"
      ],
      [
        "is",
        "m"
      ],
      [
        "om",
        "in"
      ],
      [
        "Ġpos",
        "ition"
      ],
      [
        "Ġn",
        "amed"
      ],
      [
        "Ġb",
        "ased"
      ],
      [
        "Ġest",
        "ab"
      ],
      [
        "Ġ",
        "if"
      ],
      [
        "Ġcon",
        "f"
      ],
      [
        "ant",
        "s"
      ],
      [
        "Ġar",
        "r"
      ],
      [
        "Ġal",
        "though"
      ],
      [
        "Ġv",
        "is"
      ],
      [
        "Ġpro",
        "g"
      ],
      [
        "Ġatt",
        "empt"
      ],
      [
        "a",
        "x"
      ],
      [
        "on",
        "t"
      ],
      [
        "Ġ3",
        "0"
      ],
      [
        "Ġver",
        "y"
      ],
      [
        "Ġapp",
        "ro"
      ],
      [
        "in",
        "a"
      ],
      [
        "Ġth",
        "ird"
      ],
      [
        "Ġg",
        "ames"
      ],
      [
        "b",
        "y"
      ],
      [
        "it",
        "al"
      ],
      [
        "Ġto",
        "p"
      ],
      [
        "Ġre",
        "f"
      ],
      [
        "ĠA",
        "nd"
      ],
      [
        "ak",
        "es"
      ],
      [
        "Ġbel",
        "ie"
      ],
      [
        "Ġtr",
        "ack"
      ],
      [
        "ction",
        "s"
      ],
      [
        "ĠMar",
        "ch"
      ],
      [
        "n",
        "er"
      ],
      [
        "p",
        "le"
      ],
      [
        "Ġl",
        "it"
      ],
      [
        "ĠG",
        "r"
      ],
      [
        "Ġprev",
        "ious"
      ],
      [
        "Ġfam",
        "ily"
      ],
      [
        "ĠM",
        "us"
      ],
      [
        "ĠP",
        "ro"
      ],
      [
        "ĠNov",
        "ember"
      ],
      [
        "Ġp",
        "ower"
      ],
      [
        "Ġt",
        "ri"
      ],
      [
        "Ġre",
        "view"
      ],
      [
        "Ġper",
        "iod"
      ],
      [
        "Ġev",
        "ent"
      ],
      [
        "Ġ",
        "Q"
      ],
      [
        "Ġb",
        "est"
      ],
      [
        "Ġh",
        "ome"
      ],
      [
        "ĠG",
        "e"
      ],
      [
        "m",
        "ber"
      ],
      [
        "Ġw",
        "ay"
      ],
      [
        "il",
        "ar"
      ],
      [
        "ur",
        "ric"
      ],
      [
        "Ġs",
        "chool"
      ],
      [
        "Ġres",
        "p"
      ],
      [
        "ĠR",
        "o"
      ],
      [
        "ĠEuro",
        "pe"
      ],
      [
        "Ġw",
        "ater"
      ],
      [
        "ĠH",
        "is"
      ],
      [
        "Ġgovern",
        "ment"
      ],
      [
        "an",
        "ces"
      ],
      [
        "og",
        "rap"
      ],
      [
        "ent",
        "ly"
      ],
      [
        "ce",
        "mber"
      ],
      [
        "Ġex",
        "pl"
      ],
      [
        "ĠDe",
        "cember"
      ],
      [
        "Ġ19",
        "2"
      ],
      [
        "Ġm",
        "en"
      ],
      [
        "re",
        "t"
      ],
      [
        "Ġth",
        "ose"
      ],
      [
        "av",
        "y"
      ],
      [
        "ra",
        "ft"
      ],
      [
        "ĠThe",
        "re"
      ],
      [
        "ĠB",
        "y"
      ],
      [
        "g",
        "er"
      ],
      [
        "Ġt",
        "urn"
      ],
      [
        "Ġconst",
        "ru"
      ],
      [
        "i",
        "ence"
      ],
      [
        "Ġh",
        "um"
      ],
      [
        "Ġpl",
        "ace"
      ],
      [
        "ĠC",
        "ity"
      ],
      [
        "ul",
        "ation"
      ],
      [
        "Ġor",
        "gan"
      ],
      [
        "Ġs",
        "l"
      ],
      [
        "Ġbu",
        "ilt"
      ],
      [
        "at",
        "ure"
      ],
      [
        "Ġb",
        "re"
      ],
      [
        "pe",
        "nd"
      ],
      [
        "ard",
        "s"
      ],
      [
        "ur",
        "ther"
      ],
      [
        "Ġg",
        "reat"
      ],
      [
        "ian",
        "s"
      ],
      [
        "id",
        "es"
      ],
      [
        "Ġst",
        "ory"
      ],
      [
        "Ġpro",
        "te"
      ],
      [
        "Ġcomm",
        "and"
      ],
      [
        "ac",
        "hed"
      ],
      [
        "Ġk",
        "ill"
      ],
      [
        "Ġmon",
        "th"
      ],
      [
        "ĠW",
        "hen"
      ],
      [
        "Ġcol",
        "le"
      ],
      [
        "c",
        "hed"
      ],
      [
        "he",
        "st"
      ],
      [
        "Ġs",
        "ent"
      ],
      [
        "Ġp",
        "erson"
      ],
      [
        "Ġorigin",
        "al"
      ],
      [
        "ri",
        "pt"
      ],
      [
        "ivers",
        "ity"
      ],
      [
        "it",
        "ary"
      ],
      [
        "Ġm",
        "ake"
      ],
      [
        "Ġh",
        "and"
      ],
      [
        "Ġo",
        "pp"
      ],
      [
        "ed",
        "er"
      ],
      [
        "Ġ1",
        "00"
      ],
      [
        "Ġ200",
        "9"
      ],
      [
        "Ġ201",
        "0"
      ],
      [
        "Ġm",
        "ed"
      ],
      [
        "Ġv",
        "ideo"
      ],
      [
        "ĠN",
        "ational"
      ],
      [
        "Ġ",
        "Â"
      ],
      [
        "Ġ200",
        "8"
      ],
      [
        "Ġa",
        "uth"
      ],
      [
        "Ġre",
        "qu"
      ],
      [
        "Ġh",
        "al"
      ],
      [
        "ent",
        "ion"
      ],
      [
        "Ġpres",
        "ent"
      ],
      [
        "oc",
        "i"
      ],
      [
        "a",
        "ur"
      ],
      [
        "p",
        "or"
      ],
      [
        "Ġm",
        "ark"
      ],
      [
        "Ġp",
        "h"
      ],
      [
        "Ġsu",
        "g"
      ],
      [
        "h",
        "am"
      ],
      [
        "Ġcl",
        "ub"
      ],
      [
        "Ġen",
        "g"
      ],
      [
        "en",
        "ces"
      ],
      [
        "ri",
        "end"
      ],
      [
        "iv",
        "en"
      ],
      [
        "as",
        "ter"
      ],
      [
        "el",
        "t"
      ],
      [
        "en",
        "e"
      ],
      [
        "Ġv",
        "iew"
      ],
      [
        "ĠM",
        "c"
      ],
      [
        "ic",
        "ally"
      ],
      [
        "s",
        "elf"
      ],
      [
        "ĠR",
        "iver"
      ],
      [
        "Ġmov",
        "ed"
      ],
      [
        "Ġl",
        "ed"
      ],
      [
        "Ġro",
        "le"
      ],
      [
        "Ġadd",
        "ition"
      ],
      [
        "Ġcap",
        "t"
      ],
      [
        "Ġst",
        "and"
      ],
      [
        "Ġst",
        "ill"
      ],
      [
        "Ġc",
        "ame"
      ],
      [
        "Ġle",
        "g"
      ],
      [
        "Ġloc",
        "al"
      ],
      [
        "Ġis",
        "s"
      ],
      [
        "Ġre",
        "pl"
      ],
      [
        "ren",
        "ch"
      ],
      [
        "g",
        "y"
      ],
      [
        "en",
        "se"
      ],
      [
        "ĠP",
        "r"
      ],
      [
        "a",
        "ff"
      ],
      [
        "Ġof",
        "ten"
      ],
      [
        "Ġhist",
        "ory"
      ],
      [
        "urric",
        "ane"
      ],
      [
        "Ġcomm",
        "on"
      ],
      [
        "Ġc",
        "aus"
      ],
      [
        "Ġd",
        "est"
      ],
      [
        "iv",
        "al"
      ],
      [
        "ĠW",
        "e"
      ],
      [
        "Ġc",
        "our"
      ],
      [
        "a",
        "e"
      ],
      [
        "is",
        "on"
      ],
      [
        "ĠM",
        "an"
      ],
      [
        "Ġd",
        "em"
      ],
      [
        "ak",
        "en"
      ],
      [
        "Ġeff",
        "ect"
      ],
      [
        "er",
        "y"
      ],
      [
        "Ġf",
        "ew"
      ],
      [
        "b",
        "e"
      ],
      [
        "ĠB",
        "o"
      ],
      [
        "ad",
        "y"
      ],
      [
        "ĠN",
        "o"
      ],
      [
        "op",
        "s"
      ],
      [
        "Ġ200",
        "7"
      ],
      [
        "Ġne",
        "xt"
      ],
      [
        "Ġconsid",
        "ered"
      ],
      [
        "ĠF",
        "l"
      ],
      [
        "Ġtr",
        "ad"
      ],
      [
        "or",
        "ies"
      ],
      [
        "en",
        "g"
      ],
      [
        "Ġplay",
        "er"
      ],
      [
        "Ġsug",
        "gest"
      ],
      [
        "l",
        "ing"
      ],
      [
        "le",
        "v"
      ],
      [
        "Ġst",
        "ar"
      ],
      [
        "as",
        "tern"
      ],
      [
        "ĠS",
        "p"
      ],
      [
        "ĠF",
        "rench"
      ],
      [
        "Ġex",
        "per"
      ],
      [
        "s",
        "ide"
      ],
      [
        "Ġm",
        "y"
      ],
      [
        "Ġsim",
        "ilar"
      ],
      [
        "Ġcare",
        "er"
      ],
      [
        "ĠOn",
        "e"
      ],
      [
        "Ġrecord",
        "ed"
      ],
      [
        "ĠEng",
        "lish"
      ],
      [
        "Ġs",
        "ide"
      ],
      [
        "us",
        "s"
      ],
      [
        "Ġr",
        "ight"
      ],
      [
        "ĠP",
        "e"
      ],
      [
        "in",
        "ed"
      ],
      [
        "Ġc",
        "r"
      ],
      [
        "Ġin",
        "it"
      ],
      [
        "le",
        "t"
      ],
      [
        "Ġim",
        "port"
      ],
      [
        "Ġre",
        "al"
      ],
      [
        "ĠO",
        "r"
      ],
      [
        "Ġcl",
        "aim"
      ],
      [
        "qu",
        "e"
      ],
      [
        "ĠB",
        "att"
      ],
      [
        "Ġcomp",
        "any"
      ],
      [
        "a",
        "i"
      ],
      [
        "Ġc",
        "over"
      ],
      [
        "Ġpubl",
        "ished"
      ],
      [
        "ĠB",
        "ro"
      ],
      [
        "Ġde",
        "b"
      ],
      [
        "Ġcontin",
        "ued"
      ],
      [
        "Ġcont",
        "r"
      ],
      [
        "re",
        "w"
      ],
      [
        "ar",
        "n"
      ],
      [
        "id",
        "ge"
      ],
      [
        "Ġre",
        "fer"
      ],
      [
        "Ġy",
        "ou"
      ],
      [
        "Ġt",
        "ake"
      ],
      [
        "Ġb",
        "as"
      ],
      [
        "Ġwith",
        "out"
      ],
      [
        "Ġs",
        "old"
      ],
      [
        "Ġm",
        "id"
      ],
      [
        "ĠP",
        "h"
      ],
      [
        "tern",
        "ational"
      ],
      [
        "Ġsong",
        "s"
      ],
      [
        "Ġdiffer",
        "ent"
      ],
      [
        "Ġs",
        "ay"
      ],
      [
        "Ġto",
        "wn"
      ],
      [
        "Ġfor",
        "mer"
      ],
      [
        "ĠW",
        "ith"
      ],
      [
        "Ġan",
        "t"
      ],
      [
        "i",
        "or"
      ],
      [
        "Ġw",
        "ind"
      ],
      [
        "Ġhe",
        "ld"
      ],
      [
        "ĠCom",
        "p"
      ],
      [
        "at",
        "ter"
      ],
      [
        "is",
        "ter"
      ],
      [
        "ut",
        "ed"
      ],
      [
        "ĠA",
        "cc"
      ],
      [
        "Ġam",
        "ong"
      ],
      [
        "n",
        "ess"
      ],
      [
        "Ġm",
        "emb"
      ],
      [
        "Ġle",
        "vel"
      ],
      [
        "l",
        "u"
      ],
      [
        "Ġto",
        "t"
      ],
      [
        "Ġar",
        "ch"
      ],
      [
        "Ġro",
        "ad"
      ],
      [
        "Ġt",
        "em"
      ],
      [
        "Ġpol",
        "it"
      ],
      [
        "Ġf",
        "ield"
      ],
      [
        "g",
        "ed"
      ],
      [
        "Ġwrit",
        "ten"
      ],
      [
        "ar",
        "ch"
      ],
      [
        "th",
        "ing"
      ],
      [
        "ĠSt",
        "ate"
      ],
      [
        "b",
        "s"
      ],
      [
        "Ġpl",
        "an"
      ],
      [
        "Ġever",
        "y"
      ],
      [
        "p",
        "s"
      ],
      [
        "Ġ",
        "es"
      ],
      [
        "ĠP",
        "ort"
      ],
      [
        "Ġhal",
        "f"
      ],
      [
        "al",
        "k"
      ],
      [
        "Ġ2",
        "1"
      ],
      [
        "ĠD",
        "ivision"
      ],
      [
        "amp",
        "ions"
      ],
      [
        "Ġt",
        "w"
      ],
      [
        "Ġ201",
        "1"
      ],
      [
        "Ġrele",
        "ase"
      ],
      [
        "res",
        "ent"
      ],
      [
        "v",
        "es"
      ],
      [
        "es",
        "tern"
      ],
      [
        "im",
        "ent"
      ],
      [
        "ĠW",
        "ill"
      ],
      [
        "e",
        "ad"
      ],
      [
        "Ġbec",
        "ome"
      ],
      [
        "Ġa",
        "v"
      ],
      [
        "Ġf",
        "urther"
      ],
      [
        "Ġm",
        "ag"
      ],
      [
        "Ġ200",
        "6"
      ],
      [
        "Ġcomm",
        "un"
      ],
      [
        "tend",
        "ed"
      ],
      [
        "ĠAcc",
        "ording"
      ],
      [
        "ĠAl",
        "though"
      ],
      [
        "ens",
        "ive"
      ],
      [
        "Ġw",
        "est"
      ],
      [
        "Ġh",
        "owever"
      ],
      [
        "Ġch",
        "urch"
      ],
      [
        "Ġ2",
        "3"
      ],
      [
        "Ġday",
        "s"
      ],
      [
        "Ġstr",
        "ong"
      ],
      [
        "ĠCan",
        "ad"
      ],
      [
        "y",
        "le"
      ],
      [
        "it",
        "ar"
      ],
      [
        "Ġe",
        "ast"
      ],
      [
        "Ġfin",
        "d"
      ],
      [
        "Ġvers",
        "ion"
      ],
      [
        "ro",
        "y"
      ],
      [
        "le",
        "ar"
      ],
      [
        "Ġj",
        "oin"
      ],
      [
        "un",
        "g"
      ],
      [
        "b",
        "r"
      ],
      [
        "b",
        "ru"
      ],
      [
        "Ġ",
        "&"
      ],
      [
        "ot",
        "t"
      ],
      [
        "ri",
        "ed"
      ],
      [
        "ĠCh",
        "urch"
      ],
      [
        "Ġcomp",
        "et"
      ],
      [
        "Ġtit",
        "le"
      ],
      [
        "ĠC",
        "ount"
      ],
      [
        "Ġpartic",
        "ular"
      ],
      [
        "n",
        "e"
      ],
      [
        "p",
        "ite"
      ],
      [
        "m",
        "p"
      ],
      [
        "Ġl",
        "ow"
      ],
      [
        "Ġmil",
        "itary"
      ],
      [
        "Ġp",
        "ar"
      ],
      [
        "Ġd",
        "el"
      ],
      [
        "p",
        "ar"
      ],
      [
        "Ġbe",
        "h"
      ],
      [
        "ro",
        "du"
      ],
      [
        "ĠR",
        "oman"
      ],
      [
        "Ġor",
        "der"
      ],
      [
        "ĠLe",
        "ague"
      ],
      [
        "Ġauth",
        "or"
      ],
      [
        "Ġpro",
        "p"
      ],
      [
        "ĠM",
        "in"
      ],
      [
        "Ġdef",
        "e"
      ],
      [
        "Ġcontro",
        "l"
      ],
      [
        "Ġf",
        "oot"
      ],
      [
        "al",
        "y"
      ],
      [
        "ou",
        "ther"
      ],
      [
        "ĠS",
        "ong"
      ],
      [
        "ĠFe",
        "bru"
      ],
      [
        "outher",
        "n"
      ],
      [
        "ĠFebru",
        "ary"
      ],
      [
        "ĠP",
        "er"
      ],
      [
        "ĠG",
        "ener"
      ],
      [
        "Ġt",
        "imes"
      ],
      [
        "f",
        "ric"
      ],
      [
        "Ġg",
        "ave"
      ],
      [
        "Ġ2",
        "2"
      ],
      [
        "Ġl",
        "ess"
      ],
      [
        "Ġ",
        "!"
      ],
      [
        "Ġs",
        "it"
      ],
      [
        "Ġ2",
        "6"
      ],
      [
        "Ġreport",
        "ed"
      ],
      [
        "Ġmemb",
        "ers"
      ],
      [
        "Ġf",
        "r"
      ],
      [
        "Ġb",
        "and"
      ],
      [
        "ĠD",
        "yl"
      ],
      [
        "Ġv",
        "ict"
      ],
      [
        "ra",
        "w"
      ],
      [
        "ĠDyl",
        "an"
      ],
      [
        "Ġ2",
        "4"
      ],
      [
        "ot",
        "s"
      ],
      [
        "Ġch",
        "ang"
      ],
      [
        "ĠGe",
        "or"
      ],
      [
        "Ġf",
        "ore"
      ],
      [
        "ĠA",
        "b"
      ],
      [
        "Ġn",
        "ort"
      ],
      [
        "Ġprodu",
        "ced"
      ],
      [
        "c",
        "hes"
      ],
      [
        "Ġ201",
        "2"
      ],
      [
        "lev",
        "ision"
      ],
      [
        "Ġpro",
        "f"
      ],
      [
        "Ġe",
        "l"
      ],
      [
        "Ġtot",
        "al"
      ],
      [
        "a",
        "ugh"
      ],
      [
        "ic",
        "es"
      ],
      [
        "ĠP",
        "ark"
      ],
      [
        "ĠO",
        "ld"
      ],
      [
        "ail",
        "ed"
      ],
      [
        "er",
        "ing"
      ],
      [
        "ur",
        "s"
      ],
      [
        "Ġst",
        "at"
      ],
      [
        "ĠW",
        "est"
      ],
      [
        "l",
        "ine"
      ],
      [
        "ac",
        "es"
      ],
      [
        "Ġprodu",
        "ction"
      ],
      [
        "Ġpop",
        "ular"
      ],
      [
        "iet",
        "y"
      ],
      [
        "Ġf",
        "re"
      ],
      [
        "Ġde",
        "cl"
      ],
      [
        "cept",
        "ion"
      ],
      [
        "Ġt",
        "ropical"
      ],
      [
        "ĠB",
        "ar"
      ],
      [
        "Ġn",
        "ov"
      ],
      [
        "ron",
        "t"
      ],
      [
        "her",
        "n"
      ],
      [
        "oun",
        "g"
      ],
      [
        "Ġpro",
        "ject"
      ],
      [
        "Ġs",
        "ol"
      ],
      [
        "Ġfor",
        "ces"
      ],
      [
        "ĠJ",
        "ap"
      ],
      [
        "ition",
        "s"
      ],
      [
        "Ġpoin",
        "t"
      ],
      [
        "Ġchild",
        "ren"
      ],
      [
        "ĠJap",
        "an"
      ],
      [
        "Ġc",
        "ur"
      ],
      [
        "Ġc",
        "ult"
      ],
      [
        "Ġh",
        "aving"
      ],
      [
        "ĠP",
        "ar"
      ],
      [
        "Ġinclud",
        "e"
      ],
      [
        "re",
        "en"
      ],
      [
        "Ġcrit",
        "ic"
      ],
      [
        "Ġob",
        "s"
      ],
      [
        "Ġhist",
        "or"
      ],
      [
        "pe",
        "c"
      ],
      [
        "l",
        "er"
      ],
      [
        "Ġ2",
        "8"
      ],
      [
        "Ġinv",
        "ol"
      ],
      [
        "Ġ",
        "X"
      ],
      [
        "al",
        "ion"
      ],
      [
        "Ġl",
        "ost"
      ],
      [
        "Ġinf",
        "lu"
      ],
      [
        "Ġg",
        "iven"
      ],
      [
        "Ġw",
        "ant"
      ],
      [
        "ĠAs",
        "s"
      ],
      [
        "in",
        "c"
      ],
      [
        "ress",
        "ion"
      ],
      [
        "Ġcount",
        "ry"
      ],
      [
        "s",
        "h"
      ],
      [
        "Ġt",
        "ro"
      ],
      [
        "Ġf",
        "ire"
      ],
      [
        "Ġsign",
        "ific"
      ],
      [
        "Ġrep",
        "resent"
      ],
      [
        "Ġman",
        "ag"
      ],
      [
        "a",
        "pe"
      ],
      [
        "om",
        "en"
      ],
      [
        "iz",
        "e"
      ],
      [
        "Ġ201",
        "3"
      ],
      [
        "ĠS",
        "im"
      ],
      [
        "ch",
        "n"
      ],
      [
        "Ġs",
        "ite"
      ],
      [
        "om",
        "et"
      ],
      [
        "Ġse",
        "en"
      ],
      [
        "os",
        "p"
      ],
      [
        "Ġe",
        "ight"
      ],
      [
        "ĠD",
        "es"
      ],
      [
        "Ġprog",
        "ram"
      ],
      [
        "Ġm",
        "aking"
      ],
      [
        "ĠA",
        "m"
      ],
      [
        "ver",
        "s"
      ],
      [
        "Ġne",
        "ver"
      ],
      [
        "Ġf",
        "ar"
      ],
      [
        "ĠM",
        "iss"
      ],
      [
        "Ġst",
        "ated"
      ],
      [
        "Ġestab",
        "l"
      ],
      [
        "Ġp",
        "ress"
      ],
      [
        "Ġd",
        "et"
      ],
      [
        "ĠA",
        "fric"
      ],
      [
        "Ġcom",
        "b"
      ],
      [
        "ĠE",
        "d"
      ],
      [
        "ĠGener",
        "al"
      ],
      [
        "Ġb",
        "ody"
      ],
      [
        "Ġsh",
        "ould"
      ],
      [
        "Ġa",
        "ff"
      ],
      [
        "ĠC",
        "ent"
      ],
      [
        "ĠWh",
        "ile"
      ],
      [
        "Ġmat",
        "ch"
      ],
      [
        "it",
        "her"
      ],
      [
        "Ġf",
        "act"
      ],
      [
        "pl",
        "oy"
      ],
      [
        "Ġreturn",
        "ed"
      ],
      [
        "re",
        "et"
      ],
      [
        "is",
        "ing"
      ],
      [
        "Ġp",
        "at"
      ],
      [
        "ĠD",
        "av"
      ],
      [
        "ĠUn",
        "iversity"
      ],
      [
        "ren",
        "t"
      ],
      [
        "c",
        "raft"
      ],
      [
        "Ġf",
        "em"
      ],
      [
        "en",
        "c"
      ],
      [
        "Ġor",
        "d"
      ],
      [
        "Ġf",
        "t"
      ],
      [
        "Ġp",
        "ost"
      ],
      [
        "ĠP",
        "ol"
      ],
      [
        "our",
        "s"
      ],
      [
        "ĠThe",
        "se"
      ],
      [
        "Ġ19",
        "0"
      ],
      [
        "ĠAmeric",
        "a"
      ],
      [
        "ĠE",
        "ar"
      ],
      [
        "Ġship",
        "s"
      ],
      [
        "Ġestabl",
        "ished"
      ],
      [
        "Ġs",
        "ound"
      ],
      [
        "Ġh",
        "ow"
      ],
      [
        "Ġis",
        "land"
      ],
      [
        "se",
        "qu"
      ],
      [
        "Ġear",
        "l"
      ],
      [
        "ampions",
        "hip"
      ],
      [
        "Ġpop",
        "ulation"
      ],
      [
        "Ġann",
        "oun"
      ],
      [
        "Ġre",
        "ached"
      ],
      [
        "Ġe",
        "qu"
      ],
      [
        "ĠSt",
        "e"
      ],
      [
        "Ġstru",
        "ct"
      ],
      [
        "ĠJ",
        "ack"
      ],
      [
        "Ġch",
        "art"
      ],
      [
        "Ġ5",
        "0"
      ],
      [
        "Ġa",
        "way"
      ],
      [
        "re",
        "land"
      ],
      [
        "Ġs",
        "oc"
      ],
      [
        "ad",
        "es"
      ],
      [
        "ĠI",
        "reland"
      ],
      [
        "ab",
        "ly"
      ],
      [
        "Ġnot",
        "ed"
      ],
      [
        "ĠA",
        "ir"
      ],
      [
        "ig",
        "ade"
      ],
      [
        "ĠH",
        "a"
      ],
      [
        "Ġto",
        "o"
      ],
      [
        "pl",
        "ay"
      ],
      [
        "a",
        "ul"
      ],
      [
        "o",
        "pe"
      ],
      [
        "Ġf",
        "riend"
      ],
      [
        "Ġg",
        "od"
      ],
      [
        "Ġg",
        "round"
      ],
      [
        "Ġthrough",
        "out"
      ],
      [
        "Ġac",
        "ross"
      ],
      [
        "Ġdevelop",
        "ed"
      ],
      [
        "Ġthough",
        "t"
      ],
      [
        "Ġl",
        "ight"
      ],
      [
        "ĠE",
        "v"
      ],
      [
        "f",
        "ic"
      ],
      [
        "o",
        "x"
      ],
      [
        "Ġse",
        "ven"
      ],
      [
        "m",
        "e"
      ],
      [
        "Ġg",
        "en"
      ],
      [
        "Ġ2",
        "7"
      ],
      [
        "ĠL",
        "ond"
      ],
      [
        "Ġint",
        "rodu"
      ],
      [
        "ĠLond",
        "on"
      ],
      [
        "Ġd",
        "iv"
      ],
      [
        "Ġus",
        "ing"
      ],
      [
        "Ġhim",
        "self"
      ],
      [
        "g",
        "round"
      ],
      [
        "Ġdevelop",
        "ment"
      ],
      [
        "ĠN",
        "e"
      ],
      [
        "ĠWill",
        "iam"
      ],
      [
        "Ġg",
        "ood"
      ],
      [
        "Ġdest",
        "roy"
      ],
      [
        "Ġl",
        "a"
      ],
      [
        "ĠF",
        "eder"
      ],
      [
        "f",
        "ord"
      ],
      [
        "Ġh",
        "ig"
      ],
      [
        "Ġl",
        "im"
      ],
      [
        "ain",
        "t"
      ],
      [
        "um",
        "ent"
      ],
      [
        "m",
        "ost"
      ],
      [
        "Ġf",
        "elt"
      ],
      [
        "es",
        "e"
      ],
      [
        "ĠM",
        "ich"
      ],
      [
        "Ġsignific",
        "ant"
      ],
      [
        "us",
        "ed"
      ],
      [
        "ree",
        "k"
      ],
      [
        "ĠAustral",
        "ia"
      ],
      [
        "y",
        "n"
      ],
      [
        "id",
        "ence"
      ],
      [
        "ct",
        "or"
      ],
      [
        "olog",
        "ical"
      ],
      [
        "Ġperform",
        "ed"
      ],
      [
        "Ġimport",
        "ant"
      ],
      [
        "a",
        "u"
      ],
      [
        "Ġc",
        "ast"
      ],
      [
        "w",
        "ork"
      ],
      [
        "Ġp",
        "ra"
      ],
      [
        "am",
        "b"
      ],
      [
        "Ġwrit",
        "ing"
      ],
      [
        "ĠAt",
        "l"
      ],
      [
        "Ġmil",
        "es"
      ],
      [
        "Ġc",
        "ou"
      ],
      [
        "Ġf",
        "ather"
      ],
      [
        "ar",
        "r"
      ],
      [
        "ord",
        "s"
      ],
      [
        "Ġte",
        "levision"
      ],
      [
        "o",
        "on"
      ],
      [
        "Ġ",
        "ide"
      ],
      [
        "in",
        "t"
      ],
      [
        "re",
        "am"
      ],
      [
        "Ġinter",
        "est"
      ],
      [
        "ĠBl",
        "ack"
      ],
      [
        "Ġvar",
        "ious"
      ],
      [
        "at",
        "ic"
      ],
      [
        "iv",
        "il"
      ],
      [
        "Ġare",
        "as"
      ],
      [
        "Ġhum",
        "an"
      ],
      [
        "im",
        "ately"
      ],
      [
        "Ġto",
        "ur"
      ],
      [
        "Ġn",
        "ight"
      ],
      [
        "Ġbl",
        "ack"
      ],
      [
        "on",
        "es"
      ],
      [
        "Ġf",
        "ull"
      ],
      [
        "Ġd",
        "ied"
      ],
      [
        "Ġty",
        "p"
      ],
      [
        "Ġw",
        "ent"
      ],
      [
        "Ġl",
        "ook"
      ],
      [
        "ut",
        "es"
      ],
      [
        "Ġpro",
        "t"
      ],
      [
        "Ġw",
        "at"
      ],
      [
        "Ġwh",
        "ite"
      ],
      [
        "ĠR",
        "ich"
      ],
      [
        "Ġr",
        "ad"
      ],
      [
        "ĠCh",
        "ar"
      ],
      [
        "are",
        "n"
      ],
      [
        "Ġact",
        "iv"
      ],
      [
        "Ġdo",
        "es"
      ],
      [
        "Ġsuccess",
        "ful"
      ],
      [
        "a",
        "ign"
      ],
      [
        "ĠR",
        "ober"
      ],
      [
        "Ġev",
        "ents"
      ],
      [
        "Ġne",
        "ed"
      ],
      [
        "ĠRe",
        "g"
      ],
      [
        "Ġs",
        "k"
      ],
      [
        "Ġl",
        "aw"
      ],
      [
        "ie",
        "f"
      ],
      [
        "ĠRo",
        "ad"
      ],
      [
        "Ġplay",
        "ers"
      ],
      [
        "Ġstart",
        "ed"
      ],
      [
        "g",
        "es"
      ],
      [
        "ĠR",
        "oy"
      ],
      [
        "ĠJ",
        "ames"
      ],
      [
        "Ġmod",
        "ern"
      ],
      [
        "Ġt",
        "en"
      ],
      [
        "as",
        "k"
      ],
      [
        "Ġm",
        "m"
      ],
      [
        "Ġdisc",
        "over"
      ],
      [
        "Ġse",
        "e"
      ],
      [
        "Ġfe",
        "et"
      ],
      [
        "Ġform",
        "ed"
      ],
      [
        "Ġc",
        "or"
      ],
      [
        "it",
        "ive"
      ],
      [
        "Ġpo",
        "em"
      ],
      [
        "t",
        "ain"
      ],
      [
        "Ġr",
        "ange"
      ],
      [
        "ant",
        "ic"
      ],
      [
        "Ġcon",
        "v"
      ],
      [
        "Ġperform",
        "ance"
      ],
      [
        "ĠCount",
        "y"
      ],
      [
        "Ġm",
        "ix"
      ],
      [
        "Ġh",
        "ouse"
      ],
      [
        "Ġst",
        "yle"
      ],
      [
        "ric",
        "k"
      ],
      [
        "Ġrel",
        "ations"
      ],
      [
        "Ġbuild",
        "ing"
      ],
      [
        "Ġb",
        "all"
      ],
      [
        "Ġcaus",
        "ed"
      ],
      [
        "Ġc",
        "at"
      ],
      [
        "Ġfor",
        "ce"
      ],
      [
        "n",
        "a"
      ],
      [
        "Ġa",
        "ge"
      ],
      [
        "Ġre",
        "ad"
      ],
      [
        "Ġpr",
        "im"
      ],
      [
        "Ġp",
        "ut"
      ],
      [
        "al",
        "d"
      ],
      [
        "st",
        "er"
      ],
      [
        "r",
        "ation"
      ],
      [
        "ĠE",
        "l"
      ],
      [
        "Ġv",
        "ill"
      ],
      [
        "Ġtr",
        "av"
      ],
      [
        "Ġte",
        "chn"
      ],
      [
        "ĠY",
        "ou"
      ],
      [
        "Ġc",
        "y"
      ],
      [
        "al",
        "th"
      ],
      [
        "Ġcre",
        "ated"
      ],
      [
        "a",
        "f"
      ],
      [
        "a",
        "el"
      ],
      [
        "ic",
        "o"
      ],
      [
        "ĠP",
        "al"
      ],
      [
        "Ġ18",
        "9"
      ],
      [
        "Ġoffic",
        "ial"
      ],
      [
        "Ġnov",
        "el"
      ],
      [
        "c",
        "on"
      ],
      [
        "Ġ200",
        "4"
      ],
      [
        "Ġsu",
        "ff"
      ],
      [
        "Ġ200",
        "5"
      ],
      [
        "ubl",
        "ic"
      ],
      [
        "Ġent",
        "ire"
      ],
      [
        "is",
        "c"
      ],
      [
        "ĠT",
        "o"
      ],
      [
        "us",
        "h"
      ],
      [
        "Ġk",
        "e"
      ],
      [
        "og",
        "n"
      ],
      [
        "Ġab",
        "le"
      ],
      [
        "Ġpolit",
        "ical"
      ],
      [
        "e",
        "c"
      ],
      [
        "Ġf",
        "un"
      ],
      [
        "our",
        "n"
      ],
      [
        "Ġcharac",
        "ters"
      ],
      [
        "Ġs",
        "um"
      ],
      [
        "Ġg",
        "et"
      ],
      [
        "Ġother",
        "s"
      ],
      [
        "Ġrel",
        "ig"
      ],
      [
        "Ġco",
        "ast"
      ],
      [
        "ĠM",
        "ag"
      ],
      [
        "ĠH",
        "igh"
      ],
      [
        "Ġconstru",
        "ction"
      ],
      [
        "om",
        "b"
      ],
      [
        "Ġb",
        "ird"
      ],
      [
        "Ġbe",
        "gin"
      ],
      [
        "av",
        "es"
      ],
      [
        "ab",
        "or"
      ],
      [
        "in",
        "ess"
      ],
      [
        "ol",
        "l"
      ],
      [
        "Ġocc",
        "ur"
      ],
      [
        "r",
        "ing"
      ],
      [
        "Ġs",
        "on"
      ],
      [
        "Ġp",
        "it"
      ],
      [
        "Ġp",
        "ri"
      ],
      [
        "e",
        "pend"
      ],
      [
        "Ġc",
        "ert"
      ],
      [
        "ĠT",
        "own"
      ],
      [
        "ĠâĢ",
        "Ļ"
      ],
      [
        "d",
        "ay"
      ],
      [
        "y",
        "ing"
      ],
      [
        "Ġre",
        "d"
      ],
      [
        "ĠG",
        "l"
      ],
      [
        "ress",
        "ed"
      ],
      [
        "Ġon",
        "ce"
      ],
      [
        "amp",
        "le"
      ],
      [
        "Ġrem",
        "ained"
      ],
      [
        "ĠAn",
        "g"
      ],
      [
        "Ġloc",
        "ated"
      ],
      [
        "in",
        "ation"
      ],
      [
        "re",
        "st"
      ],
      [
        "it",
        "ing"
      ],
      [
        "as",
        "ing"
      ],
      [
        "ĠC",
        "are"
      ],
      [
        "Ġst",
        "e"
      ],
      [
        "ist",
        "ed"
      ],
      [
        "Ġbec",
        "om"
      ],
      [
        "Ġsur",
        "v"
      ],
      [
        "Ġprom",
        "ot"
      ],
      [
        "Ġbatt",
        "le"
      ],
      [
        "f",
        "all"
      ],
      [
        "Ġl",
        "ik"
      ],
      [
        "Ġn",
        "ational"
      ],
      [
        "ĠC",
        "or"
      ],
      [
        "Ġsc",
        "ored"
      ],
      [
        "Ġwork",
        "s"
      ],
      [
        "Ġdif",
        "fic"
      ],
      [
        "ĠKing",
        "dom"
      ],
      [
        "Ġdiffic",
        "ult"
      ],
      [
        "ĠH",
        "ist"
      ],
      [
        "ect",
        "ed"
      ],
      [
        "Ġprodu",
        "c"
      ],
      [
        "Ġme",
        "et"
      ],
      [
        "Ġcomple",
        "ted"
      ],
      [
        "ĠIs",
        "land"
      ],
      [
        "ĠAustral",
        "ian"
      ],
      [
        "Ġcamp",
        "aign"
      ],
      [
        "Ġtrad",
        "ition"
      ],
      [
        "Ġannoun",
        "ced"
      ],
      [
        "ĠS",
        "om"
      ],
      [
        "ĠC",
        "al"
      ],
      [
        "Ġr",
        "ank"
      ],
      [
        "ĠSe",
        "c"
      ],
      [
        "u",
        "ck"
      ],
      [
        "Ġst",
        "ars"
      ],
      [
        "Ġreg",
        "ion"
      ],
      [
        "at",
        "or"
      ],
      [
        "Ġf",
        "ig"
      ],
      [
        "Ġh",
        "old"
      ],
      [
        "Ġro",
        "ck"
      ],
      [
        "Ġgun",
        "s"
      ],
      [
        "ĠC",
        "up"
      ],
      [
        "ĠM",
        "or"
      ],
      [
        "ĠComp",
        "any"
      ],
      [
        "i",
        "ers"
      ],
      [
        "ri",
        "e"
      ],
      [
        "Ġpro",
        "cess"
      ],
      [
        "Ġlit",
        "tle"
      ],
      [
        "he",
        "m"
      ],
      [
        "Ġf",
        "av"
      ],
      [
        "Ġf",
        "ight"
      ],
      [
        "ĠRe",
        "c"
      ],
      [
        "Ġhigh",
        "way"
      ],
      [
        "Ġgo",
        "al"
      ],
      [
        "Ġinst",
        "ead"
      ],
      [
        "Ġhel",
        "p"
      ],
      [
        "Ġt",
        "re"
      ],
      [
        "iv",
        "id"
      ],
      [
        "ir",
        "c"
      ],
      [
        "Ġp",
        "red"
      ],
      [
        "ĠC",
        "ro"
      ],
      [
        "Ġv",
        "al"
      ],
      [
        "Ġgro",
        "w"
      ],
      [
        "Ġadd",
        "ed"
      ],
      [
        "it",
        "ted"
      ],
      [
        "am",
        "ent"
      ],
      [
        "Ġg",
        "l"
      ],
      [
        "rough",
        "t"
      ],
      [
        "Ġc",
        "ross"
      ],
      [
        "ĠO",
        "l"
      ],
      [
        "Ġle",
        "t"
      ],
      [
        "Ġle",
        "ast"
      ],
      [
        "Ġfollow",
        "ed"
      ],
      [
        "Ġf",
        "ac"
      ],
      [
        "Ġf",
        "ront"
      ],
      [
        "Ġre",
        "du"
      ],
      [
        "oun",
        "c"
      ],
      [
        "Ġ3",
        "1"
      ],
      [
        "Ġpe",
        "ak"
      ],
      [
        "Ġappe",
        "ared"
      ],
      [
        "Ġb",
        "orn"
      ],
      [
        "Ġre",
        "v"
      ],
      [
        "qu",
        "ad"
      ],
      [
        "ĠK",
        "e"
      ],
      [
        "Ġkn",
        "ow"
      ],
      [
        "Ġkill",
        "ed"
      ],
      [
        "le",
        "et"
      ],
      [
        "Ġorigin",
        "ally"
      ],
      [
        "Ġmonth",
        "s"
      ],
      [
        "Ġ",
        "er"
      ],
      [
        "re",
        "g"
      ],
      [
        "Ġw",
        "ife"
      ],
      [
        "Ġcom",
        "ment"
      ],
      [
        "ell",
        "ing"
      ],
      [
        "ĠAr",
        "my"
      ],
      [
        "Ġs",
        "outhern"
      ],
      [
        "or",
        "se"
      ],
      [
        "ĠDav",
        "id"
      ],
      [
        "o",
        "ice"
      ],
      [
        "Ġc",
        "as"
      ],
      [
        "Ġl",
        "oss"
      ],
      [
        "ĠB",
        "ill"
      ],
      [
        "ĠGr",
        "and"
      ],
      [
        "Ġf",
        "if"
      ],
      [
        "en",
        "ced"
      ],
      [
        "al",
        "ity"
      ],
      [
        "Ġh",
        "urricane"
      ],
      [
        "ent",
        "h"
      ],
      [
        "Ġn",
        "uc"
      ],
      [
        "ĠH",
        "am"
      ],
      [
        "ri",
        "es"
      ],
      [
        "Ġw",
        "omen"
      ],
      [
        "Ġass",
        "oci"
      ],
      [
        "Ġ",
        "ident"
      ],
      [
        "Ġe",
        "astern"
      ],
      [
        "Ġag",
        "re"
      ],
      [
        "ĠMus",
        "ic"
      ],
      [
        "b",
        "o"
      ],
      [
        "Ġ2",
        "9"
      ],
      [
        "ang",
        "u"
      ],
      [
        "Ġrelations",
        "hip"
      ],
      [
        "Ã",
        "¡"
      ],
      [
        "Ã",
        "Ń"
      ],
      [
        "Ġm",
        "ass"
      ],
      [
        "Ġ200",
        "3"
      ],
      [
        "Ġcrit",
        "ics"
      ],
      [
        "o",
        "ff"
      ],
      [
        "Ġm",
        "other"
      ],
      [
        "ĠS",
        "ome"
      ],
      [
        "Ġacc",
        "om"
      ],
      [
        "ĠFr",
        "ance"
      ],
      [
        "Ġevent",
        "ually"
      ],
      [
        "Ġa",
        "ward"
      ],
      [
        "ĠS",
        "up"
      ],
      [
        "ac",
        "y"
      ],
      [
        "Ġ4",
        "0"
      ],
      [
        "Ġ18",
        "5"
      ],
      [
        "Ġfeat",
        "ures"
      ],
      [
        "g",
        "r"
      ],
      [
        "Ġb",
        "us"
      ],
      [
        "le",
        "ct"
      ],
      [
        "id",
        "d"
      ],
      [
        "ĠO",
        "ther"
      ],
      [
        "Ġ201",
        "5"
      ],
      [
        "f",
        "ield"
      ],
      [
        "Ġl",
        "ive"
      ],
      [
        "Ġbro",
        "ad"
      ],
      [
        "c",
        "om"
      ],
      [
        "Ġa",
        "ud"
      ],
      [
        "Ġcon",
        "d"
      ],
      [
        "Ġan",
        "im"
      ],
      [
        "Ġy",
        "oung"
      ],
      [
        "r",
        "ay"
      ],
      [
        "Ġt",
        "aken"
      ],
      [
        "Ġc",
        "ell"
      ],
      [
        "Ġst",
        "ri"
      ],
      [
        "ap",
        "p"
      ],
      [
        "Ġro",
        "ute"
      ],
      [
        "Ġrec",
        "ogn"
      ],
      [
        "Ġapp",
        "oin"
      ],
      [
        "Ġfour",
        "th"
      ],
      [
        "ĠT",
        "wo"
      ],
      [
        "Ġser",
        "ved"
      ],
      [
        "he",
        "re"
      ],
      [
        "Ġb",
        "ar"
      ],
      [
        "ul",
        "ly"
      ],
      [
        "ĠE",
        "x"
      ],
      [
        "Ä",
        "ģ"
      ],
      [
        "ot",
        "a"
      ],
      [
        "em",
        "y"
      ],
      [
        "Ġest",
        "im"
      ],
      [
        "Ġdam",
        "age"
      ],
      [
        "Ġprof",
        "ess"
      ],
      [
        "Ġl",
        "ack"
      ],
      [
        "Ġhe",
        "avy"
      ],
      [
        "ant",
        "ry"
      ],
      [
        "arl",
        "iam"
      ],
      [
        "i",
        "que"
      ],
      [
        "in",
        "al"
      ],
      [
        "Ġs",
        "w"
      ],
      [
        "Ġb",
        "ase"
      ],
      [
        "Ġe",
        "ither"
      ],
      [
        "Ġse",
        "x"
      ],
      [
        "Ġdec",
        "ided"
      ],
      [
        "ĠBatt",
        "alion"
      ],
      [
        "Ġa",
        "ver"
      ],
      [
        "os",
        "aur"
      ],
      [
        "ĠL",
        "ove"
      ],
      [
        "Ġpro",
        "ble"
      ],
      [
        "Ġv",
        "oc"
      ],
      [
        "ĠS",
        "w"
      ],
      [
        "ol",
        "ution"
      ],
      [
        "Ġcon",
        "dom"
      ],
      [
        "Ġcom",
        "mer"
      ],
      [
        "Ġbeh",
        "ind"
      ],
      [
        "Ġto",
        "get"
      ],
      [
        "ap",
        "er"
      ],
      [
        "az",
        "ine"
      ],
      [
        "Ġbelie",
        "ved"
      ],
      [
        "Ġtoget",
        "her"
      ],
      [
        "Ġm",
        "or"
      ],
      [
        "Ġse",
        "par"
      ],
      [
        "ĠRober",
        "t"
      ],
      [
        "ch",
        "ie"
      ],
      [
        "Ġsu",
        "per"
      ],
      [
        "Ġar",
        "g"
      ],
      [
        "il",
        "le"
      ],
      [
        "ĠG",
        "od"
      ],
      [
        "ough",
        "t"
      ],
      [
        "Ġplay",
        "ing"
      ],
      [
        "ount",
        "ain"
      ],
      [
        "Ġind",
        "ivid"
      ],
      [
        "ĠCare",
        "y"
      ],
      [
        "arliam",
        "ent"
      ],
      [
        "Ġv",
        "e"
      ],
      [
        "Ġimp",
        "ro"
      ],
      [
        "ign",
        "ed"
      ],
      [
        "iz",
        "ation"
      ],
      [
        "l",
        "o"
      ],
      [
        "Ġc",
        "reat"
      ],
      [
        "Ġex",
        "ample"
      ],
      [
        "Ġspec",
        "ial"
      ],
      [
        "ĠRoy",
        "al"
      ],
      [
        "ounc",
        "il"
      ],
      [
        "ĠM",
        "on"
      ],
      [
        "Ġal",
        "most"
      ],
      [
        "Ġcl",
        "os"
      ],
      [
        "Ġcl",
        "ose"
      ],
      [
        "Ġ18",
        "8"
      ],
      [
        "Ġmov",
        "e"
      ],
      [
        "Ġac",
        "cept"
      ],
      [
        "em",
        "ents"
      ],
      [
        "Ġqu",
        "ar"
      ],
      [
        "Ġlead",
        "ing"
      ],
      [
        "hy",
        "s"
      ],
      [
        "ĠMe",
        "x"
      ],
      [
        "ĠEurope",
        "an"
      ],
      [
        "c",
        "ial"
      ],
      [
        "m",
        "ar"
      ],
      [
        "Ġb",
        "urn"
      ],
      [
        "Ġl",
        "angu"
      ],
      [
        "Ġas",
        "k"
      ],
      [
        "Ġgener",
        "ally"
      ],
      [
        "Ġserv",
        "ice"
      ],
      [
        "ĠFeder",
        "er"
      ],
      [
        "Ġto",
        "wards"
      ],
      [
        "Ġm",
        "ater"
      ],
      [
        "Ġro",
        "und"
      ],
      [
        "ach",
        "ing"
      ],
      [
        "Ġele",
        "ments"
      ],
      [
        "Ġopen",
        "ed"
      ],
      [
        "Ġf",
        "all"
      ],
      [
        "Ġh",
        "y"
      ],
      [
        "Ġar",
        "m"
      ],
      [
        "Ġs",
        "our"
      ],
      [
        "Ġb",
        "rought"
      ],
      [
        "Ġd",
        "ou"
      ],
      [
        "ĠS",
        "er"
      ],
      [
        "ur",
        "b"
      ],
      [
        "ĠB",
        "er"
      ],
      [
        "ĠBr",
        "igade"
      ],
      [
        "Ġweek",
        "s"
      ],
      [
        "Ġm",
        "iss"
      ],
      [
        "Ġn",
        "on"
      ],
      [
        "ĠIn",
        "ternational"
      ],
      [
        "Ġfin",
        "ished"
      ],
      [
        "ict",
        "ion"
      ],
      [
        "Ġc",
        "e"
      ],
      [
        "Ġc",
        "irc"
      ],
      [
        "ĠC",
        "r"
      ],
      [
        "ĠI",
        "r"
      ],
      [
        "ĠW",
        "ales"
      ],
      [
        "Ġr",
        "a"
      ],
      [
        "ill",
        "a"
      ],
      [
        "ric",
        "t"
      ],
      [
        "Ġla",
        "un"
      ],
      [
        "Ġs",
        "aw"
      ],
      [
        "ic",
        "ated"
      ],
      [
        "ce",
        "ed"
      ],
      [
        "Ġstud",
        "y"
      ],
      [
        "Ġfeat",
        "ured"
      ],
      [
        "Ġh",
        "ost"
      ],
      [
        "ĠV",
        "iet"
      ],
      [
        "Ġres",
        "pect"
      ],
      [
        "Ġair",
        "craft"
      ],
      [
        "i",
        "ation"
      ],
      [
        "Ġreg",
        "ular"
      ],
      [
        "ĠFl",
        "or"
      ],
      [
        "Ġd",
        "raw"
      ],
      [
        "id",
        "a"
      ],
      [
        "Ġen",
        "c"
      ],
      [
        "ir",
        "on"
      ],
      [
        "est",
        "s"
      ],
      [
        "Ġv",
        "ol"
      ],
      [
        "ĠWh",
        "ite"
      ],
      [
        "Ġgener",
        "al"
      ],
      [
        "Ġpoin",
        "ts"
      ],
      [
        "n",
        "ed"
      ],
      [
        "re",
        "ad"
      ],
      [
        "Ġre",
        "se"
      ],
      [
        "st",
        "on"
      ],
      [
        "ĠH",
        "en"
      ],
      [
        "et",
        "work"
      ],
      [
        "ĠP",
        "art"
      ],
      [
        "way",
        "s"
      ],
      [
        "Ġele",
        "ct"
      ],
      [
        "Ġdire",
        "cted"
      ],
      [
        "u",
        "ter"
      ],
      [
        "z",
        "e"
      ],
      [
        "oun",
        "ted"
      ],
      [
        "ĠCh",
        "ampionship"
      ],
      [
        "Ġcent",
        "ral"
      ],
      [
        "Ġprov",
        "ided"
      ],
      [
        "h",
        "ic"
      ],
      [
        "Ġa",
        "ction"
      ],
      [
        "ord",
        "an"
      ],
      [
        "Ġme",
        "as"
      ],
      [
        "v",
        "al"
      ],
      [
        "Ġf",
        "und"
      ],
      [
        "Ġin",
        "form"
      ],
      [
        "ĠA",
        "ct"
      ],
      [
        "ĠS",
        "y"
      ],
      [
        "ĠH",
        "ar"
      ],
      [
        "Ġ3",
        "5"
      ],
      [
        "Ġup",
        "on"
      ],
      [
        "ĠPl",
        "ay"
      ],
      [
        "Ġdirect",
        "or"
      ],
      [
        "ograp",
        "hy"
      ],
      [
        "i",
        "ol"
      ],
      [
        "Ġw",
        "all"
      ],
      [
        "ĠG",
        "ame"
      ],
      [
        "Ġme",
        "an"
      ],
      [
        "Ġappear",
        "ance"
      ],
      [
        "e",
        "um"
      ],
      [
        "Ġw",
        "id"
      ],
      [
        "ĠF",
        "ollow"
      ],
      [
        "ĠJ",
        "ordan"
      ],
      [
        "um",
        "b"
      ],
      [
        "ĠE",
        "ast"
      ],
      [
        "Ġ18",
        "6"
      ],
      [
        "Ġcol",
        "l"
      ],
      [
        "Ġearl",
        "ier"
      ],
      [
        "Ġm",
        "i"
      ],
      [
        "ĠF",
        "rom"
      ],
      [
        "od",
        "es"
      ],
      [
        "Ġy",
        "ard"
      ],
      [
        "ĠTh",
        "om"
      ],
      [
        "enc",
        "y"
      ],
      [
        "ĠP",
        "res"
      ],
      [
        "Ġse",
        "qu"
      ],
      [
        "Ġr",
        "ather"
      ],
      [
        "Ġk",
        "ing"
      ],
      [
        "Ġ201",
        "4"
      ],
      [
        "Ġfl",
        "ood"
      ],
      [
        "Ġfem",
        "ale"
      ],
      [
        "ĠAtl",
        "antic"
      ],
      [
        "b",
        "it"
      ],
      [
        "in",
        "o"
      ],
      [
        "ir",
        "l"
      ],
      [
        "Ġind",
        "ust"
      ],
      [
        "med",
        "i"
      ],
      [
        "Ġcur",
        "rent"
      ],
      [
        "Ġtro",
        "ops"
      ],
      [
        "Ġlar",
        "gest"
      ],
      [
        "Ġvict",
        "ory"
      ],
      [
        "ĠFollow",
        "ing"
      ],
      [
        "or",
        "ing"
      ],
      [
        "Ġre",
        "n"
      ],
      [
        "Ġre",
        "ve"
      ],
      [
        "ĠJ",
        "ew"
      ],
      [
        "Ġde",
        "v"
      ],
      [
        "Ġsub",
        "sequ"
      ],
      [
        "Ġem",
        "ploy"
      ],
      [
        "Ġoper",
        "ations"
      ],
      [
        "ĠChrist",
        "ian"
      ],
      [
        "Ġparticular",
        "ly"
      ],
      [
        "ĠGeor",
        "ge"
      ],
      [
        "Ġmanag",
        "er"
      ],
      [
        "m",
        "ing"
      ],
      [
        "Ġa",
        "chie"
      ],
      [
        "Ġc",
        "ost"
      ],
      [
        "ĠM",
        "ad"
      ],
      [
        "ĠH",
        "ouse"
      ],
      [
        "ĠD",
        "ay"
      ],
      [
        "ĠHer",
        "o"
      ],
      [
        "c",
        "her"
      ],
      [
        "o",
        "id"
      ],
      [
        "ĠM",
        "ary"
      ],
      [
        "ud",
        "e"
      ],
      [
        "ĠRe",
        "p"
      ],
      [
        "Ġopen",
        "ing"
      ],
      [
        "Ġwant",
        "ed"
      ],
      [
        "st",
        "it"
      ],
      [
        "Ġbe",
        "g"
      ],
      [
        "ĠD",
        "u"
      ],
      [
        "Ġcon",
        "du"
      ],
      [
        "m",
        "b"
      ],
      [
        "el",
        "er"
      ],
      [
        "ĠR",
        "ed"
      ],
      [
        "ort",
        "s"
      ],
      [
        "Ġy",
        "ards"
      ],
      [
        "Ġev",
        "idence"
      ],
      [
        "i",
        "ber"
      ],
      [
        "Ġc",
        "ut"
      ],
      [
        "Ġre",
        "ason"
      ],
      [
        "ou",
        "ri"
      ],
      [
        "Ġr",
        "iver"
      ],
      [
        "Ġpro",
        "b"
      ],
      [
        "Ġex",
        "c"
      ],
      [
        "oun",
        "ter"
      ],
      [
        "ĠComm",
        "and"
      ],
      [
        "Ġnort",
        "hern"
      ],
      [
        "ĠFlor",
        "ida"
      ],
      [
        "Ġm",
        "ember"
      ],
      [
        "Ġst",
        "age"
      ],
      [
        "Ġins",
        "p"
      ],
      [
        "c",
        "ast"
      ],
      [
        "Ġl",
        "eng"
      ],
      [
        "ĠR",
        "ock"
      ],
      [
        "ĠSt",
        "reet"
      ],
      [
        "Ġ5",
        "00"
      ],
      [
        "Ġout",
        "side"
      ],
      [
        "Ġcre",
        "w"
      ],
      [
        "Ġallow",
        "ed"
      ],
      [
        "Ġposs",
        "ible"
      ],
      [
        "Ġeng",
        "ine"
      ],
      [
        "o",
        "o"
      ],
      [
        "Ġf",
        "oc"
      ],
      [
        "Ġb",
        "i"
      ],
      [
        "Ġst",
        "ren"
      ],
      [
        "act",
        "ion"
      ],
      [
        "Ġsay",
        "ing"
      ],
      [
        "s",
        "el"
      ],
      [
        "Ġ",
        "ill"
      ],
      [
        "ĠM",
        "ed"
      ],
      [
        "ell",
        "ow"
      ],
      [
        "ĠOl",
        "iv"
      ],
      [
        "c",
        "ript"
      ],
      [
        "er",
        "ous"
      ],
      [
        "at",
        "ural"
      ],
      [
        "an",
        "ia"
      ],
      [
        "Ġh",
        "it"
      ],
      [
        "Ġh",
        "ours"
      ],
      [
        "Ġwh",
        "om"
      ],
      [
        "w",
        "est"
      ],
      [
        "Ġc",
        "ase"
      ],
      [
        "an",
        "ch"
      ],
      [
        "ent",
        "ial"
      ],
      [
        "Ġn",
        "omin"
      ],
      [
        "con",
        "om"
      ],
      [
        "at",
        "ors"
      ],
      [
        "Ġfor",
        "t"
      ],
      [
        "Ġde",
        "ter"
      ],
      [
        "Ġex",
        "ist"
      ],
      [
        "Ġ200",
        "1"
      ],
      [
        "Ġwork",
        "ed"
      ],
      [
        "Ġreg",
        "ard"
      ],
      [
        "ĠMiss",
        "ouri"
      ],
      [
        "al",
        "t"
      ],
      [
        "ĠM",
        "ost"
      ],
      [
        "ĠO",
        "d"
      ],
      [
        "Ġpr",
        "act"
      ],
      [
        "Ġstren",
        "g"
      ],
      [
        "e",
        "al"
      ],
      [
        "at",
        "in"
      ],
      [
        "Ġm",
        "ot"
      ],
      [
        "am",
        "a"
      ],
      [
        "ĠB",
        "ra"
      ],
      [
        "Ġwork",
        "ing"
      ],
      [
        "Ġter",
        "rit"
      ],
      [
        "Ġresp",
        "ons"
      ],
      [
        "Ġleng",
        "th"
      ],
      [
        "c",
        "ent"
      ],
      [
        "nd",
        "er"
      ],
      [
        "ĠM",
        "y"
      ],
      [
        "Ġnew",
        "s"
      ],
      [
        "Ġre",
        "b"
      ],
      [
        "os",
        "ition"
      ],
      [
        "ĠG",
        "al"
      ],
      [
        "art",
        "ment"
      ],
      [
        "Ġdef",
        "end"
      ],
      [
        "bo",
        "ard"
      ],
      [
        "Ġmater",
        "ial"
      ],
      [
        "at",
        "a"
      ],
      [
        "Ġb",
        "ur"
      ],
      [
        "Ġm",
        "ach"
      ],
      [
        "Ġg",
        "old"
      ],
      [
        "Ġpo",
        "or"
      ],
      [
        "Ġdesign",
        "ed"
      ],
      [
        "Ġf",
        "ree"
      ],
      [
        "Ġl",
        "ove"
      ],
      [
        "ĠB",
        "ay"
      ],
      [
        "ĠP",
        "aul"
      ],
      [
        "Ġse",
        "em"
      ],
      [
        "um",
        "p"
      ],
      [
        "Ġr",
        "ul"
      ],
      [
        "Ġne",
        "g"
      ],
      [
        "ĠTe",
        "ch"
      ],
      [
        "th",
        "od"
      ],
      [
        "Ġst",
        "ay"
      ],
      [
        "ĠW",
        "al"
      ],
      [
        "and",
        "ing"
      ],
      [
        "Ġpra",
        "ised"
      ],
      [
        "u",
        "el"
      ],
      [
        "ĠC",
        "o"
      ],
      [
        "ĠM",
        "ark"
      ],
      [
        "Ġfor",
        "ced"
      ],
      [
        "ĠF",
        "irst"
      ],
      [
        "ight",
        "s"
      ],
      [
        "ish",
        "ing"
      ],
      [
        "Ġrem",
        "ains"
      ],
      [
        "ĠInd",
        "ian"
      ],
      [
        "Ġav",
        "ail"
      ],
      [
        "Ġfoot",
        "ball"
      ],
      [
        "o",
        "res"
      ],
      [
        "ĠB",
        "est"
      ],
      [
        "Ġ18",
        "7"
      ],
      [
        "Ġ197",
        "0"
      ],
      [
        "ĠPh",
        "il"
      ],
      [
        "Ġb",
        "ill"
      ],
      [
        "an",
        "a"
      ],
      [
        "Ġth",
        "ink"
      ],
      [
        "Ġst",
        "ation"
      ],
      [
        "Ġwind",
        "s"
      ],
      [
        "ĠMich",
        "ael"
      ],
      [
        "l",
        "ess"
      ],
      [
        "Ġt",
        "reat"
      ],
      [
        "Ġc",
        "op"
      ],
      [
        "ĠW",
        "il"
      ],
      [
        "Ġqu",
        "ick"
      ],
      [
        "Ġgo",
        "als"
      ],
      [
        "Ġincre",
        "ased"
      ],
      [
        "Ġcontr",
        "act"
      ],
      [
        "he",
        "ast"
      ],
      [
        "en",
        "ed"
      ],
      [
        "Ġp",
        "ast"
      ],
      [
        "Ġd",
        "i"
      ],
      [
        "ap",
        "s"
      ],
      [
        "Ġprevious",
        "ly"
      ],
      [
        "ĠÂ",
        "£"
      ],
      [
        "i",
        "us"
      ],
      [
        "v",
        "est"
      ],
      [
        "ic",
        "a"
      ],
      [
        "Ġg",
        "re"
      ],
      [
        "ag",
        "o"
      ],
      [
        "ĠE",
        "gy"
      ],
      [
        "Ġab",
        "ove"
      ],
      [
        "Ġrepl",
        "aced"
      ],
      [
        "ĠEgy",
        "pt"
      ],
      [
        "g",
        "g"
      ],
      [
        "u",
        "le"
      ],
      [
        "x",
        "as"
      ],
      [
        "ĠC",
        "ap"
      ],
      [
        "ĠB",
        "ut"
      ],
      [
        "ver",
        "t"
      ],
      [
        "Ġso",
        "on"
      ],
      [
        "Ġinv",
        "est"
      ],
      [
        "ĠRich",
        "ard"
      ],
      [
        "Ġc",
        "ivil"
      ],
      [
        "Ġl",
        "y"
      ],
      [
        "ĠB",
        "us"
      ],
      [
        "Ġv",
        "iol"
      ],
      [
        "ĠDes",
        "pite"
      ],
      [
        "Ġbus",
        "iness"
      ],
      [
        "Ġh",
        "on"
      ],
      [
        "Ġinter",
        "view"
      ],
      [
        "Ġm",
        "er"
      ],
      [
        "Ġth",
        "reat"
      ],
      [
        "ess",
        "ion"
      ],
      [
        "Ġ200",
        "0"
      ],
      [
        "rib",
        "uted"
      ],
      [
        "Ġwrit",
        "er"
      ],
      [
        "ĠÂ",
        "°"
      ],
      [
        "Ġcommer",
        "cial"
      ],
      [
        "ĠHen",
        "ry"
      ],
      [
        "er",
        "ved"
      ],
      [
        "as",
        "ion"
      ],
      [
        "Ġm",
        "ph"
      ],
      [
        "ir",
        "th"
      ],
      [
        "ĠH",
        "ill"
      ],
      [
        "Ġun",
        "its"
      ],
      [
        "hen",
        "s"
      ],
      [
        "ĠCanad",
        "a"
      ],
      [
        "Ġestim",
        "ated"
      ],
      [
        "Ġc",
        "lear"
      ],
      [
        "ar",
        "a"
      ],
      [
        "ĠS",
        "an"
      ],
      [
        "Ġ199",
        "0"
      ],
      [
        "Ġacc",
        "ount"
      ],
      [
        "ann",
        "ed"
      ],
      [
        "ĠQ",
        "ue"
      ],
      [
        "Ġes",
        "c"
      ],
      [
        "Ġquar",
        "ter"
      ],
      [
        "Ġs",
        "omet"
      ],
      [
        "Ġp",
        "ain"
      ],
      [
        "ĠK",
        "h"
      ],
      [
        "Ġclaim",
        "ed"
      ],
      [
        "Ġjoin",
        "ed"
      ],
      [
        "ĠJapan",
        "ese"
      ],
      [
        "Ġhig",
        "hest"
      ],
      [
        "u",
        "ation"
      ],
      [
        "Ġt",
        "rib"
      ],
      [
        "ut",
        "ive"
      ],
      [
        "Ġpl",
        "aced"
      ],
      [
        "Ġspec",
        "ific"
      ],
      [
        "Ġsur",
        "f"
      ],
      [
        "ĠBro",
        "wn"
      ],
      [
        "ĠOld",
        "ham"
      ],
      [
        "Ġinvol",
        "ved"
      ],
      [
        "w",
        "h"
      ],
      [
        "y",
        "e"
      ],
      [
        "Ġ",
        "z"
      ],
      [
        "Ġm",
        "ust"
      ],
      [
        "ĠT",
        "imes"
      ],
      [
        "Ġl",
        "o"
      ],
      [
        "Ġsign",
        "ed"
      ],
      [
        "Ġdisc",
        "uss"
      ],
      [
        "Ġsuggest",
        "ed"
      ],
      [
        "ĠPres",
        "ident"
      ],
      [
        "ĠT",
        "or"
      ],
      [
        "ĠV",
        "ir"
      ],
      [
        "Ġpart",
        "s"
      ],
      [
        "ĠDe",
        "p"
      ],
      [
        "Ġcour",
        "t"
      ],
      [
        "Ġw",
        "estern"
      ],
      [
        "om",
        "s"
      ],
      [
        "et",
        "t"
      ],
      [
        "Ġint",
        "ens"
      ],
      [
        "Ġ18",
        "3"
      ],
      [
        "ĠOliv",
        "ier"
      ],
      [
        "B",
        "C"
      ],
      [
        "it",
        "er"
      ],
      [
        "Ġpro",
        "per"
      ],
      [
        "Ġle",
        "ague"
      ],
      [
        "cl",
        "us"
      ],
      [
        "Ġits",
        "elf"
      ],
      [
        "Ġpr",
        "iv"
      ],
      [
        "ĠCar",
        "ol"
      ],
      [
        "ĠViet",
        "n"
      ],
      [
        "l",
        "ic"
      ],
      [
        "Ġp",
        "ers"
      ],
      [
        "ĠD",
        "r"
      ],
      [
        "ĠW",
        "he"
      ],
      [
        "ĠL",
        "ater"
      ],
      [
        "ist",
        "ic"
      ],
      [
        "wo",
        "od"
      ],
      [
        "Ġob",
        "ject"
      ],
      [
        "ĠInd",
        "ia"
      ],
      [
        "Ġaver",
        "age"
      ],
      [
        "ĠMex",
        "ico"
      ],
      [
        "t",
        "t"
      ],
      [
        "Ġt",
        "aking"
      ],
      [
        "th",
        "let"
      ],
      [
        "Ġch",
        "ange"
      ],
      [
        "Ġsh",
        "ot"
      ],
      [
        "ĠAr",
        "ab"
      ],
      [
        "Ġavail",
        "able"
      ],
      [
        "ing",
        "ton"
      ],
      [
        "ĠS",
        "chool"
      ],
      [
        "ol",
        "ic"
      ],
[...]
