{
  "version": "1.0",
  "truncation": null,
  "padding": null,
  "added_tokens": [
    {
      "id": 0,
      "content": "<PAD>",
      "single_word": false,
      "lstrip": false,
      "rstrip": false,
      "normalized": false,
      "special": true
    },
    {
      "id": 1,
      "content": "<UNK>",
      "single_word": false,
      "lstrip": false,
      "rstrip": false,
      "normalized": false,
      "special": true
    },
    {
      "id": 2,
      "content": "<BOS>",
      "single_word": false,
      "lstrip": false,
      "rstrip": false,
      "normalized": false,
      "special": true
    },
    {
      "id": 3,
      "content": "<EOS>",
      "single_word": false,
      "lstrip": false,
      "rstrip": false,
      "normalized": false,
      "special": true
    },
    {
      "id": 4,
      "content": "<|im_start|>",
      "single_word": false,
      "lstrip": false,
      "rstrip": false,
      "normalized": false,
      "special": true
    },
    {
      "id": 5,
      "content": "<|im_end|>",
      "single_word": false,
      "lstrip": false,
      "rstrip": false,
      "normalized": false,
      "special": true
    }
  ],
  "normalizer": null,
  "pre_tokenizer": {
    "type": "ByteLevel",
    "add_prefix_space": false,
    "trim_offsets": true,
    "use_regex": true
  },
  "post_processor": {
    "type": "TemplateProcessing",
    "single": [
      {
        "SpecialToken": {
          "id": "<BOS>",
          "type_id": 0
        }
      },
      {
        "Sequence": {
          "id": "A",
          "type_id": 0
        }
      },
      {
        "SpecialToken": {
          "id": "<EOS>",
          "type_id": 0
        }
      }
    ],
    "pair": [
      {
        "SpecialToken": {
          "id": "<BOS>",
          "type_id": 0
        }
      },
      {
        "Sequence": {
          "id": "A",
          "type_id": 0
        }
      },
      {
        "SpecialToken": {
          "id": "<EOS>",
          "type_id": 0
        }
      },
      {
        "SpecialToken": {
          "id": "<BOS>",
          "type_id": 0
        }
      },
      {
        "Sequence": {
          "id": "B",
          "type_id": 0
        }
      },
      {
        "SpecialToken": {
          "id": "<EOS>",
          "type_id": 0
        }
      }
    ],
    "special_tokens": {
      "<BOS>": {
        "id": "<BOS>",
        "ids": [
          2
        ],
        "tokens": [
          "<BOS>"
        ]
      },
      "<EOS>": {
        "id": "<EOS>",
        "ids": [
          3
        ],
        "tokens": [
          "<EOS>"
        ]
      }
    }
  },
  "decoder": {
    "type": "ByteLevel",
    "add_prefix_space": true,
    "trim_offsets": true,
    "use_regex": true
  },
  "model": {
    "type": "BPE",
    "dropout": null,
    "unk_token": "<UNK>",
    "continuing_subword_prefix": null,
    "end_of_word_suffix": null,
    "fuse_unk": false,
    "byte_fallback": false,
    "ignore_merges": false,
    "vocab": {
      "<PAD>": 0,
      "<UNK>": 1,
      "<BOS>": 2,
      "<EOS>": 3,
      "<|im_start|>": 4,
      "<|im_end|>": 5,
      "!": 6,
      "\"": 7,
      "#": 8,
      "$": 9,
      "%": 10,
      "&": 11,
      "'": 12,
      "(": 13,
      ")": 14,
      "*": 15,
      "+": 16,
      ",": 17,
      "-": 18,
      ".": 19,
      "/": 20,
      "0": 21,
      "1": 22,
      "2": 23,
      "3": 24,
      "4": 25,
      "5": 26,
      "6": 27,
      "7": 28,
      "8": 29,
      "9": 30,
      ":": 31,
      ";": 32,
      "<": 33,
      "=": 34,
      ">": 35,
      "?": 36,
      "@": 37,
      "A": 38,
      "B": 39,
      "C": 40,
      "D": 41,
      "E": 42,
      "F": 43,
      "G": 44,
      "H": 45,
      "I": 46,
      "J": 47,
      "K": 48,
      "L": 49,
      "M": 50,
      "N": 51,
      "O": 52,
      "P": 53,
      "Q": 54,
      "R": 55,
      "S": 56,
      "T": 57,
      "U": 58,
      "V": 59,
      "W": 60,
      "X": 61,
      "Y": 62,
      "Z": 63,
      "[": 64,
      "\\": 65,
      "]": 66,
      "^": 67,
      "`": 68,
      "a": 69,
      "b": 70,
      "c": 71,
      "d": 72,
      "e": 73,
      "f": 74,
      "g": 75,
      "h": 76,
      "i": 77,
      "j": 78,
      "k": 79,
      "l": 80,
      "m": 81,
      "n": 82,
      "o": 83,
      "p": 84,
      "q": 85,
      "r": 86,
      "s": 87,
      "t": 88,
      "u": 89,
      "v": 90,
      "w": 91,
      "x": 92,
      "y": 93,
      "z": 94,
      "|": 95,
      "~": 96,
      "¡": 97,
      "¢": 98,
      "£": 99,
      "¤": 100,
      "¥": 101,
      "¦": 102,
      "§": 103,
      "¨": 104,
      "©": 105,
      "ª": 106,
      "«": 107,
      "¬": 108,
      "®": 109,
      "¯": 110,
      "°": 111,
      "±": 112,
      "²": 113,
      "³": 114,
      "´": 115,
      "µ": 116,
      "¶": 117,
      "·": 118,
      "¸": 119,
      "¹": 120,
      "º": 121,
      "»": 122,
      "¼": 123,
      "½": 124,
      "¾": 125,
      "¿": 126,
      "Â": 127,
      "Ã": 128,
      "Ä": 129,
      "Å": 130,
      "Æ": 131,
      "Ê": 132,
      "Ì": 133,
      "Î": 134,
      "Ð": 135,
      "Ñ": 136,
      "Ø": 137,
      "Ù": 138,
      "à": 139,
      "á": 140,
      "â": 141,
      "ã": 142,
      "å": 143,
      "æ": 144,
      "ç": 145,
      "é": 146,
      "ï": 147,
      "Ċ": 148,
      "Ġ": 149,
      "Ģ": 150,
      "ģ": 151,
      "Ĥ": 152,
      "ĥ": 153,
      "Ħ": 154,
      "ħ": 155,
      "Ĩ": 156,
      "ĩ": 157,
      "Ī": 158,
      "ī": 159,
      "Ĭ": 160,
      "ĭ": 161,
      "Į": 162,
      "į": 163,
      "İ": 164,
      "ı": 165,
      "Ĳ": 166,
      "ĳ": 167,
      "Ĵ": 168,
      "ĵ": 169,
      "Ķ": 170,
      "ķ": 171,
      "ĸ": 172,
      "Ĺ": 173,
      "ĺ": 174,
      "Ļ": 175,
      "ļ": 176,
      "Ľ": 177,
      "ľ": 178,
      "Ŀ": 179,
      "ŀ": 180,
      "Ł": 181,
      "ł": 182,
      "Ń": 183,
      "Ġt": 184,
      "he": 185,
      "Ġa": 186,
      "in": 187,
      "Ġthe": 188,
      "er": 189,
      "on": 190,
      "Ġ,": 191,
      "re": 192,
      "Ġs": 193,
      "Ġo": 194,
      "Ġw": 195,
      "ed": 196,
      "un": 197,
      "Ġ.": 198,
      "at": 199,
      "nd": 200,
      "or": 201,
      "Ġc": 202,
      "it": 203,
      "Ġf": 204,
      "en": 205,
      "is": 206,
      "Ġof": 207,
      "es": 208,
      "Ġb": 209,
      "Ġin": 210,
      "ar": 211,
      "unk": 212,
      "an": 213,
      "Ġ<": 214,
      "al": 215,
      "Ġand": 216,
      "Ġp": 217,
      "ing": 218,
      "as": 219,
      "Ġto": 220,
      "Ġm": 221,
      "ro": 222,
      "ic": 223,
      "Ġd": 224,
      "Ġh": 225,
      "ion": 226,
      "le": 227,
      "ĠT": 228,
      "Ġ=": 229,
      "Ġre": 230,
      "Ġ\"": 231,
      "Ġth": 232,
      "ent": 233,
      "ou": 234,
      "ĠA": 235,
      "Ġ1": 236,
      "il": 237,
      "ĠS": 238,
      "st": 239,
      "Ġl": 240,
      "ĠĊ": 241,
      "om": 242,
      "Ġe": 243,
      "Ġn": 244,
      "Ġ@": 245,
      "am": 246,
      "ĠC": 247,
      "el": 248,
      "ad": 249,
      "Ġwas": 250,
      "ac": 251,
      "ĠThe": 252,
      "Ġon": 253,
      "Ġbe": 254,
      "ur": 255,
      "ly": 256,
      "ĠM": 257,
      "Ġ'": 258,
      "ĠI": 259,
      "Ġg": 260,
      "Ġfor": 261,
      "iv": 262,
      "ol": 263,
      "ter": 264,
      "ĠB": 265,
      "-@": 266,
      "Ġ@-@": 267,
      "im": 268,
      "id": 269,
      "ir": 270,
      "Ġas": 271,
      "ct": 272,
      "ig": 273,
      "th": 274,
      "ow": 275,
      "ith": 276,
      "Ġst": 277,
      "ĠH": 278,
      "us": 279,
      "Ġ2": 280,
      "ay": 281,
      "Ġthat": 282,
      "Ġwith": 283,
      "her": 284,
      "ot": 285,
      "ce": 286,
      "ver": 287,
      "ut": 288,
      "ation": 289,
      "et": 290,
      "Ġis": 291,
      "ĠP": 292,
      "Ġwh": 293,
      "ch": 294,
      "Ġby": 295,
      "ĠR": 296,
      "Ġ)": 297,
      "Ġ(": 298,
      "Ġal": 299,
      "ĠF": 300,
      "ĠD": 301,
      "Ġcon": 302,
      "em": 303,
      "ul": 304,
      "ĠW": 305,
      "Ġat": 306,
      "Ġit": 307,
      "Ġ19": 308,
      "and": 309,
      "ain": 310,
      "rom": 311,
      "os": 312,
      "ĠN": 313,
      "Ġan": 314,
      "ĠG": 315,
      "ĠL": 316,
      "ers": 317,
      "Ġhe": 318,
      "est": 319,
      "ag": 320,
      "av": 321,
      "00": 322,
      "ĠJ": 323,
      "Ġse": 324,
      "um": 325,
      "Ġde": 326,
      "Ġhis": 327,
      "Ġr": 328,
      "Ġfrom": 329,
      "od": 330,
      "ĠO": 331,
      "ri": 332,
      "Ġcom": 333,
      "ĠE": 334,
      "pe": 335,
      "und": 336,
      "ist": 337,
      "Ġpro": 338,
      "if": 339,
      "ld": 340,
      "ies": 341,
      "ere": 342,
      "ort": 343,
      "Ġv": 344,
      "res": 345,
      "Ġsu": 346,
      "ore": 347,
      "Ġwere": 348,
      "ill": 349,
      "ĠIn": 350,
      "ap": 351,
      "ong": 352,
      "ew": 353,
      "op": 354,
      "igh": 355,
      "ich": 356,
      "Ġor": 357,
      "ate": 358,
      "art": 359,
      "all": 360,
      "ard": 361,
      "ak": 362,
      "Ġch": 363,
      "ber": 364,
      "ame": 365,
      "Ġex": 366,
      "gh": 367,
      "ab": 368,
      "ud": 369,
      "Ġpl": 370,
      "se": 371,
      "ated": 372,
      "ant": 373,
      "ity": 374,
      "Ġare": 375,
      "Ġâ": 376,
      "oc": 377,
      "ive": 378,
      "ess": 379,
      "qu": 380,
      "Ġsh": 381,
      "ĠâĢ": 382,
      "Ġhad": 383,
      "Ġk": 384,
      "ack": 385,
      "Ġwhich": 386,
      "up": 387,
      "ĠU": 388,
      "red": 389,
      "Ġy": 390,
      "ĠK": 391,
      "Ġle": 392,
      "ov": 393,
      "our": 394,
      "Ġnot": 395,
      "ment": 396,
      "ast": 397,
      "ip": 398,
      "ĠSt": 399,
      "rit": 400,
      "ord": 401,
      "ear": 402,
      "pt": 403,
      "Ġtr": 404,
      "ge": 405,
      "ally": 406,
      "ian": 407,
      "ther": 408,
      "ost": 409,
      "ine": 410,
      "ave": 411,
      "ight": 412,
      "oun": 413,
      "ell": 414,
      "Ġ3": 415,
      "ish": 416,
      "cl": 417,
      "ary": 418,
      "ĠCh": 419,
      "Ġ200": 420,
      "ust": 421,
      "irst": 422,
      "ia": 423,
      "Ġ;": 424,
      "pp": 425,
      "te": 426,
      "Ġcomp": 427,
      "Ġtheir": 428,
      "Ġbut": 429,
      "cc": 430,
      "so": 431,
      "ction": 432,
      "fter": 433,
      "Ġfirst": 434,
      "ous": 435,
      "ure": 436,
      "Ġits": 437,
      "ould": 438,
      "ra": 439,
      "ĠâĢĵ": 440,
      "ide": 441,
      "Ġwhe": 442,
      "Ġcont": 443,
      "Ġar": 444,
      "ue": 445,
      "ical": 446,
      "ome": 447,
      "Ġun": 448,
      "wo": 449,
      "og": 450,
      "hed": 451,
      "Ġ20": 452,
      "Ġ:": 453,
      "ial": 454,
      "ub": 455,
      "ie": 456,
      "Ġher": 457,
      "Ġalso": 458,
      "ition": 459,
      "Ġro": 460,
      "Ġint": 461,
      "ĠV": 462,
      "own": 463,
      "Ġcl": 464,
      "ater": 465,
      "out": 466,
      "ign": 467,
      "Ġus": 468,
      "orm": 469,
      "ork": 470,
      "Ġab": 471,
      "Ġad": 472,
      "ok": 473,
      "ff": 474,
      "per": 475,
      "Ġhave": 476,
      "age": 477,
      "ru": 478,
      "ire": 479,
      "ĠHe": 480,
      "Ġone": 481,
      "ass": 482,
      "Ġhas": 483,
      "Ġrec": 484,
      "low": 485,
      "mer": 486,
      "ime": 487,
      "Ġbeen": 488,
      "Ġtwo": 489,
      "Ġ4": 490,
      "du": 491,
      "Ġres": 492,
      "ĠTh": 493,
      "Ġ18": 494,
      ".@": 495,
      "Ġ@.@": 496,
      "Ġper": 497,
      "ond": 498,
      "Ġ5": 499,
      "ree": 500,
      "Ġbo": 501,
      "Ġwho": 502,
      "ence": 503,
      "uring": 504,
      "ough": 505,
      "land": 506,
      "ted": 507,
      "Ġthis": 508,
      "are": 509,
      "Ġbec": 510,
      "ile": 511,
      "ry": 512,
      "pl": 513,
      "ory": 514,
      "ance": 515,
      "ugh": 516,
      "ect": 517,
      "ĠIt": 518,
      "ans": 519,
      "Ġsc": 520,
      "Ġplay": 521,
      "ĠAl": 522,
      "Ġthey": 523,
      "clud": 524,
      "Ġyear": 525,
      "Ġ201": 526,
      "Ġpart": 527,
      "Ġag": 528,
      "ade": 529,
      "Ġdes": 530,
      "ations": 531,
      "Ġman": 532,
      "ric": 533,
      "Ġother": 534,
      "Ġdis": 535,
      "ult": 536,
      "Ġte": 537,
      "ely": 538,
      "Ġafter": 539,
      "ach": 540,
      "Ġj": 541,
      "Ġser": 542,
      "Ġover": 543,
      "over": 544,
      "Ġoff": 545,
      "Ġup": 546,
      ",@": 547,
      "Ġ@,@": 548,
      "ang": 549,
      "Ġinclud": 550,
      "Ġsp": 551,
      "ions": 552,
      "Ġen": 553,
      "ite": 554,
      "urn": 555,
      "act": 556,
      "ound": 557,
      "ount": 558,
      "Ġim": 559,
      "ace": 560,
      "ice": 561,
      "iz": 562,
      "ib": 563,
      "wn": 564,
      "Ġout": 565,
      "ke": 566,
      "ress": 567,
      "ĠY": 568,
      "ark": 569,
      "Ġtime": 570,
      "Ġne": 571,
      "Ġinto": 572,
      "Ġfin": 573,
      "Ġpre": 574,
      "Ġev": 575,
      "ced": 576,
      "port": 577,
      "we": 578,
      "ĠOn": 579,
      "Ġspe": 580,
      "ces": 581,
      "Ġwould": 582,
      "Ġmore": 583,
      "Ġshe": 584,
      "Ġcomm": 585,
      "ason": 586,
      "Ġatt": 587,
      "ward": 588,
      "rough": 589,
      "Ġall": 590,
      "ren": 591,
      "ose": 592,
      "one": 593,
      "ail": 594,
      "ited": 595,
      "Ġhim": 596,
      "amp": 597,
      "Ġwe": 598,
      "tern": 599,
      "ied": 600,
      "ens": 601,
      "oin": 602,
      "ased": 603,
      "Ġ6": 604,
      "ĠUn": 605,
      "Ġcent": 606,
      "rib": 607,
      "ĠRe": 608,
      "Ġwork": 609,
      "ents": 610,
      "ild": 611,
      "ĠSe": 612,
      "ix": 613,
      "Ġme": 614,
      "ood": 615,
      "ase": 616,
      "les": 617,
      "ings": 618,
      "ts": 619,
      "man": 620,
      "round": 621,
      "Ġ7": 622,
      "Ġfe": 623,
      "Ġthem": 624,
      "able": 625,
      "ious": 626,
      "Ġwhen": 627,
      "Ġbet": 628,
      "Ġsong": 629,
      "ake": 630,
      "ors": 631,
      "Ġsec": 632,
      "ates": 633,
      "als": 634,
      "vel": 635,
      "ubl": 636,
      "Ġear": 637,
      "Ġrem": 638,
      "ĠAn": 639,
      "old": 640,
      "iss": 641,
      "ered": 642,
      "Ġkn": 643,
      "form": 644,
      "Ġmost": 645,
      "Ġduring": 646,
      "gan": 647,
      "ath": 648,
      "aus": 649,
      "Ġonly": 650,
      "fer": 651,
      "under": 652,
      "ilm": 653,
      "Ġnew": 654,
      "Ġgame": 655,
      "oy": 656,
      "ved": 657,
      "ember": 658,
      "ve": 659,
      "orth": 660,
      "ollow": 661,
      "ween": 662,
      "Ġ199": 663,
      "reat": 664,
      "ĠAs": 665,
      "way": 666,
      "outh": 667,
      "ĠAr": 668,
      "Ġ9": 669,
      "Ġ8": 670,
      "Ġrel": 671,
      "Ġcan": 672,
      "Ġabout": 673,
      "ters": 674,
      "Ġagain": 675,
      "Ġseason": 676,
      "Ġthree": 677,
      "Ġcons": 678,
      "Ġthan": 679,
      "ĠEn": 680,
      "ick": 681,
      "ug": 682,
      "ĠMar": 683,
      "Ġbetween": 684,
      "att": 685,
      "aw": 686,
      "ral": 687,
      "Ġrecord": 688,
      "Ġsome": 689,
      "ational": 690,
      "Ġunder": 691,
      "ons": 692,
      "Ġchar": 693,
      "cted": 694,
      "ular": 695,
      "fore": 696,
      "Ġthrough": 697,
      "ind": 698,
      "ict": 699,
      "Ġlater": 700,
      "hip": 701,
      "iew": 702,
      "Ġcol": 703,
      "Ġnum": 704,
      "Ġ00": 705,
      "ĠCom": 706,
      "ft": 707,
      "ision": 708,
      "Ġwrit": 709,
      "Ġwhile": 710,
      "ĠDe": 711,
      "Ġprodu": 712,
      "Ġpos": 713,
      "Ġfilm": 714,
      "Ġrele": 715,
      "Ġver": 716,
      "ames": 717,
      "Ġend": 718,
      "Ġinter": 719,
      "ished": 720,
      "Ġap": 721,
      "ey": 722,
      "Ġpe": 723,
      "Ġmade": 724,
      "Ġpr": 725,
      "Ġform": 726,
      "ning": 727,
      "Ġfl": 728,
      "Ġreg": 729,
      "Ġass": 730,
      "orld": 731,
      "Ġwhere": 732,
      "Ġso": 733,
      "Ġspec": 734,
      "ĠNew": 735,
      "Ġmov": 736,
      "ever": 737,
      "meric": 738,
      "ĠAmeric": 739,
      "ury": 740,
      "Ġlar": 741,
      "bum": 742,
      "Ġac": 743,
      "Ġapp": 744,
      "Ġret": 745,
      "ron": 746,
      "Ġfollow": 747,
      "ener": 748,
      "Ġno": 749,
      "Ġbu": 750,
      "Ġsuch": 751,
      "Ġdef": 752,
      "Ġsecond": 753,
      "ived": 754,
      "Ġfour": 755,
      "ock": 756,
      "aid": 757,
      "Ġmus": 758,
      "Ġqu": 759,
      "Ġacc": 760,
      "Ġused": 761,
      "Ġsub": 762,
      "olog": 763,
      "Ġinc": 764,
      "Ġact": 765,
      "ike": 766,
      "ĠAt": 767,
      "rop": 768,
      "Ġday": 769,
      "ĠThis": 770,
      "ars": 771,
      "ĠLe": 772,
      "Ġpubl": 773,
      "ific": 774,
      "Ġam": 775,
      "ual": 776,
      "Ġcall": 777,
      "Ġalbum": 778,
      "Ġind": 779,
      "hes": 780,
      "Ġ000": 781,
      "Ġbefore": 782,
      "Ġdo": 783,
      "Ġappe": 784,
      "ob": 785,
      "ily": 786,
      "oh": 787,
      "Ġbeing": 788,
      "ank": 789,
      "Ġgr": 790,
      "Ġco": 791,
      "any": 792,
      "Ġyears": 793,
      "ĠEng": 794,
      "Ġthere": 795,
      "Ġsupp": 796,
      "Ġgro": 797,
      "end": 798,
      "ck": 799,
      "owever": 800,
      "ating": 801,
      "ane": 802,
      "Ġfound": 803,
      "Ġ0": 804,
      "Ġele": 805,
      "Ġhigh": 806,
      "Ġset": 807,
      "iel": 808,
      "Ġep": 809,
      "ife": 810,
      "ics": 811,
      "orn": 812,
      "hen": 813,
      "Ġsy": 814,
      "ird": 815,
      "Ġent": 816,
      "other": 817,
      "iver": 818,
      "Ġsur": 819,
      "ained": 820,
      "Ġ10": 821,
      "Ġseries": 822,
      "igin": 823,
      "Ġnumber": 824,
      "pen": 825,
      "ten": 826,
      "ll": 827,
      "ince": 828,
      "Ġloc": 829,
      "ause": 830,
      "Ġdec": 831,
      "Ġpres": 832,
      "ph": 833,
      "velop": 834,
      "Ġboth": 835,
      "ode": 836,
      "Ġsever": 837,
      "ities": 838,
      "cept": 839,
      "Ġ12": 840,
      "Ġthen": 841,
      "Ġincluding": 842,
      "ines": 843,
      "Ġepis": 844,
      "son": 845,
      "ĠBrit": 846,
      "Ġ/": 847,
      "Ġagainst": 848,
      "Ġwell": 849,
      "Ġbecame": 850,
      "Ġknown": 851,
      "ject": 852,
      "ĠâĢĶ": 853,
      "ros": 854,
      "ised": 855,
      "Ġpo": 856,
      "ton": 857,
      "Ġcharac": 858,
      "Ġadd": 859,
      "Ġperform": 860,
      "Ġdesc": 861,
      "Ġsing": 862,
      "Ġbl": 863,
      "Ġgo": 864,
      "Ġcap": 865,
      "Ġ198": 866,
      "Ġdire": 867,
      "urch": 868,
      "ĠJoh": 869,
      "aj": 870,
      "Ġ16": 871,
      "ale": 872,
      "Ġback": 873,
      "Ġmany": 874,
      "ĠSh": 875,
      "Ġpop": 876,
      "pr": 877,
      "Ġmain": 878,
      "ident": 879,
      "though": 880,
      "ĠUnited": 881,
      "Ġinv": 882,
      "Ġstud": 883,
      "its": 884,
      "Ġlong": 885,
      "ise": 886,
      "ather": 887,
      "ures": 888,
      "Ġtrans": 889,
      "Ġorigin": 890,
      "io": 891,
      "ĠJohn": 892,
      "ĠBr": 893,
      "iet": 894,
      "ert": 895,
      "ement": 896,
      "Ġcentury": 897,
      "Ġmon": 898,
      "Ġteam": 899,
      "ober": 900,
      "ĠAfter": 901,
      "ool": 902,
      "ĠSc": 903,
      "Ġest": 904,
      "Ġdevelop": 905,
      "Ġshow": 906,
      "ann": 907,
      "Ġmin": 908,
      "ield": 909,
      "ek": 910,
      "ower": 911,
      "Ġem": 912,
      "ier": 913,
      "elf": 914,
      "Ġ194": 915,
      "air": 916,
      "ute": 917,
      "Ġcre": 918,
      "Ġseveral": 919,
      "ĠShe": 920,
      "Ġlead": 921,
      "uch": 922,
      "Ġ17": 923,
      "ared": 924,
      "Ġbegan": 925,
      "Ġ196": 926,
      "ful": 927,
      "ivers": 928,
      "ern": 929,
      "Ġ11": 930,
      "Ġ15": 931,
      "Ġmill": 932,
      "Ġdif": 933,
      "Ġcontin": 934,
      "Ġ197": 935,
      "overn": 936,
      "Ġsign": 937,
      "ually": 938,
      "ram": 939,
      "view": 940,
      "Ġsm": 941,
      "ired": 942,
      "ative": 943,
      "Ġmay": 944,
      "Ġship": 945,
      "Ġcomple": 946,
      "Ġbr": 947,
      "Ġcould": 948,
      "Ġearly": 949,
      "Ġcrit": 950,
      "Ġdid": 951,
      "Ġcalled": 952,
      "ains": 953,
      "Ġart": 954,
      "Ġepisode": 955,
      "til": 956,
      "Ġnear": 957,
      "Ġob": 958,
      "ĠInd": 959,
      "Ġhist": 960,
      "Ġpol": 961,
      "Ġdescrib": 962,
      "led": 963,
      "Ġbel": 964,
      "emb": 965,
      "ued": 966,
      "Ġrece": 967,
      "ople": 968,
      "iam": 969,
      "une": 970,
      "Ġalong": 971,
      "Ġrun": 972,
      "ins": 973,
      "Ġter": 974,
      "imes": 975,
      "ments": 976,
      "Ġdep": 977,
      "Ġbro": 978,
      "ccess": 979,
      "Ġsaid": 980,
      "ley": 981,
      "ĠWh": 982,
      "Ġfeat": 983,
      "ĠAmerican": 984,
      "Ġdown": 985,
      "ven": 986,
      "ĠIs": 987,
      "Ġinst": 988,
      "Ġthese": 989,
      "aking": 990,
      "ĠMay": 991,
      "der": 992,
      "Ġmil": 993,
      "Ġdist": 994,
      "ĠAust": 995,
      "Ġthough": 996,
      "gest": 997,
      "ĠGer": 998,
      "ross": 999,
      "Ġdisc": 1000,
      "yl": 1001,
      "ĠBritish": 1002,
      "Ġoper": 1003,
      "Ġuntil": 1004,
      "ĠZ": 1005,
      "ove": 1006,
      "ting": 1007,
      "oot": 1008,
      "Ġstart": 1009,
      "anc": 1010,
      "Ġcity": 1011,
      "Ġsame": 1012,
      "rap": 1013,
      "Ġinf": 1014,
      "ured": 1015,
      "Ġprev": 1016,
      "Ġreleased": 1017,
      "els": 1018,
      "Ġgener": 1019,
      "ty": 1020,
      "ange": 1021,
      "Ġexp": 1022,
      "Ġown": 1023,
      "ized": 1024,
      "Ġany": 1025,
      "Ġreturn": 1026,
      "tend": 1027,
      "amed": 1028,
      "ĠThey": 1029,
      "ially": 1030,
      "ĠWar": 1031,
      "Ġkm": 1032,
      "ided": 1033,
      "Ġland": 1034,
      "Ġdesign": 1035,
      "Ġwar": 1036,
      "Ġrep": 1037,
      "Ġmusic": 1038,
      "Ġprov": 1039,
      "Ġimp": 1040,
      "Ġmillion": 1041,
      "Ġbecause": 1042,
      "Ġarea": 1043,
      "Ġuse": 1044,
      "ajor": 1045,
      "ĠCon": 1046,
      "Ġcar": 1047,
      "Ġfam": 1048,
      "Ġair": 1049,
      "az": 1050,
      "ĠAug": 1051,
      "ĠAugust": 1052,
      "oman": 1053,
      "Ġlike": 1054,
      "Ġopen": 1055,
      "Ġsuccess": 1056,
      "Ġmat": 1057,
      "osed": 1058,
      "Ġsim": 1059,
      "ĠFr": 1060,
      "ĠChr": 1061,
      "Ġocc": 1062,
      "erson": 1063,
      "ink": 1064,
      "ep": 1065,
      "enn": 1066,
      "Ġconst": 1067,
      "ook": 1068,
      "Ġpeople": 1069,
      "ull": 1070,
      "Ġeff": 1071,
      "hy": 1072,
      "ium": 1073,
      "Ġins": 1074,
      "Ġpass": 1075,
      "chool": 1076,
      "Ġoffic": 1077,
      "stem": 1078,
      "ible": 1079,
      "xt": 1080,
      "Ġsix": 1081,
      "Ġcount": 1082,
      "Ġ195": 1083,
      "Ġsupport": 1084,
      "ĠBl": 1085,
      "ĠBe": 1086,
      "Ġaround": 1087,
      "my": 1088,
      "ĠHowever": 1089,
      "Ġsmall": 1090,
      "ah": 1091,
      "Ġwin": 1092,
      "Ġ%": 1093,
      "ĠSept": 1094,
      "uc": 1095,
      "Ġnorth": 1096,
      "Ġadv": 1097,
      "Ġdam": 1098,
      "Ġgroup": 1099,
      "Ġstr": 1100,
      "ĠCar": 1101,
      "Ġpoin": 1102,
      "Ġeach": 1103,
      "ĠSeptember": 1104,
      "ues": 1105,
      "ony": 1106,
      "Ġconsid": 1107,
      "Ġmet": 1108,
      "ouse": 1109,
      "Ġfollowing": 1110,
      "ĠPl": 1111,
      "Ġcharacter": 1112,
      "ĠJu": 1113,
      "erv": 1114,
      "ists": 1115,
      "wards": 1116,
      "ĠWorld": 1117,
      "Ġlife": 1118,
      "ms": 1119,
      "Ġed": 1120,
      "ĠAustral": 1121,
      "Ġhead": 1122,
      "Ġ13": 1123,
      "aining": 1124,
      "Ġfive": 1125,
      "Ġmod": 1126,
      "Ġcontro": 1127,
      "Ġgovern": 1128,
      "Ġattack": 1129,
      "ole": 1130,
      "Ġ193": 1131,
      "ording": 1132,
      "ĠComm": 1133,
      "ient": 1134,
      "ales": 1135,
      "Ġvar": 1136,
      "oss": 1137,
      "uth": 1138,
      "ĠAll": 1139,
      "Ġwill": 1140,
      "ĠTe": 1141,
      "Ġlarge": 1142,
      "Ġever": 1143,
      "ution": 1144,
      "ets": 1145,
      "Ġ191": 1146,
      "ĠII": 1147,
      "ĠHer": 1148,
      "Ġgu": 1149,
      "ĠCol": 1150,
      "Ġann": 1151,
      "Ġreport": 1152,
      "row": 1153,
      "Ġconc": 1154,
      "ague": 1155,
      "ural": 1156,
      "ĠUS": 1157,
      "ĠMe": 1158,
      "ĠCl": 1159,
      "rote": 1160,
      "lish": 1161,
      "ĠJune": 1162,
      "Ġbook": 1163,
      "ĠNorth": 1164,
      "aving": 1165,
      "aced": 1166,
      "ĠEu": 1167,
      "ash": 1168,
      "ĠFor": 1169,
      "Ġtit": 1170,
      "ĠGerman": 1171,
      "dom": 1172,
      "Ġsince": 1173,
      "ĠStates": 1174,
      "ik": 1175,
      "Ġprom": 1176,
      "Ġsouth": 1177,
      "Ġreceived": 1178,
      "Ġmajor": 1179,
      "Ġfinal": 1180,
      "ilt": 1181,
      "med": 1182,
      "ped": 1183,
      "Ġname": 1184,
      "ately": 1185,
      "ivision": 1186,
      "ĠJan": 1187,
      "ĠAd": 1188,
      "pect": 1189,
      "ĠOct": 1190,
      "Ġpartic": 1191,
      "Ġsystem": 1192,
      "ĠSouth": 1193,
      "Ġpublic": 1194,
      "Ġcare": 1195,
      "Ġstate": 1196,
      "Ġdr": 1197,
      "ĠChrist": 1198,
      "Ġwhat": 1199,
      "ĠKing": 1200,
      "ives": 1201,
      "Ġdirect": 1202,
      "uary": 1203,
      "Ġlast": 1204,
      "Ġhel": 1205,
      "Ġdescribed": 1206,
      "tle": 1207,
      "hel": 1208,
      "Ġext": 1209,
      "ĠOctober": 1210,
      "ored": 1211,
      "Ġ14": 1212,
      "Ġline": 1213,
      "Ġ$": 1214,
      "Ġappear": 1215,
      "Ġrest": 1216,
      "ĠCan": 1217,
      "Ġbatt": 1218,
      "Ġweek": 1219,
      "Ġplayed": 1220,
      "cess": 1221,
      "Ġclass": 1222,
      "Ġbuild": 1223,
      "Ġincre": 1224,
      "Ġtook": 1225,
      "ropical": 1226,
      "Ġnow": 1227,
      "ĠFe": 1228,
      "ĠNov": 1229,
      "arl": 1230,
      "Ġ[": 1231,
      "Ġ]": 1232,
      "ĠYork": 1233,
      "gin": 1234,
      "Ġworld": 1235,
      "aged": 1236,
      "ĠJuly": 1237,
      "Ġwrote": 1238,
      "Ġlate": 1239,
      "ages": 1240,
      "..": 1241,
      "ĠTr": 1242,
      "iving": 1243,
      "empt": 1244,
      "Ã©": 1245,
      "ional": 1246,
      "ble": 1247,
      "Ġwon": 1248,
      "Ġspecies": 1249,
      "ology": 1250,
      "ideo": 1251,
      "Ġstru": 1252,
      "aim": 1253,
      "Ġchild": 1254,
      "Ġ...": 1255,
      "Ġmuch": 1256,
      "Ġ25": 1257,
      "ĠDuring": 1258,
      "Ġdue": 1259,
      "ody": 1260,
      "ified": 1261,
      "Ġserv": 1262,
      "ĠApr": 1263,
      "Ġsingle": 1264,
      "ĠApril": 1265,
      "Ġcamp": 1266,
      "Ġallow": 1267,
      "ats": 1268,
      "iod": 1269,
      "min": 1270,
      "ĠGu": 1271,
      "Ġshort": 1272,
      "Ġport": 1273,
      "Ġdeath": 1274,
      "Ġvers": 1275,
      "Ġjust": 1276,
      "ball": 1277,
      "Ġty": 1278,
      "Ġmar": 1279,
      "Ġanother": 1280,
      "Ġincluded": 1281,
      "ĠEuro": 1282,
      "Ġposs": 1283,
      "ĠJanuary": 1284,
      "Ġold": 1285,
      "ility": 1286,
      "ively": 1287,
      "Ġstorm": 1288,
      "get": 1289,
      "Ġeven": 1290,
      "Ġdiffer": 1291,
      "Ġgun": 1292,
      "Ġwithin": 1293,
      "ĠEngland": 1294,
      "Ġlist": 1295,
      "ission": 1296,
      "Ġleft": 1297,
      "Ġresult": 1298,
      "ism": 1299,
      "omin": 1300,
      "Ġposition": 1301,
      "Ġnamed": 1302,
      "Ġbased": 1303,
      "Ġestab": 1304,
      "Ġif": 1305,
      "Ġconf": 1306,
      "ants": 1307,
      "Ġarr": 1308,
      "Ġalthough": 1309,
      "Ġvis": 1310,
      "Ġprog": 1311,
      "Ġattempt": 1312,
      "ax": 1313,
      "ont": 1314,
      "Ġ30": 1315,
      "Ġvery": 1316,
      "Ġappro": 1317,
      "ina": 1318,
      "Ġthird": 1319,
      "Ġgames": 1320,
      "by": 1321,
      "ital": 1322,
      "Ġtop": 1323,
      "Ġref": 1324,
      "ĠAnd": 1325,
      "akes": 1326,
      "Ġbelie": 1327,
      "Ġtrack": 1328,
      "ctions": 1329,
      "ĠMarch": 1330,
      "ner": 1331,
      "ple": 1332,
      "Ġlit": 1333,
      "ĠGr": 1334,
      "Ġprevious": 1335,
      "Ġfamily": 1336,
      "ĠMus": 1337,
      "ĠPro": 1338,
      "ĠNovember": 1339,
      "Ġpower": 1340,
      "Ġtri": 1341,
      "Ġreview": 1342,
      "Ġperiod": 1343,
      "Ġevent": 1344,
      "ĠQ": 1345,
      "Ġbest": 1346,
      "Ġhome": 1347,
      "ĠGe": 1348,
      "mber": 1349,
      "Ġway": 1350,
      "ilar": 1351,
      "urric": 1352,
      "Ġschool": 1353,
      "Ġresp": 1354,
      "ĠRo": 1355,
      "ĠEurope": 1356,
      "Ġwater": 1357,
      "ĠHis": 1358,
      "Ġgovernment": 1359,
      "ances": 1360,
      "ograp": 1361,
      "ently": 1362,
      "cember": 1363,
      "Ġexpl": 1364,
      "ĠDecember": 1365,
      "Ġ192": 1366,
      "Ġmen": 1367,
      "ret": 1368,
      "Ġthose": 1369,
      "avy": 1370,
      "raft": 1371,
      "ĠThere": 1372,
      "ĠBy": 1373,
      "ger": 1374,
      "Ġturn": 1375,
      "Ġconstru": 1376,
      "ience": 1377,
      "Ġhum": 1378,
      "Ġplace": 1379,
      "ĠCity": 1380,
      "ulation": 1381,
      "Ġorgan": 1382,
      "Ġsl": 1383,
      "Ġbuilt": 1384,
      "ature": 1385,
      "Ġbre": 1386,
      "pend": 1387,
      "ards": 1388,
      "urther": 1389,
      "Ġgreat": 1390,
      "ians": 1391,
      "ides": 1392,
      "Ġstory": 1393,
      "Ġprote": 1394,
      "Ġcommand": 1395,
      "ached": 1396,
      "Ġkill": 1397,
      "Ġmonth": 1398,
      "ĠWhen": 1399,
      "Ġcolle": 1400,
      "ched": 1401,
      "hest": 1402,
      "Ġsent": 1403,
      "Ġperson": 1404,
      "Ġoriginal": 1405,
      "ript": 1406,
      "iversity": 1407,
      "itary": 1408,
      "Ġmake": 1409,
      "Ġhand": 1410,
      "Ġopp": 1411,
      "eder": 1412,
      "Ġ100": 1413,
      "Ġ2009": 1414,
      "Ġ2010": 1415,
      "Ġmed": 1416,
      "Ġvideo": 1417,
      "ĠNational": 1418,
      "ĠÂ": 1419,
      "Ġ2008": 1420,
      "Ġauth": 1421,
      "Ġrequ": 1422,
      "Ġhal": 1423,
      "ention": 1424,
      "Ġpresent": 1425,
      "oci": 1426,
      "aur": 1427,
      "por": 1428,
      "Ġmark": 1429,
      "Ġph": 1430,
      "Ġsug": 1431,
      "ham": 1432,
      "Ġclub": 1433,
      "Ġeng": 1434,
      "ences": 1435,
      "riend": 1436,
      "iven": 1437,
      "aster": 1438,
      "elt": 1439,
      "ene": 1440,
      "Ġview": 1441,
      "ĠMc": 1442,
      "ically": 1443,
      "self": 1444,
      "ĠRiver": 1445,
      "Ġmoved": 1446,
      "Ġled": 1447,
      "Ġrole": 1448,
      "Ġaddition": 1449,
      "Ġcapt": 1450,
      "Ġstand": 1451,
      "Ġstill": 1452,
      "Ġcame": 1453,
      "Ġleg": 1454,
      "Ġlocal": 1455,
      "Ġiss": 1456,
      "Ġrepl": 1457,
      "rench": 1458,
      "gy": 1459,
      "ense": 1460,
      "ĠPr": 1461,
      "aff": 1462,
      "Ġoften": 1463,
      "Ġhistory": 1464,
      "urricane": 1465,
      "Ġcommon": 1466,
      "Ġcaus": 1467,
      "Ġdest": 1468,
      "ival": 1469,
      "ĠWe": 1470,
      "Ġcour": 1471,
      "ae": 1472,
      "ison": 1473,
      "ĠMan": 1474,
      "Ġdem": 1475,
      "aken": 1476,
      "Ġeffect": 1477,
      "ery": 1478,
      "Ġfew": 1479,
      "be": 1480,
      "ĠBo": 1481,
      "ady": 1482,
      "ĠNo": 1483,
      "ops": 1484,
      "Ġ2007": 1485,
      "Ġnext": 1486,
      "Ġconsidered": 1487,
      "ĠFl": 1488,
      "Ġtrad": 1489,
      "ories": 1490,
      "eng": 1491,
      "Ġplayer": 1492,
      "Ġsuggest": 1493,
      "ling": 1494,
      "lev": 1495,
      "Ġstar": 1496,
      "astern": 1497,
      "ĠSp": 1498,
      "ĠFrench": 1499,
      "Ġexper": 1500,
      "side": 1501,
      "Ġmy": 1502,
      "Ġsimilar": 1503,
      "Ġcareer": 1504,
      "ĠOne": 1505,
      "Ġrecorded": 1506,
      "ĠEnglish": 1507,
      "Ġside": 1508,
      "uss": 1509,
      "Ġright": 1510,
      "ĠPe": 1511,
      "ined": 1512,
      "Ġcr": 1513,
      "Ġinit": 1514,
      "let": 1515,
      "Ġimport": 1516,
      "Ġreal": 1517,
      "ĠOr": 1518,
      "Ġclaim": 1519,
      "que": 1520,
      "ĠBatt": 1521,
      "Ġcompany": 1522,
      "ai": 1523,
      "Ġcover": 1524,
      "Ġpublished": 1525,
      "ĠBro": 1526,
      "Ġdeb": 1527,
      "Ġcontinued": 1528,
      "Ġcontr": 1529,
      "rew": 1530,
      "arn": 1531,
      "idge": 1532,
      "Ġrefer": 1533,
      "Ġyou": 1534,
      "Ġtake": 1535,
      "Ġbas": 1536,
      "Ġwithout": 1537,
      "Ġsold": 1538,
      "Ġmid": 1539,
      "ĠPh": 1540,
      "ternational": 1541,
      "Ġsongs": 1542,
      "Ġdifferent": 1543,
      "Ġsay": 1544,
      "Ġtown": 1545,
      "Ġformer": 1546,
      "ĠWith": 1547,
      "Ġant": 1548,
      "ior": 1549,
      "Ġwind": 1550,
      "Ġheld": 1551,
      "ĠComp": 1552,
      "atter": 1553,
      "ister": 1554,
      "uted": 1555,
      "ĠAcc": 1556,
      "Ġamong": 1557,
      "ness": 1558,
      "Ġmemb": 1559,
      "Ġlevel": 1560,
      "lu": 1561,
      "Ġtot": 1562,
      "Ġarch": 1563,
      "Ġroad": 1564,
      "Ġtem": 1565,
      "Ġpolit": 1566,
      "Ġfield": 1567,
      "ged": 1568,
      "Ġwritten": 1569,
      "arch": 1570,
      "thing": 1571,
      "ĠState": 1572,
      "bs": 1573,
      "Ġplan": 1574,
      "Ġevery": 1575,
      "ps": 1576,
      "Ġes": 1577,
      "ĠPort": 1578,
      "Ġhalf": 1579,
      "alk": 1580,
      "Ġ21": 1581,
      "ĠDivision": 1582,
      "ampions": 1583,
      "Ġtw": 1584,
      "Ġ2011": 1585,
      "Ġrelease": 1586,
      "resent": 1587,
      "ves": 1588,
      "estern": 1589,
      "iment": 1590,
      "ĠWill": 1591,
      "ead": 1592,
      "Ġbecome": 1593,
      "Ġav": 1594,
      "Ġfurther": 1595,
      "Ġmag": 1596,
      "Ġ2006": 1597,
      "Ġcommun": 1598,
      "tended": 1599,
      "ĠAccording": 1600,
      "ĠAlthough": 1601,
      "ensive": 1602,
      "Ġwest": 1603,
      "Ġhowever": 1604,
      "Ġchurch": 1605,
      "Ġ23": 1606,
      "Ġdays": 1607,
      "Ġstrong": 1608,
      "ĠCanad": 1609,
      "yle": 1610,
      "itar": 1611,
      "Ġeast": 1612,
      "Ġfind": 1613,
      "Ġversion": 1614,
      "roy": 1615,
      "lear": 1616,
      "Ġjoin": 1617,
      "ung": 1618,
      "br": 1619,
      "bru": 1620,
      "Ġ&": 1621,
      "ott": 1622,
      "ried": 1623,
      "ĠChurch": 1624,
      "Ġcompet": 1625,
      "Ġtitle": 1626,
      "ĠCount": 1627,
      "Ġparticular": 1628,
      "ne": 1629,
      "pite": 1630,
      "mp": 1631,
      "Ġlow": 1632,
      "Ġmilitary": 1633,
      "Ġpar": 1634,
      "Ġdel": 1635,
      "par": 1636,
      "Ġbeh": 1637,
      "rodu": 1638,
      "ĠRoman": 1639,
      "Ġorder": 1640,
      "ĠLeague": 1641,
      "Ġauthor": 1642,
      "Ġprop": 1643,
      "ĠMin": 1644,
      "Ġdefe": 1645,
      "Ġcontrol": 1646,
      "Ġfoot": 1647,
      "aly": 1648,
      "outher": 1649,
      "ĠSong": 1650,
      "ĠFebru": 1651,
      "outhern": 1652,
      "ĠFebruary": 1653,
      "ĠPer": 1654,
      "ĠGener": 1655,
      "Ġtimes": 1656,
      "fric": 1657,
      "Ġgave": 1658,
      "Ġ22": 1659,
      "Ġless": 1660,
      "Ġ!": 1661,
      "Ġsit": 1662,
      "Ġ26": 1663,
      "Ġreported": 1664,
      "Ġmembers": 1665,
      "Ġfr": 1666,
      "Ġband": 1667,
      "ĠDyl": 1668,
      "Ġvict": 1669,
      "raw": 1670,
      "ĠDylan": 1671,
      "Ġ24": 1672,
      "ots": 1673,
      "Ġchang": 1674,
      "ĠGeor": 1675,
      "Ġfore": 1676,
      "ĠAb": 1677,
      "Ġnort": 1678,
      "Ġproduced": 1679,
      "ches": 1680,
      "Ġ2012": 1681,
      "levision": 1682,
      "Ġprof": 1683,
      "Ġel": 1684,
      "Ġtotal": 1685,
      "augh": 1686,
      "ices": 1687,
      "ĠPark": 1688,
      "ĠOld": 1689,
      "ailed": 1690,
      "ering": 1691,
      "urs": 1692,
      "Ġstat": 1693,
      "ĠWest": 1694,
      "line": 1695,
      "aces": 1696,
      "Ġproduction": 1697,
      "Ġpopular": 1698,
      "iety": 1699,
      "Ġfre": 1700,
      "Ġdecl": 1701,
      "ception": 1702,
      "Ġtropical": 1703,
      "ĠBar": 1704,
      "Ġnov": 1705,
      "ront": 1706,
      "hern": 1707,
      "oung": 1708,
      "Ġproject": 1709,
      "Ġsol": 1710,
      "Ġforces": 1711,
      "ĠJap": 1712,
      "itions": 1713,
      "Ġpoint": 1714,
      "Ġchildren": 1715,
      "ĠJapan": 1716,
      "Ġcur": 1717,
      "Ġcult": 1718,
      "Ġhaving": 1719,
      "ĠPar": 1720,
      "Ġinclude": 1721,
      "reen": 1722,
      "Ġcritic": 1723,
      "Ġobs": 1724,
      "Ġhistor": 1725,
      "pec": 1726,
      "ler": 1727,
      "Ġ28": 1728,
      "Ġinvol": 1729,
      "ĠX": 1730,
      "alion": 1731,
      "Ġlost": 1732,
      "Ġinflu": 1733,
      "Ġgiven": 1734,
      "Ġwant": 1735,
      "ĠAss": 1736,
      "inc": 1737,
      "ression": 1738,
      "Ġcountry": 1739,
      "sh": 1740,
      "Ġtro": 1741,
      "Ġfire": 1742,
      "Ġsignific": 1743,
      "Ġrepresent": 1744,
      "Ġmanag": 1745,
      "ape": 1746,
      "omen": 1747,
      "ize": 1748,
      "Ġ2013": 1749,
      "ĠSim": 1750,
      "chn": 1751,
      "Ġsite": 1752,
      "omet": 1753,
      "Ġseen": 1754,
      "osp": 1755,
      "Ġeight": 1756,
      "ĠDes": 1757,
      "Ġprogram": 1758,
      "Ġmaking": 1759,
      "ĠAm": 1760,
      "vers": 1761,
      "Ġnever": 1762,
      "Ġfar": 1763,
      "ĠMiss": 1764,
      "Ġstated": 1765,
      "Ġestabl": 1766,
      "Ġpress": 1767,
      "Ġdet": 1768,
      "ĠAfric": 1769,
      "Ġcomb": 1770,
      "ĠEd": 1771,
      "ĠGeneral": 1772,
      "Ġbody": 1773,
      "Ġshould": 1774,
      "Ġaff": 1775,
      "ĠCent": 1776,
      "ĠWhile": 1777,
      "Ġmatch": 1778,
      "ither": 1779,
      "Ġfact": 1780,
      "ploy": 1781,
      "Ġreturned": 1782,
      "reet": 1783,
      "ising": 1784,
      "Ġpat": 1785,
      "ĠDav": 1786,
      "ĠUniversity": 1787,
      "rent": 1788,
      "craft": 1789,
      "Ġfem": 1790,
      "enc": 1791,
      "Ġord": 1792,
      "Ġft": 1793,
      "Ġpost": 1794,
      "ĠPol": 1795,
      "ours": 1796,
      "ĠThese": 1797,
      "Ġ190": 1798,
      "ĠAmerica": 1799,
      "ĠEar": 1800,
      "Ġships": 1801,
      "Ġestablished": 1802,
      "Ġsound": 1803,
      "Ġhow": 1804,
      "Ġisland": 1805,
      "sequ": 1806,
      "Ġearl": 1807,
      "ampionship": 1808,
      "Ġpopulation": 1809,
      "Ġannoun": 1810,
      "Ġreached": 1811,
      "Ġequ": 1812,
      "ĠSte": 1813,
      "Ġstruct": 1814,
      "ĠJack": 1815,
      "Ġchart": 1816,
      "Ġ50": 1817,
      "Ġaway": 1818,
      "reland": 1819,
      "Ġsoc": 1820,
      "ades": 1821,
      "ĠIreland": 1822,
      "ably": 1823,
      "Ġnoted": 1824,
      "ĠAir": 1825,
      "igade": 1826,
      "ĠHa": 1827,
      "Ġtoo": 1828,
      "play": 1829,
      "aul": 1830,
      "ope": 1831,
      "Ġfriend": 1832,
      "Ġgod": 1833,
      "Ġground": 1834,
      "Ġthroughout": 1835,
      "Ġacross": 1836,
      "Ġdeveloped": 1837,
      "Ġthought": 1838,
      "Ġlight": 1839,
      "ĠEv": 1840,
      "fic": 1841,
      "ox": 1842,
      "Ġseven": 1843,
      "me": 1844,
      "Ġgen": 1845,
      "Ġ27": 1846,
      "ĠLond": 1847,
      "Ġintrodu": 1848,
      "ĠLondon": 1849,
      "Ġdiv": 1850,
      "Ġusing": 1851,
      "Ġhimself": 1852,
      "ground": 1853,
      "Ġdevelopment": 1854,
      "ĠNe": 1855,
      "ĠWilliam": 1856,
      "Ġgood": 1857,
      "Ġdestroy": 1858,
      "Ġla": 1859,
      "ĠFeder": 1860,
      "ford": 1861,
      "Ġhig": 1862,
      "Ġlim": 1863,
      "aint": 1864,
      "ument": 1865,
      "most": 1866,
      "Ġfelt": 1867,
      "ese": 1868,
      "ĠMich": 1869,
      "Ġsignificant": 1870,
      "used": 1871,
      "reek": 1872,
      "ĠAustralia": 1873,
      "yn": 1874,
      "idence": 1875,
      "ctor": 1876,
      "ological": 1877,
      "Ġperformed": 1878,
      "Ġimportant": 1879,
      "au": 1880,
      "Ġcast": 1881,
      "work": 1882,
      "Ġpra": 1883,
      "amb": 1884,
      "Ġwriting": 1885,
      "ĠAtl": 1886,
      "Ġmiles": 1887,
      "Ġcou": 1888,
      "Ġfather": 1889,
      "arr": 1890,
      "ords": 1891,
      "Ġtelevision": 1892,
      "oon": 1893,
      "Ġide": 1894,
      "int": 1895,
      "ream": 1896,
      "Ġinterest": 1897,
      "ĠBlack": 1898,
      "Ġvarious": 1899,
      "atic": 1900,
      "ivil": 1901,
      "Ġareas": 1902,
      "Ġhuman": 1903,
      "imately": 1904,
      "Ġtour": 1905,
      "Ġnight": 1906,
      "Ġblack": 1907,
      "ones": 1908,
      "Ġfull": 1909,
      "Ġdied": 1910,
      "Ġtyp": 1911,
      "Ġwent": 1912,
      "Ġlook": 1913,
      "utes": 1914,
      "Ġprot": 1915,
      "Ġwat": 1916,
      "Ġwhite": 1917,
      "ĠRich": 1918,
      "Ġrad": 1919,
      "ĠChar": 1920,
      "aren": 1921,
      "Ġactiv": 1922,
      "Ġdoes": 1923,
      "Ġsuccessful": 1924,
      "aign": 1925,
      "ĠRober": 1926,
      "Ġevents": 1927,
      "Ġneed": 1928,
      "ĠReg": 1929,
      "Ġsk": 1930,
      "Ġlaw": 1931,
      "ief": 1932,
      "ĠRoad": 1933,
      "Ġplayers": 1934,
      "Ġstarted": 1935,
      "ges": 1936,
      "ĠRoy": 1937,
      "ĠJames": 1938,
      "Ġmodern": 1939,
      "Ġten": 1940,
      "ask": 1941,
      "Ġmm": 1942,
      "Ġdiscover": 1943,
      "Ġsee": 1944,
      "Ġfeet": 1945,
      "Ġformed": 1946,
      "Ġcor": 1947,
      "itive": 1948,
      "Ġpoem": 1949,
      "tain": 1950,
      "Ġrange": 1951,
      "antic": 1952,
      "Ġconv": 1953,
      "Ġperformance": 1954,
      "ĠCounty": 1955,
      "Ġmix": 1956,
      "Ġhouse": 1957,
      "Ġstyle": 1958,
      "rick": 1959,
      "Ġrelations": 1960,
      "Ġbuilding": 1961,
      "Ġball": 1962,
      "Ġcaused": 1963,
      "Ġcat": 1964,
      "Ġforce": 1965,
      "na": 1966,
      "Ġage": 1967,
      "Ġread": 1968,
      "Ġprim": 1969,
      "Ġput": 1970,
      "ald": 1971,
      "ster": 1972,
      "ration": 1973,
      "ĠEl": 1974,
      "Ġvill": 1975,
      "Ġtrav": 1976,
      "Ġtechn": 1977,
      "ĠYou": 1978,
      "Ġcy": 1979,
      "alth": 1980,
      "Ġcreated": 1981,
      "af": 1982,
      "ael": 1983,
      "ico": 1984,
      "ĠPal": 1985,
      "Ġ189": 1986,
      "Ġofficial": 1987,
      "Ġnovel": 1988,
      "con": 1989,
      "Ġ2004": 1990,
      "Ġsuff": 1991,
      "Ġ2005": 1992,
      "ublic": 1993,
      "Ġentire": 1994,
      "isc": 1995,
      "ĠTo": 1996,
      "ush": 1997,
      "Ġke": 1998,
      "ogn": 1999,
      "Ġable": 2000,
      "Ġpolitical": 2001,
      "ec": 2002,
      "Ġfun": 2003,
      "ourn": 2004,
      "Ġcharacters": 2005,
      "Ġsum": 2006,
      "Ġget": 2007,
      "Ġothers": 2008,
      "Ġrelig": 2009,
      "Ġcoast": 2010,
      "ĠMag": 2011,
      "ĠHigh": 2012,
      "Ġconstruction": 2013,
      "omb": 2014,
      "Ġbird": 2015,
      "Ġbegin": 2016,
      "aves": 2017,
      "abor": 2018,
      "iness": 2019,
      "oll": 2020,
      "Ġoccur": 2021,
      "ring": 2022,
      "Ġson": 2023,
      "Ġpit": 2024,
      "Ġpri": 2025,
      "epend": 2026,
      "Ġcert": 2027,
      "ĠTown": 2028,
      "ĠâĢĻ": 2029,
      "day": 2030,
      "ying": 2031,
      "Ġred": 2032,
      "ĠGl": 2033,
      "ressed": 2034,
      "Ġonce": 2035,
      "ample": 2036,
      "Ġremained": 2037,
      "ĠAng": 2038,
      "Ġlocated": 2039,
      "ination": 2040,
      "rest": 2041,
      "iting": 2042,
      "asing": 2043,
      "ĠCare": 2044,
      "Ġste": 2045,
      "isted": 2046,
      "Ġbecom": 2047,
      "Ġsurv": 2048,
      "Ġpromot": 2049,
      "Ġbattle": 2050,
      "fall": 2051,
      "Ġlik": 2052,
      "Ġnational": 2053,
      "ĠCor": 2054,
      "Ġscored": 2055,
      "Ġworks": 2056,
      "Ġdiffic": 2057,
      "ĠKingdom": 2058,
      "Ġdifficult": 2059,
      "ĠHist": 2060,
      "ected": 2061,
      "Ġproduc": 2062,
      "Ġmeet": 2063,
      "Ġcompleted": 2064,
      "ĠIsland": 2065,
      "ĠAustralian": 2066,
      "Ġcampaign": 2067,
      "Ġtradition": 2068,
      "Ġannounced": 2069,
      "ĠSom": 2070,
      "ĠCal": 2071,
      "Ġrank": 2072,
      "ĠSec": 2073,
      "uck": 2074,
      "Ġstars": 2075,
      "Ġregion": 2076,
      "ator": 2077,
      "Ġfig": 2078,
      "Ġhold": 2079,
      "Ġrock": 2080,
      "Ġguns": 2081,
      "ĠCup": 2082,
      "ĠMor": 2083,
      "ĠCompany": 2084,
      "iers": 2085,
      "rie": 2086,
      "Ġprocess": 2087,
      "Ġlittle": 2088,
      "hem": 2089,
      "Ġfav": 2090,
      "Ġfight": 2091,
      "ĠRec": 2092,
      "Ġhighway": 2093,
      "Ġgoal": 2094,
      "Ġinstead": 2095,
      "Ġhelp": 2096,
      "Ġtre": 2097,
      "ivid": 2098,
      "irc": 2099,
      "Ġpred": 2100,
      "ĠCro": 2101,
      "Ġval": 2102,
      "Ġgrow": 2103,
      "Ġadded": 2104,
      "itted": 2105,
      "ament": 2106,
      "Ġgl": 2107,
      "rought": 2108,
      "Ġcross": 2109,
      "ĠOl": 2110,
      "Ġlet": 2111,
      "Ġleast": 2112,
      "Ġfollowed": 2113,
      "Ġfac": 2114,
      "Ġfront": 2115,
      "Ġredu": 2116,
      "ounc": 2117,
      "Ġ31": 2118,
      "Ġpeak": 2119,
      "Ġappeared": 2120,
      "Ġborn": 2121,
      "Ġrev": 2122,
      "quad": 2123,
      "ĠKe": 2124,
      "Ġknow": 2125,
      "Ġkilled": 2126,
      "leet": 2127,
      "Ġoriginally": 2128,
      "Ġmonths": 2129,
      "Ġer": 2130,
      "reg": 2131,
      "Ġwife": 2132,
      "Ġcomment": 2133,
      "elling": 2134,
      "ĠArmy": 2135,
      "Ġsouthern": 2136,
      "orse": 2137,
      "ĠDavid": 2138,
      "oice": 2139,
      "Ġcas": 2140,
      "Ġloss": 2141,
      "ĠBill": 2142,
      "ĠGrand": 2143,
      "Ġfif": 2144,
      "enced": 2145,
      "ality": 2146,
      "Ġhurricane": 2147,
      "enth": 2148,
      "Ġnuc": 2149,
      "ĠHam": 2150,
      "ries": 2151,
      "Ġwomen": 2152,
      "Ġassoci": 2153,
      "Ġident": 2154,
      "Ġeastern": 2155,
      "Ġagre": 2156,
      "ĠMusic": 2157,
      "bo": 2158,
      "Ġ29": 2159,
      "angu": 2160,
      "Ġrelationship": 2161,
      "Ã¡": 2162,
      "ÃŃ": 2163,
      "Ġmass": 2164,
      "Ġ2003": 2165,
      "Ġcritics": 2166,
      "off": 2167,
      "Ġmother": 2168,
      "ĠSome": 2169,
      "Ġaccom": 2170,
      "ĠFrance": 2171,
      "Ġeventually": 2172,
      "Ġaward": 2173,
      "ĠSup": 2174,
      "acy": 2175,
      "Ġ40": 2176,
      "Ġ185": 2177,
      "Ġfeatures": 2178,
      "gr": 2179,
      "Ġbus": 2180,
      "lect": 2181,
      "idd": 2182,
      "ĠOther": 2183,
      "Ġ2015": 2184,
      "field": 2185,
      "Ġlive": 2186,
      "Ġbroad": 2187,
      "com": 2188,
      "Ġaud": 2189,
      "Ġcond": 2190,
      "Ġanim": 2191,
      "Ġyoung": 2192,
      "ray": 2193,
      "Ġtaken": 2194,
      "Ġcell": 2195,
      "Ġstri": 2196,
      "app": 2197,
      "Ġroute": 2198,
      "Ġrecogn": 2199,
      "Ġappoin": 2200,
      "Ġfourth": 2201,
      "ĠTwo": 2202,
      "Ġserved": 2203,
      "here": 2204,
      "Ġbar": 2205,
      "ully": 2206,
      "ĠEx": 2207,
      "Äģ": 2208,
      "ota": 2209,
      "emy": 2210,
      "Ġestim": 2211,
      "Ġdamage": 2212,
      "Ġprofess": 2213,
      "Ġlack": 2214,
      "Ġheavy": 2215,
      "antry": 2216,
      "arliam": 2217,
      "ique": 2218,
      "inal": 2219,
      "Ġsw": 2220,
      "Ġbase": 2221,
      "Ġeither": 2222,
      "Ġsex": 2223,
      "Ġdecided": 2224,
      "ĠBattalion": 2225,
      "Ġaver": 2226,
      "osaur": 2227,
      "ĠLove": 2228,
      "Ġproble": 2229,
      "Ġvoc": 2230,
      "ĠSw": 2231,
      "olution": 2232,
      "Ġcondom": 2233,
      "Ġcommer": 2234,
      "Ġbehind": 2235,
      "Ġtoget": 2236,
      "aper": 2237,
      "azine": 2238,
      "Ġbelieved": 2239,
      "Ġtogether": 2240,
      "Ġmor": 2241,
      "Ġsepar": 2242,
      "ĠRobert": 2243,
      "chie": 2244,
      "Ġsuper": 2245,
      "Ġarg": 2246,
      "ille": 2247,
      "ĠGod": 2248,
      "ought": 2249,
      "Ġplaying": 2250,
      "ountain": 2251,
      "Ġindivid": 2252,
      "ĠCarey": 2253,
      "arliament": 2254,
      "Ġve": 2255,
      "Ġimpro": 2256,
      "igned": 2257,
      "ization": 2258,
      "lo": 2259,
      "Ġcreat": 2260,
      "Ġexample": 2261,
      "Ġspecial": 2262,
      "ĠRoyal": 2263,
      "ouncil": 2264,
      "ĠMon": 2265,
      "Ġalmost": 2266,
      "Ġclos": 2267,
      "Ġclose": 2268,
      "Ġ188": 2269,
      "Ġmove": 2270,
      "Ġaccept": 2271,
      "ements": 2272,
      "Ġquar": 2273,
      "Ġleading": 2274,
      "hys": 2275,
      "ĠMex": 2276,
      "ĠEuropean": 2277,
      "cial": 2278,
      "mar": 2279,
      "Ġburn": 2280,
      "Ġlangu": 2281,
      "Ġask": 2282,
      "Ġgenerally": 2283,
      "Ġservice": 2284,
      "ĠFederer": 2285,
      "Ġtowards": 2286,
      "Ġmater": 2287,
      "Ġround": 2288,
      "aching": 2289,
      "Ġelements": 2290,
      "Ġopened": 2291,
      "Ġfall": 2292,
      "Ġhy": 2293,
      "Ġarm": 2294,
      "Ġsour": 2295,
      "Ġbrought": 2296,
      "Ġdou": 2297,
      "ĠSer": 2298,
      "urb": 2299,
      "ĠBer": 2300,
      "ĠBrigade": 2301,
      "Ġweeks": 2302,
      "Ġmiss": 2303,
      "Ġnon": 2304,
      "ĠInternational": 2305,
      "Ġfinished": 2306,
      "iction": 2307,
      "Ġce": 2308,
      "Ġcirc": 2309,
      "ĠCr": 2310,
      "ĠIr": 2311,
      "ĠWales": 2312,
      "Ġra": 2313,
      "illa": 2314,
      "rict": 2315,
      "Ġlaun": 2316,
      "Ġsaw": 2317,
      "icated": 2318,
      "ceed": 2319,
      "Ġstudy": 2320,
      "Ġfeatured": 2321,
      "Ġhost": 2322,
      "ĠViet": 2323,
      "Ġrespect": 2324,
      "Ġaircraft": 2325,
      "iation": 2326,
      "Ġregular": 2327,
      "ĠFlor": 2328,
      "Ġdraw": 2329,
      "ida": 2330,
      "Ġenc": 2331,
      "iron": 2332,
      "ests": 2333,
      "Ġvol": 2334,
      "ĠWhite": 2335,
      "Ġgeneral": 2336,
      "Ġpoints": 2337,
      "ned": 2338,
      "read": 2339,
      "Ġrese": 2340,
      "ston": 2341,
      "ĠHen": 2342,
      "etwork": 2343,
      "ĠPart": 2344,
      "ways": 2345,
      "Ġelect": 2346,
      "Ġdirected": 2347,
      "uter": 2348,
      "ze": 2349,
      "ounted": 2350,
      "ĠChampionship": 2351,
      "Ġcentral": 2352,
      "Ġprovided": 2353,
      "hic": 2354,
      "Ġaction": 2355,
      "ordan": 2356,
      "Ġmeas": 2357,
      "val": 2358,
      "Ġfund": 2359,
      "Ġinform": 2360,
      "ĠAct": 2361,
      "ĠSy": 2362,
      "ĠHar": 2363,
      "Ġ35": 2364,
      "Ġupon": 2365,
      "ĠPlay": 2366,
      "Ġdirector": 2367,
      "ography": 2368,
      "iol": 2369,
      "Ġwall": 2370,
      "ĠGame": 2371,
      "Ġmean": 2372,
      "Ġappearance": 2373,
      "eum": 2374,
      "Ġwid": 2375,
      "ĠFollow": 2376,
      "ĠJordan": 2377,
      "umb": 2378,
      "ĠEast": 2379,
      "Ġ186": 2380,
      "Ġcoll": 2381,
      "Ġearlier": 2382,
      "Ġmi": 2383,
      "ĠFrom": 2384,
      "odes": 2385,
      "Ġyard": 2386,
      "ĠThom": 2387,
      "ency": 2388,
      "ĠPres": 2389,
      "Ġsequ": 2390,
      "Ġrather": 2391,
      "Ġking": 2392,
      "Ġ2014": 2393,
      "Ġflood": 2394,
      "Ġfemale": 2395,
      "ĠAtlantic": 2396,
      "bit": 2397,
      "ino": 2398,
      "irl": 2399,
      "Ġindust": 2400,
      "medi": 2401,
      "Ġcurrent": 2402,
      "Ġtroops": 2403,
      "Ġlargest": 2404,
      "Ġvictory": 2405,
      "ĠFollowing": 2406,
      "oring": 2407,
      "Ġren": 2408,
      "Ġreve": 2409,
      "ĠJew": 2410,
      "Ġdev": 2411,
      "Ġsubsequ": 2412,
      "Ġemploy": 2413,
      "Ġoperations": 2414,
      "ĠChristian": 2415,
      "Ġparticularly": 2416,
      "ĠGeorge": 2417,
      "Ġmanager": 2418,
      "ming": 2419,
      "Ġachie": 2420,
      "Ġcost": 2421,
      "ĠMad": 2422,
      "ĠHouse": 2423,
      "ĠDay": 2424,
      "ĠHero": 2425,
      "cher": 2426,
      "oid": 2427,
      "ĠMary": 2428,
      "ude": 2429,
      "ĠRep": 2430,
      "Ġopening": 2431,
      "Ġwanted": 2432,
      "stit": 2433,
      "Ġbeg": 2434,
      "ĠDu": 2435,
      "Ġcondu": 2436,
      "mb": 2437,
      "eler": 2438,
      "ĠRed": 2439,
      "orts": 2440,
      "Ġyards": 2441,
      "Ġevidence": 2442,
      "iber": 2443,
      "Ġcut": 2444,
      "Ġreason": 2445,
      "ouri": 2446,
      "Ġriver": 2447,
      "Ġprob": 2448,
      "Ġexc": 2449,
      "ounter": 2450,
      "ĠCommand": 2451,
      "Ġnorthern": 2452,
      "ĠFlorida": 2453,
      "Ġmember": 2454,
      "Ġstage": 2455,
      "Ġinsp": 2456,
      "cast": 2457,
      "Ġleng": 2458,
      "ĠRock": 2459,
      "ĠStreet": 2460,
      "Ġ500": 2461,
      "Ġoutside": 2462,
      "Ġcrew": 2463,
      "Ġallowed": 2464,
      "Ġpossible": 2465,
      "Ġengine": 2466,
      "oo": 2467,
      "Ġfoc": 2468,
      "Ġbi": 2469,
      "Ġstren": 2470,
      "action": 2471,
      "Ġsaying": 2472,
      "sel": 2473,
      "Ġill": 2474,
      "ĠMed": 2475,
      "ellow": 2476,
      "ĠOliv": 2477,
      "cript": 2478,
      "erous": 2479,
      "atural": 2480,
      "ania": 2481,
      "Ġhit": 2482,
      "Ġhours": 2483,
      "Ġwhom": 2484,
      "west": 2485,
      "Ġcase": 2486,
      "anch": 2487,
      "ential": 2488,
      "Ġnomin": 2489,
      "conom": 2490,
      "ators": 2491,
      "Ġfort": 2492,
      "Ġdeter": 2493,
      "Ġexist": 2494,
      "Ġ2001": 2495,
      "Ġworked": 2496,
      "Ġregard": 2497,
      "ĠMissouri": 2498,
      "alt": 2499,
      "ĠMost": 2500,
      "ĠOd": 2501,
      "Ġpract": 2502,
      "Ġstreng": 2503,
      "eal": 2504,
      "atin": 2505,
      "Ġmot": 2506,
      "ama": 2507,
      "ĠBra": 2508,
      "Ġworking": 2509,
      "Ġterrit": 2510,
      "Ġrespons": 2511,
      "Ġlength": 2512,
      "cent": 2513,
      "nder": 2514,
      "ĠMy": 2515,
      "Ġnews": 2516,
      "Ġreb": 2517,
      "osition": 2518,
      "ĠGal": 2519,
      "artment": 2520,
      "Ġdefend": 2521,
      "board": 2522,
      "Ġmaterial": 2523,
      "ata": 2524,
      "Ġbur": 2525,
      "Ġmach": 2526,
      "Ġgold": 2527,
      "Ġpoor": 2528,
      "Ġdesigned": 2529,
      "Ġfree": 2530,
      "Ġlove": 2531,
      "ĠBay": 2532,
      "ĠPaul": 2533,
      "Ġseem": 2534,
      "ump": 2535,
      "Ġrul": 2536,
      "Ġneg": 2537,
      "ĠTech": 2538,
      "thod": 2539,
      "Ġstay": 2540,
      "ĠWal": 2541,
      "anding": 2542,
      "Ġpraised": 2543,
      "uel": 2544,
      "ĠCo": 2545,
      "ĠMark": 2546,
      "Ġforced": 2547,
      "ĠFirst": 2548,
      "ights": 2549,
      "ishing": 2550,
      "Ġremains": 2551,
      "ĠIndian": 2552,
      "Ġavail": 2553,
      "Ġfootball": 2554,
      "ores": 2555,
      "ĠBest": 2556,
      "Ġ187": 2557,
      "Ġ1970": 2558,
      "ĠPhil": 2559,
      "Ġbill": 2560,
      "ana": 2561,
      "Ġthink": 2562,
      "Ġstation": 2563,
      "Ġwinds": 2564,
      "ĠMichael": 2565,
      "less": 2566,
      "Ġtreat": 2567,
      "Ġcop": 2568,
      "ĠWil": 2569,
      "Ġquick": 2570,
      "Ġgoals": 2571,
      "Ġincreased": 2572,
      "Ġcontract": 2573,
      "heast": 2574,
      "ened": 2575,
      "Ġpast": 2576,
      "Ġdi": 2577,
      "aps": 2578,
      "Ġpreviously": 2579,
      "ĠÂ£": 2580,
      "ius": 2581,
      "vest": 2582,
      "ica": 2583,
      "Ġgre": 2584,
      "ago": 2585,
      "ĠEgy": 2586,
      "Ġabove": 2587,
      "Ġreplaced": 2588,
      "ĠEgypt": 2589,
      "gg": 2590,
      "ule": 2591,
      "xas": 2592,
      "ĠCap": 2593,
      "ĠBut": 2594,
      "vert": 2595,
      "Ġsoon": 2596,
      "Ġinvest": 2597,
      "ĠRichard": 2598,
      "Ġcivil": 2599,
      "Ġly": 2600,
      "ĠBus": 2601,
      "Ġviol": 2602,
      "ĠDespite": 2603,
      "Ġbusiness": 2604,
      "Ġhon": 2605,
      "Ġinterview": 2606,
      "Ġmer": 2607,
      "Ġthreat": 2608,
      "ession": 2609,
      "Ġ2000": 2610,
      "ributed": 2611,
      "Ġwriter": 2612,
      "ĠÂ°": 2613,
      "Ġcommercial": 2614,
      "ĠHenry": 2615,
      "erved": 2616,
      "asion": 2617,
      "Ġmph": 2618,
      "irth": 2619,
      "ĠHill": 2620,
      "Ġunits": 2621,
      "hens": 2622,
      "ĠCanada": 2623,
      "Ġestimated": 2624,
      "Ġclear": 2625,
      "ara": 2626,
      "ĠSan": 2627,
      "Ġ1990": 2628,
      "Ġaccount": 2629,
      "anned": 2630,
      "ĠQue": 2631,
      "Ġesc": 2632,
      "Ġquarter": 2633,
      "Ġsomet": 2634,
      "Ġpain": 2635,
      "ĠKh": 2636,
      "Ġclaimed": 2637,
      "Ġjoined": 2638,
      "ĠJapanese": 2639,
      "Ġhighest": 2640,
      "uation": 2641,
      "Ġtrib": 2642,
      "utive": 2643,
      "Ġplaced": 2644,
      "Ġspecific": 2645,
      "Ġsurf": 2646,
      "ĠBrown": 2647,
      "ĠOldham": 2648,
      "Ġinvolved": 2649,
      "wh": 2650,
      "ye": 2651,
      "Ġz": 2652,
      "Ġmust": 2653,
      "ĠTimes": 2654,
      "Ġlo": 2655,
      "Ġsigned": 2656,
      "Ġdiscuss": 2657,
      "Ġsuggested": 2658,
      "ĠPresident": 2659,
      "ĠTor": 2660,
      "ĠVir": 2661,
      "Ġparts": 2662,
      "ĠDep": 2663,
      "Ġcourt": 2664,
      "Ġwestern": 2665,
      "oms": 2666,
      "ett": 2667,
      "Ġintens": 2668,
      "Ġ183": 2669,
      "ĠOlivier": 2670,
      "BC": 2671,
      "iter": 2672,
      "Ġproper": 2673,
      "Ġleague": 2674,
      "clus": 2675,
      "Ġitself": 2676,
      "Ġpriv": 2677,
      "ĠCarol": 2678,
      "ĠVietn": 2679,
      "lic": 2680,
      "Ġpers": 2681,
      "ĠDr": 2682,
      "ĠWhe": 2683,
      "ĠLater": 2684,
      "istic": 2685,
      "wood": 2686,
      "Ġobject": 2687,
      "ĠIndia": 2688,
      "Ġaverage": 2689,
      "ĠMexico": 2690,
      "tt": 2691,
      "Ġtaking": 2692,
      "thlet": 2693,
      "Ġchange": 2694,
      "Ġshot": 2695,
      "ĠArab": 2696,
      "Ġavailable": 2697,
      "ington": 2698,
      "ĠSchool": 2699,
      "olic": 2700,
      "osing": 2701,
      "ĠGovern": 2702,
      "Ġcome": 2703,
      "Ġscene": 2704,
      "ĠMcC": 2705,
      "Ġintroduced": 2706,
      "Ġcycl": 2707,
      "ving": 2708,
      "Ġfly": 2709,
      "ĠIm": 2710,
      "Ġwhose": 2711,
      "Ġrecording": 2712,
      "Ġtransport": 2713,
      "Ġterm": 2714,
      "Ġvillage": 2715,
      "now": 2716,
      "ita": 2717,
      "Ġinj": 2718,
      "Ġhous": 2719,
      "ĠCong": 2720,
      "achel": 2721,
      "Ġheav": 2722,
      "ĠVal": 2723,
      "Ġtransfer": 2724,
      "Ġbrother": 2725,
      "ĠThomas": 2726,
      "bor": 2727,
      "nes": 2728,
      "ximately": 2729,
      "ĠHall": 2730,
      "ĠVar": 2731,
      "Ġreligious": 2732,
      "ĠIrish": 2733,
      "ready": 2734,
      "Ġpen": 2735,
      "lected": 2736,
      "Ġrace": 2737,
      "quar": 2738,
      "ibility": 2739,
      "Ġbreak": 2740,
      "porary": 2741,
      "Ġtravel": 2742,
      "AF": 2743,
      "band": 2744,
      "onst": 2745,
      "Ġslow": 2746,
      "Ġtold": 2747,
      "Ġdon": 2748,
      "Ġnetwork": 2749,
      "acing": 2750,
      "ĠPac": 2751,
      "Ġ36": 2752,
      "ĠBritain": 2753,
      "Ġshows": 2754,
      "Ġ1960": 2755,
      "Ġdamaged": 2756,
      "rated": 2757,
      "Ġ-": 2758,
      "Ġnames": 2759,
      "ĠCard": 2760,
      "Ġstop": 2761,
      "ĠHel": 2762,
      "Ġrail": 2763,
      "pected": 2764,
      "Ġexec": 2765,
      "abit": 2766,
      "Ġremov": 2767,
      "Ġincreasing": 2768,
      "Ġturned": 2769,
      "ĠRepublic": 2770,
      "Ġmult": 2771,
      "Ġlines": 2772,
      "Ġgive": 2773,
      "ĠHurricane": 2774,
      "ĠThat": 2775,
      "Ġsubject": 2776,
      "Ġnine": 2777,
      "ĠMany": 2778,
      "ĠGreat": 2779,
      "Ġdespite": 2780,
      "ĠScient": 2781,
      "Ġnearly": 2782,
      "ĠGuitar": 2783,
      "Ġappointed": 2784,
      "Ġsize": 2785,
      "Ġpie": 2786,
      "ĠSm": 2787,
      "ĠNot": 2788,
      "oney": 2789,
      "Ġfeel": 2790,
      "Ġcomplet": 2791,
      "ĠZeal": 2792,
      "Ġcommunity": 2793,
      "Ġstructure": 2794,
      "ĠZealand": 2795,
      "Ġ?": 2796,
      "Ġop": 2797,
      "Ġphys": 2798,
      "Ġdate": 2799,
      "Ġhard": 2800,
      "ĠSun": 2801,
      "Ġeconom": 2802,
      "elled": 2803,
      "Ġdiss": 2804,
      "Ġindepend": 2805,
      "Ġsurround": 2806,
      "Ġpassed": 2807,
      "Ġeduc": 2808,
      "ault": 2809,
      "Ġinternational": 2810,
      "Ġpur": 2811,
      "ĠMac": 2812,
      "iding": 2813,
      "ĠNY": 2814,
      "ĠGold": 2815,
      "ruction": 2816,
      "ĠUnion": 2817,
      "ronic": 2818,
      "Ġestablish": 2819,
      "Ġliter": 2820,
      "Ġinitially": 2821,
      "pecially": 2822,
      "Ġcertain": 2823,
      "head": 2824,
      "Ġwithd": 2825,
      "Ġalready": 2826,
      "Ġ184": 2827,
      "Ġimmedi": 2828,
      "Ġgrad": 2829,
      "Ġgoing": 2830,
      "Ġsocial": 2831,
      "Ġfailed": 2832,
      "Ġmight": 2833,
      "ĠAc": 2834,
      "ĠRou": 2835,
      "ume": 2836,
      "Ġdeal": 2837,
      "Ġrap": 2838,
      "Ġchap": 2839,
      "ĠChines": 2840,
      "Ġdisplay": 2841,
      "Ġ60": 2842,
      "Ġassist": 2843,
      "anna": 2844,
      "Ġwinning": 2845,
      "Ġarchae": 2846,
      "ĠEarly": 2847,
      "ĠChinese": 2848,
      "Ġstates": 2849,
      "ĠEver": 2850,
      "Ġtraining": 2851,
      "hedral": 2852,
      "Ġ45": 2853,
      "Ġscore": 2854,
      "Ġaccording": 2855,
      "Ġcapital": 2856,
      "Ġoccup": 2857,
      "Ġtype": 2858,
      "Ġespecially": 2859,
      "Ġlanguage": 2860,
      "Ġprobably": 2861,
      "ĠPacific": 2862,
      "Ġfood": 2863,
      "arily": 2864,
      "Ġdoc": 2865,
      "ĠMont": 2866,
      "ĠEm": 2867,
      "iff": 2868,
      "Ġ2002": 2869,
      "Ġminor": 2870,
      "ĠColle": 2871,
      "Ġissue": 2872,
      "Ġdebut": 2873,
      "Ġforest": 2874,
      "for": 2875,
      "Ġtest": 2876,
      "Ġwood": 2877,
      "Ġfut": 2878,
      "aled": 2879,
      "Ġmale": 2880,
      "Ġdaugh": 2881,
      "urt": 2882,
      "ĠPre": 2883,
      "Ġstudio": 2884,
      "ĠIII": 2885,
      "ties": 2886,
      "Ġtow": 2887,
      "ĠMos": 2888,
      "Ġconn": 2889,
      "ĠOs": 2890,
      "Ġincludes": 2891,
      "Ġspent": 2892,
      "Ġarrived": 2893,
      "Ġordered": 2894,
      "ĠHistory": 2895,
      "ĠWheeler": 2896,
      "ĠÃ": 2897,
      "ĠAg": 2898,
      "ĠAwards": 2899,
      "ĠSl": 2900,
      "ĠFilm": 2901,
      "ĠJin": 2902,
      "Ġarmy": 2903,
      "Ġenough": 2904,
      "Ġremaining": 2905,
      "Ġparticip": 2906,
      "Ġvisit": 2907,
      "ĠCanadian": 2908,
      "onse": 2909,
      "Ġfail": 2910,
      "Ġmem": 2911,
      "ĠCath": 2912,
      "Ġforward": 2913,
      "ĠNavy": 2914,
      "odies": 2915,
      "Ġmixed": 2916,
      "Ġsometimes": 2917,
      "atory": 2918,
      "Ġcru": 2919,
      "ula": 2920,
      "ĠUK": 2921,
      "Ġcomplete": 2922,
      "Ġapproximately": 2923,
      "Ġreviews": 2924,
      "Ġrequired": 2925,
      "ĠPeter": 2926,
      "fect": 2927,
      "nel": 2928,
      "aries": 2929,
      "Ġpot": 2930,
      "Ġlatter": 2931,
      "ĠCreek": 2932,
      "ays": 2933,
      "ĠRes": 2934,
      "ulated": 2935,
      "ilities": 2936,
      "ĠSing": 2937,
      "ĠRose": 2938,
      "ĠDon": 2939,
      "Ġrain": 2940,
      "Ġabs": 2941,
      "Ġcenter": 2942,
      "Ġremain": 2943,
      "ference": 2944,
      "ĠAssoci": 2945,
      "ĠAfrica": 2946,
      "Ġbeginning": 2947,
      "hib": 2948,
      "ulf": 2949,
      "ĠLaw": 2950,
      "Ġblock": 2951,
      "ĠAngel": 2952,
      "eth": 2953,
      "tation": 2954,
      "Ġlower": 2955,
      "ateg": 2956,
      "Ġdecision": 2957,
      "Ġanti": 2958,
      "Ġlimited": 2959,
      "enes": 2960,
      "Ġdro": 2961,
      "ste": 2962,
      "chol": 2963,
      "Ġusually": 2964,
      "ĠArt": 2965,
      "Ġadditional": 2966,
      "Ġchanges": 2967,
      "ĠRegiment": 2968,
      "ites": 2969,
      "Ġden": 2970,
      "ĠMo": 2971,
      "ĠRachel": 2972,
      "ĠJer": 2973,
      "rian": 2974,
      "Ġjourn": 2975,
      "Ġbetter": 2976,
      "Ġindic": 2977,
      "Ġpresident": 2978,
      "Ġrunning": 2979,
      "Ġresponse": 2980,
      "ĠVirgin": 2981,
      "itz": 2982,
      "ĠSoc": 2983,
      "Ġkey": 2984,
      "Ġpositive": 2985,
      "Ġended": 2986,
      "Ġlarger": 2987,
      "Ġstudents": 2988,
      "ĠSuper": 2989,
      "Ġwoman": 2990,
      "Ġmention": 2991,
      "ĠNort": 2992,
      "Ġdead": 2993,
      "Ġsupported": 2994,
      "Ġmagazine": 2995,
      "quadron": 2996,
      "Ġtouch": 2997,
      "ĠAward": 2998,
      "lymp": 2999,
      "ĠPenn": 3000,
      "ĠOlymp": 3001,
      "Ġnotes": 3002,
      "ĠStud": 3003,
      "rics": 3004,
      "ĠScott": 3005,
      "Ġpolice": 3006,
      "Ġdepression": 3007,
      "Ġpressure": 3008,
      "Ġwide": 3009,
      "Ġcal": 3010,
      "aval": 3011,
      "ĠVer": 3012,
      "Ġpoet": 3013,
      "ĠCharles": 3014,
      "Ġbirds": 3015,
      "gl": 3016,
      "tr": 3017,
      "edy": 3018,
      "enty": 3019,
      "Ġshown": 3020,
      "Ġ1995": 3021,
      "Ġquest": 3022,
      "Ġprevent": 3023,
      "ĠBillboard": 3024,
      "ases": 3025,
      "aph": 3026,
      "aker": 3027,
      "Ġspace": 3028,
      "Ġrelated": 3029,
      "Ġfuture": 3030,
      "back": 3031,
      "Ġ38": 3032,
      "Ġ1980": 3033,
      "Ġprovide": 3034,
      "Ġdefeated": 3035,
      "Ġfifth": 3036,
      "go": 3037,
      "rd": 3038,
      "uf": 3039,
      "Ġface": 3040,
      "arm": 3041,
      "Ġhom": 3042,
      "ĠTV": 3043,
      "ĠTom": 3044,
      "stant": 3045,
      "ĠPri": 3046,
      "uments": 3047,
      "Ġdiscovered": 3048,
      "ih": 3049,
      "leg": 3050,
      "ĠTer": 3051,
      "owl": 3052,
      "Ġstaff": 3053,
      "ĠFort": 3054,
      "Ġsyn": 3055,
      "Ġfeature": 3056,
      "Ġtemper": 3057,
      "ĠRoute": 3058,
      "men": 3059,
      "ss": 3060,
      "Ġanc": 3061,
      "Ġ80": 3062,
      "Ġprior": 3063,
      "Ġbecoming": 3064,
      "co": 3065,
      "uals": 3066,
      "Ġaut": 3067,
      "Ġbirth": 3068,
      "Ġdoll": 3069,
      "ids": 3070,
      "irt": 3071,
      "ands": 3072,
      "ifa": 3073,
      "mitted": 3074,
      "Ġcm": 3075,
      "ĠWestern": 3076,
      "Ġsection": 3077,
      "ĠOff": 3078,
      "riage": 3079,
      "Ġexam": 3080,
      "Ġsmaller": 3081,
      "Ġfrequ": 3082,
      "gely": 3083,
      "inct": 3084,
      "onc": 3085,
      "Ġintended": 3086,
      "ĠApp": 3087,
      "idents": 3088,
      "bert": 3089,
      "aby": 3090,
      "Ġscreen": 3091,
      "Ġdisp": 3092,
      "Ġgroups": 3093,
      "Ġidea": 3094,
      "ĠScientology": 3095,
      "aring": 3096,
      "Ġconclud": 3097,
      "ĠInf": 3098,
      "ishop": 3099,
      "Ġpercent": 3100,
      "Ġthemsel": 3101,
      "Ġmostly": 3102,
      "ĠFrank": 3103,
      "Ġmetres": 3104,
      "ĠHaifa": 3105,
      "stein": 3106,
      "Ġthemselves": 3107,
      "aut": 3108,
      "ney": 3109,
      "orial": 3110,
      "Ġfleet": 3111,
      "anies": 3112,
      "ĠTur": 3113,
      "ĠHot": 3114,
      "agon": 3115,
      "quare": 3116,
      "ĠStar": 3117,
      "Ġ2016": 3118,
      "ĠYear": 3119,
      "Ġminutes": 3120,
      "Ġcaptured": 3121,
      "Ġreferred": 3122,
      "Ġlikely": 3123,
      "Ġresearch": 3124,
      "Ġsurface": 3125,
      "Ġword": 3126,
      "Ġfir": 3127,
      "enon": 3128,
      "Ġdomin": 3129,
      "ĠSince": 3130,
      "ching": 3131,
      "ĠLa": 3132,
      "iforn": 3133,
      "Ġoffice": 3134,
      "Ġlargely": 3135,
      "Ġmusical": 3136,
      "rief": 3137,
      "ĠCroat": 3138,
      "Ġprofessional": 3139,
      "Ġproblems": 3140,
      "ĠAssociation": 3141,
      "down": 3142,
      "Ġflow": 3143,
      "ĠParliament": 3144,
      "ĠFI": 3145,
      "ĠLight": 3146,
      "rael": 3147,
      "Ġ75": 3148,
      "Ġentered": 3149,
      "Ġmedia": 3150,
      "ee": 3151,
      "gar": 3152,
      "Ġsem": 3153,
      "Ġmakes": 3154,
      "Ġcontem": 3155,
      "Ġmoving": 3156,
      "Ġamount": 3157,
      "Ġbroadcast": 3158,
      "ners": 3159,
      "Ġcer": 3160,
      "Ġder": 3161,
      "ĠSov": 3162,
      "omm": 3163,
      "Ġlearn": 3164,
      "Ġcontains": 3165,
      "Ġemb": 3166,
      "Ġconstructed": 3167,
      "ĠPortug": 3168,
      "Ġradio": 3169,
      "quarters": 3170,
      "gu": 3171,
      "uk": 3172,
      "Ã³": 3173,
      "oul": 3174,
      "Ġlink": 3175,
      "ĠOper": 3176,
      "sec": 3177,
      "Ġens": 3178,
      "Ġ1999": 3179,
      "Ġkeep": 3180,
      "Ġsummer": 3181,
      "ĠCaliforn": 3182,
      "bers": 3183,
      "ises": 3184,
      "Ġpair": 3185,
      "Ġmoney": 3186,
      "acted": 3187,
      "ĠRuss": 3188,
      "ĠJe": 3189,
      "pped": 3190,
      "ples": 3191,
      "Ġguitar": 3192,
      "Ġeffects": 3193,
      "Ġcele": 3194,
      "ios": 3195,
      "to": 3196,
      "ville": 3197,
      "ergy": 3198,
      "itte": 3199,
      "isions": 3200,
      "anish": 3201,
      "Ġnature": 3202,
      "ĠCouncil": 3203,
      "Ġstories": 3204,
      "ĠHow": 3205,
      "cean": 3206,
      "Ġsea": 3207,
      "Ġvoice": 3208,
      "Ġgrant": 3209,
      "ĠIsrael": 3210,
      "Ġ1950": 3211,
      "Ġmajority": 3212,
      "Ġlisted": 3213,
      "Ġobserv": 3214,
      "ĠEarth": 3215,
      "Ġranked": 3216,
      "ĠJewish": 3217,
      "uz": 3218,
      "Ġself": 3219,
      "Ġparen": 3220,
      "Ġlay": 3221,
      "Ġadop": 3222,
      "Ġcreate": 3223,
      "Ġarrang": 3224,
      "Ġexperience": 3225,
      "ĠGalvest": 3226,
      "ĠGalveston": 3227,
      "den": 3228,
      "uing": 3229,
      "eding": 3230,
      "ĠMet": 3231,
      "ĠWood": 3232,
      "ĠOtt": 3233,
      "Ġleaving": 3234,
      "Ġcritical": 3235,
      "Ġthus": 3236,
      "ĠChic": 3237,
      "Ġprimary": 3238,
      "Ġfavor": 3239,
      "ires": 3240,
      "lor": 3241,
      "Ġschol": 3242,
      "Ġlived": 3243,
      "urity": 3244,
      "owler": 3245,
      "Ġalways": 3246,
      "ĠAnother": 3247,
      "Ġconsist": 3248,
      "Ġlocation": 3249,
      "ylv": 3250,
      "minist": 3251,
      "Ġgods": 3252,
      "Ġagreed": 3253,
      "Ġlyrics": 3254,
      "iest": 3255,
      "reak": 3256,
      "Ġbrief": 3257,
      "Ġpay": 3258,
      "Ġlab": 3259,
      "imate": 3260,
      "ĠFin": 3261,
      "ĠGo": 3262,
      "aven": 3263,
      "Ġrare": 3264,
      "teen": 3265,
      "Ġcompl": 3266,
      "Ġfilms": 3267,
      "Ġruns": 3268,
      "Ġofficers": 3269,
      "Ġcontroll": 3270,
      "Ġlaunched": 3271,
      "ĠCalifornia": 3272,
      "ping": 3273,
      "pool": 3274,
      "tar": 3275,
      "Ġcoin": 3276,
      "ĠServ": 3277,
      "ĠCamp": 3278,
      "ĠBey": 3279,
      "Ġcolon": 3280,
      "Ġsett": 3281,
      "Ġteams": 3282,
      "Ġculture": 3283,
      "Ġfriends": 3284,
      "osaurus": 3285,
      "Ġquickly": 3286,
      "ĠCatholic": 3287,
      "ĠHol": 3288,
      "change": 3289,
      "Ġmeant": 3290,
      "Ġepisodes": 3291,
      "ĠBrad": 3292,
      "Ġminute": 3293,
      "hester": 3294,
      "Ġproposed": 3295,
      "Ġoccurred": 3296,
      "oor": 3297,
      "pan": 3298,
      "ror": 3299,
      "ĠAle": 3300,
      "urg": 3301,
      "ĠIf": 3302,
      "arts": 3303,
      "ĠUp": 3304,
      "Ġwhether": 3305,
      "oke": 3306,
      "key": 3307,
      "Ġprem": 3308,
      "Ġattr": 3309,
      "Ġassigned": 3310,
      "Ġaccess": 3311,
      "Ġsettle": 3312,
      "Ġincrease": 3313,
      "Ġequip": 3314,
      "kan": 3315,
      "zy": 3316,
      "Ġsat": 3317,
      "atively": 3318,
      "Ġfans": 3319,
      "Ġpian": 3320,
      "ĠSaint": 3321,
      "Ġvot": 3322,
      "illery": 3323,
      "Ġtraff": 3324,
      "Ġadap": 3325,
      "Ġforms": 3326,
      "ification": 3327,
      "Ġappears": 3328,
      "Ġdefeat": 3329,
      "Ġchanged": 3330,
      "Ġdestroyed": 3331,
      "Ġtraffic": 3332,
      "Ġtons": 3333,
      "ĠMr": 3334,
      "imum": 3335,
      "ĠNic": 3336,
      "ĠNix": 3337,
      "ability": 3338,
      "Ġ400": 3339,
      "Ġscript": 3340,
      "Ġcommission": 3341,
      "Ġearth": 3342,
      "Ġlonger": 3343,
      "ospital": 3344,
      "ĠCentral": 3345,
      "Ġmeaning": 3346,
      "ĠChicago": 3347,
      "rup": 3348,
      "asy": 3349,
      "ĠRoss": 3350,
      "Ġjob": 3351,
      "Ġ70": 3352,
      "Ġtheme": 3353,
      "Ġnumbers": 3354,
      "Ġ1940": 3355,
      "Ġconcern": 3356,
      "ĠBattle": 3357,
      "Ġsoldiers": 3358,
      "Ġcompetition": 3359,
      "sis": 3360,
      "Ġmom": 3361,
      "Ġreach": 3362,
      "aded": 3363,
      "ĠHaw": 3364,
      "andon": 3365,
      "Ġleave": 3366,
      "Ġtrade": 3367,
      "ruit": 3368,
      "Ġbound": 3369,
      "ĠAlice": 3370,
      "vey": 3371,
      "Ġcarried": 3372,
      "onym": 3373,
      "Ġawarded": 3374,
      "Ġfocus": 3375,
      "ĠNorthern": 3376,
      "Ġcelebr": 3377,
      "Ġhop": 3378,
      "Ġgirl": 3379,
      "ĠLatin": 3380,
      "undred": 3381,
      "Ġ33": 3382,
      "Ġ1998": 3383,
      "ĠEnter": 3384,
      "ĠQu": 3385,
      "Ġconducted": 3386,
      "Ġprivate": 3387,
      "Ġdaughter": 3388,
      "Ġsil": 3389,
      "Ġcred": 3390,
      "Ġnatural": 3391,
      "ĠLou": 3392,
      "Ġdeep": 3393,
      "ĠOver": 3394,
      "bery": 3395,
      "Ġrecords": 3396,
      "Ġunderst": 3397,
      "Ġsubsequently": 3398,
      "Ġnewsp": 3399,
      "Ġcause": 3400,
      "Ġtourn": 3401,
      "ĠMey": 3402,
      "Ġanaly": 3403,
      "Ġran": 3404,
      "ortun": 3405,
      "Ġplans": 3406,
      "Ġ300": 3407,
      "Ġunc": 3408,
      "ĠVilla": 3409,
      "ĠScot": 3410,
      "Ġconsider": 3411,
      "Ġ1930": 3412,
      "Ġfighting": 3413,
      "oir": 3414,
      "Ġtakes": 3415,
      "itect": 3416,
      "Ġbord": 3417,
      "ari": 3418,
      "Ġded": 3419,
      "ĠMer": 3420,
      "iva": 3421,
      "ĠDj": 3422,
      "Ġshoot": 3423,
      "ĠAlkan": 3424,
      "Ġoverall": 3425,
      "Ġ1993": 3426,
      "Ġinfluence": 3427,
      "ĠPolish": 3428,
      "ĠSecond": 3429,
      "Ġcommented": 3430,
      "Ġindustry": 3431,
      "Ġ+": 3432,
      "Ġcle": 3433,
      "Ġbomb": 3434,
      "ĠMa": 3435,
      "usband": 3436,
      "ĠPat": 3437,
      "ĠFore": 3438,
      "ĠLiver": 3439,
      "ruct": 3440,
      "ĠItal": 3441,
      "Ġserious": 3442,
      "Ġfinally": 3443,
      "Ġelection": 3444,
      "Ġbring": 3445,
      "Ġconcert": 3446,
      "Ġasked": 3447,
      "ĠNixon": 3448,
      "ĠLiverpool": 3449,
      "tained": 3450,
      "ĠTay": 3451,
      "Ġemer": 3452,
      "ĠForm": 3453,
      "Ġdeg": 3454,
      "Ġkil": 3455,
      "Ġ32": 3456,
      "Ġcompared": 3457,
      "Ġwhole": 3458,
      "Ġimm": 3459,
      "Ġmethod": 3460,
      "Ġending": 3461,
      "Ġgreater": 3462,
      "hou": 3463,
      "oly": 3464,
      "sen": 3465,
      "Ġdone": 3466,
      "ĠBC": 3467,
      "ĠGro": 3468,
      "Ġunable": 3469,
      "ĠIts": 3470,
      "ĠSever": 3471,
      "ĠTexas": 3472,
      "ĠChristm": 3473,
      "Ġmarried": 3474,
      "Ġpositions": 3475,
      "Ġdouble": 3476,
      "stitute": 3477,
      "well": 3478,
      "inent": 3479,
      "Ġour": 3480,
      "Ġinn": 3481,
      "anced": 3482,
      "ĠTre": 3483,
      "ĠTour": 3484,
      "aches": 3485,
      "ĠLady": 3486,
      "erset": 3487,
      "Ġupper": 3488,
      "Ġcann": 3489,
      "Ġbuildings": 3490,
      "ĠSomerset": 3491,
      "gian": 3492,
      "Ġtar": 3493,
      "Ġsus": 3494,
      "Ġche": 3495,
      "Ġdram": 3496,
      "ĠTropical": 3497,
      "Ġthick": 3498,
      "ĠMart": 3499,
      "Ġgot": 3500,
      "umn": 3501,
      "ills": 3502,
      "Ġyet": 3503,
      "Ġcentre": 3504,
      "Ġearned": 3505,
      "Ġflight": 3506,
      "anks": 3507,
      "ĠMosley": 3508,
      "unt": 3509,
      "Ġcounter": 3510,
      "Ġbig": 3511,
      "Ġliving": 3512,
      "ĠCour": 3513,
      "ĠMil": 3514,
      "ĠThree": 3515,
      "Ġparty": 3516,
      "Ġenv": 3517,
      "aily": 3518,
      "Ġ1996": 3519,
      "Ġ90": 3520,
      "Ġacqu": 3521,
      "Ġpersonal": 3522,
      "Ġstandard": 3523,
      "Ġissued": 3524,
      "Ġnucle": 3525,
      "Ġbegins": 3526,
      "ĠBusch": 3527,
      "Ġrapid": 3528,
      "gen": 3529,
      "Ġpurch": 3530,
      "ĠTenn": 3531,
      "Ġthrow": 3532,
      "Ġlog": 3533,
      "ĠMount": 3534,
      "Ġkind": 3535,
      "ĠStr": 3536,
      "Ġbox": 3537,
      "Ġterms": 3538,
      "Ġdirectly": 3539,
      "Ġmarked": 3540,
      "Ġmarket": 3541,
      "ittee": 3542,
      "dle": 3543,
      "Ġult": 3544,
      "ĠSk": 3545,
      "amer": 3546,
      "ĠBel": 3547,
      "ulted": 3548,
      "ĠLake": 3549,
      "Ġhero": 3550,
      "Ġhealth": 3551,
      "Ġscenes": 3552,
      "ails": 3553,
      "Ġmovement": 3554,
      "Ġbooks": 3555,
      "Ġmarriage": 3556,
      "ĠSpanish": 3557,
      "Ġstatus": 3558,
      "ĠTaylor": 3559,
      "ĠChristmas": 3560,
      "Ġdom": 3561,
      "ĠBack": 3562,
      "ĠFowler": 3563,
      "Ġconcept": 3564,
      "Ġhelped": 3565,
      "Ġportray": 3566,
      "Ġslight": 3567,
      "ĠSeveral": 3568,
      "Ġund": 3569,
      "Ġtell": 3570,
      "Ġbatter": 3571,
      "ĠJo": 3572,
      "umed": 3573,
      "istics": 3574,
      "Ġplanned": 3575,
      "Ġsched": 3576,
      "Ġstarting": 3577,
      "Ġattacks": 3578,
      "Ġschools": 3579,
      "Ġexperi": 3580,
      "ĠAfrican": 3581,
      "Ġsuffered": 3582,
      "Ġtraditional": 3583,
      "Ġinformation": 3584,
      "Ġopt": 3585,
      "itor": 3586,
      "iser": 3587,
      "Ġdig": 3588,
      "Ġdark": 3589,
      "Ġgiving": 3590,
      "ĠPit": 3591,
      "alled": 3592,
      "ĠStorm": 3593,
      "Ġjud": 3594,
      "Ġspeed": 3595,
      "Ġperformances": 3596,
      "Ġfigure": 3597,
      "Ġassociated": 3598,
      "Ġinspired": 3599,
      "ĠInfantry": 3600,
      "AS": 3601,
      "ma": 3602,
      "Ġx": 3603,
      "itude": 3604,
      "Ġdivision": 3605,
      "Ġhusband": 3606,
      "ĠTw": 3607,
      "ĠSam": 3608,
      "ĠJane": 3609,
      "Ġclosed": 3610,
      "Ġabandon": 3611,
      "athan": 3612,
      "ĠArch": 3613,
      "Ġleaders": 3614,
      "embly": 3615,
      "Ġpresented": 3616,
      "Ġcondoms": 3617,
      "Ġsource": 3618,
      "ĠParty": 3619,
      "Ġmachine": 3620,
      "ĠSoviet": 3621,
      "awn": 3622,
      "Ġmur": 3623,
      "ĠFoot": 3624,
      "Ġvia": 3625,
      "Ġpresence": 3626,
      "Ġgreatest": 3627,
      "Ġinitial": 3628,
      "ĠSeries": 3629,
      "Ġraised": 3630,
      "Ġdetermin": 3631,
      "II": 3632,
      "iant": 3633,
      "mium": 3634,
      "Ġwound": 3635,
      "ĠCross": 3636,
      "ĠBob": 3637,
      "Ġexcept": 3638,
      "Ġunit": 3639,
      "Ġroom": 3640,
      "ĠVict": 3641,
      "Ġuses": 3642,
      "Ġwriters": 3643,
      "Ġcontinue": 3644,
      "Ġnearby": 3645,
      "aught": 3646,
      "ĠParis": 3647,
      "ĠCarolina": 3648,
      "Ġeducation": 3649,
      "Ġdocument": 3650,
      "ĠRosebery": 3651,
      "ĠVirginia": 3652,
      "Ã³n": 3653,
      "ylvania": 3654,
      "ks": 3655,
      "itation": 3656,
      "Ġnorm": 3657,
      "ĠBoy": 3658,
      "ĠLive": 3659,
      "Ġplot": 3660,
      "raf": 3661,
      "Ġuns": 3662,
      "Ġdism": 3663,
      "Ġimage": 3664,
      "iami": 3665,
      "Ġcollection": 3666,
      "Ġcovered": 3667,
      "Ġcyclone": 3668,
      "ĠPenns": 3669,
      "cing": 3670,
      "oration": 3671,
      "Ġhundred": 3672,
      "Ġrein": 3673,
      "olk": 3674,
      "ĠBen": 3675,
      "ĠJam": 3676,
      "ĠJust": 3677,
      "Ġchall": 3678,
      "Ġcomposed": 3679,
      "Ġweap": 3680,
      "ĠAnt": 3681,
      "Ġcomplex": 3682,
      "Ġannual": 3683,
      "Ġservices": 3684,
      "incip": 3685,
      "ĠQueen": 3686,
      "ĠCollege": 3687,
      "erve": 3688,
      "atre": 3689,
      "Ġbodies": 3690,
      "Ġreally": 3691,
      "ĠCer": 3692,
      "ĠRob": 3693,
      "eway": 3694,
      "Ġextended": 3695,
      "Ġ1997": 3696,
      "Ġnumerous": 3697,
      "Ġpolic": 3698,
      "Ġcommander": 3699,
      "Ġcathedral": 3700,
      "Ġproducer": 3701,
      "Ġfigures": 3702,
      "Ġterritory": 3703,
      "oncÃ©": 3704,
      "ĠBeyoncÃ©": 3705,
      "bar": 3706,
      "joy": 3707,
      "ken": 3708,
      "Ġtor": 3709,
      "Ġfell": 3710,
      "Ġpark": 3711,
      "Ġpath": 3712,
      "icted": 3713,
      "Ġthings": 3714,
      "ĠSix": 3715,
      "ĠMiami": 3716,
      "etic": 3717,
      "aging": 3718,
      "Ġdepend": 3719,
      "ĠOpen": 3720,
      "essa": 3721,
      "Ġenjoy": 3722,
      "ĠGermany": 3723,
      "ĠMuseum": 3724,
      "Ġproteins": 3725,
      "Ġvocals": 3726,
      "rical": 3727,
      "erbe": 3728,
      "anded": 3729,
      "ĠNations": 3730,
      "Ġsev": 3731,
      "ift": 3732,
      "Ġ39": 3733,
      "ously": 3734,
      "Ġprep": 3735,
      "Ġsomething": 3736,
      "Ġoperation": 3737,
      "ĠClub": 3738,
      "Ġwaters": 3739,
      "anz": 3740,
      "anas": 3741,
      "ĠTheir": 3742,
      "estival": 3743,
      "Ġcompanies": 3744,
      "ĠThrough": 3745,
      "Ġhighly": 3746,
      "Ġattacked": 3747,
      "Ġattempts": 3748,
      "Ġrequest": 3749,
      "Ġmorning": 3750,
      "Ġstrength": 3751,
      "Ġinvestig": 3752,
      "ĠService": 3753,
      "ny": 3754,
      "Ġtalk": 3755,
      "Ġreject": 3756,
      "admium": 3757,
      "ĠIll": 3758,
      "Ġaspect": 3759,
      "ander": 3760,
      "ĠInn": 3761,
      "Ġdise": 3762,
      "Ġfinanc": 3763,
      "Ġtransl": 3764,
      "Ġmetal": 3765,
      "Ġconfir": 3766,
      "ĠPrince": 3767,
      "Ġera": 3768,
      "Ġindividual": 3769,
      "Ġimmediately": 3770,
      "ĠPennsylvania": 3771,
      "lim": 3772,
      "Ġpil": 3773,
      "ĠSur": 3774,
      "ĠSquadron": 3775,
      "ademy": 3776,
      "uries": 3777,
      "Ġstone": 3778,
      "ĠGames": 3779,
      "ĠInter": 3780,
      "apo": 3781,
      "Ġnecess": 3782,
      "Ġinterse": 3783,
      "Ġincor": 3784,
      "Ġartist": 3785,
      "Ġdistance": 3786,
      "Ġallowing": 3787,
      "Ġpowerful": 3788,
      "Ġsituation": 3789,
      "Ġnuclear": 3790,
      "Ġremoved": 3791,
      "Ġpiano": 3792,
      "NA": 3793,
      "mon": 3794,
      "ply": 3795,
      "vement": 3796,
      "Ġhabit": 3797,
      "olf": 3798,
      "ĠHum": 3799,
      "ĠWater": 3800,
      "Ġselected": 3801,
      "ipp": 3802,
      "Ġrecover": 3803,
      "lands": 3804,
      "Ġoffered": 3805,
      "ibly": 3806,
      "Ġstudies": 3807,
      "Ġartillery": 3808,
      "Ġinside": 3809,
      "Ġadvance": 3810,
      "Ġvariety": 3811,
      "ĠJackson": 3812,
      "Ġneeded": 3813,
      "Ġpeaked": 3814,
      "ĠScotland": 3815,
      "TV": 3816,
      "Ġhot": 3817,
      "Ġnative": 3818,
      "chan": 3819,
      "Ġattend": 3820,
      "ĠJose": 3821,
      "Ġrate": 3822,
      "ĠUnder": 3823,
      "Ġ42": 3824,
      "Ġ182": 3825,
      "Ġmeans": 3826,
      "Ġ1991": 3827,
      "ĠChris": 3828,
      "Ġcountries": 3829,
      "Ġheadquarters": 3830,
      "Ġattempted": 3831,
      "ĠSomal": 3832,
      "Ġcopies": 3833,
      "pole": 3834,
      "Ġsaf": 3835,
      "rol": 3836,
      "ĠAI": 3837,
      "adium": 3838,
      "imony": 3839,
      "ether": 3840,
      "ĠLos": 3841,
      "Ġsearch": 3842,
      "ria": 3843,
      "anta": 3844,
      "Ġkick": 3845,
      "ĠChina": 3846,
      "Ġscoring": 3847,
      "ribution": 3848,
      "Ġprincip": 3849,
      "Ġcoach": 3850,
      "Ġtracks": 3851,
      "Ġhands": 3852,
      "Ġarchitect": 3853,
      "Ġcasual": 3854,
      "Ġrespectively": 3855,
      "Ġresponsible": 3856,
      "Ġpurp": 3857,
      "track": 3858,
      "een": 3859,
      "Ġpurs": 3860,
      "Ġmole": 3861,
      "ĠMajor": 3862,
      "Ġrule": 3863,
      "ĠOut": 3864,
      "Ġ47": 3865,
      "Ġsymb": 3866,
      "Ġdescribes": 3867,
      "Ġimpact": 3868,
      "Ġadvant": 3869,
      "Ġappearances": 3870,
      "ĠAnderson": 3871,
      "ĠBoth": 3872,
      "Ġgenus": 3873,
      "Ġhigher": 3874,
      "Ġwidely": 3875,
      "ĠDepartment": 3876,
      "Ġtouchdown": 3877,
      "cer": 3878,
      "ha": 3879,
      "ĠCrit": 3880,
      "cend": 3881,
      "ĠDan": 3882,
      "andid": 3883,
      "ĠNor": 3884,
      "Ġtext": 3885,
      "anger": 3886,
      "Ġspir": 3887,
      "orship": 3888,
      "Ġ1992": 3889,
      "Ġsets": 3890,
      "Ġcontrovers": 3891,
      "Ġcourse": 3892,
      "Ġobserved": 3893,
      "ĠCorps": 3894,
      "Ġsexual": 3895,
      "ĠBraat": 3896,
      "Ġheavily": 3897,
      "ĠFootball": 3898,
      "of": 3899,
      "rey": 3900,
      "reme": 3901,
      "Ġpick": 3902,
      "oud": 3903,
      "ĠAre": 3904,
      "Ġadult": 3905,
      "Ġ44": 3906,
      "ports": 3907,
      "Ġ1994": 3908,
      "Ġrelief": 3909,
      "Ġamb": 3910,
      "Ġbelow": 3911,
      "Ġphot": 3912,
      "Ġmiddle": 3913,
      "Ġmeeting": 3914,
      "Ġreduced": 3915,
      "ĠAlex": 3916,
      "Ġxenon": 3917,
      "iny": 3918,
      "Ġintern": 3919,
      "icient": 3920,
      "Ġang": 3921,
      "ĠLi": 3922,
      "ĠLike": 3923,
      "Ġplat": 3924,
      "Ġadminist": 3925,
      "Ġresulted": 3926,
      "Ġboy": 3927,
      "Ġsecret": 3928,
      "Ġactive": 3929,
      "Ġsinger": 3930,
      "Ġmatches": 3931,
      "Ġsixth": 3932,
      "ĠMinnes": 3933,
      "ricket": 3934,
      "Ġaudience": 3935,
      "Ġconcluded": 3936,
      "ĠMinnesota": 3937,
      "aen": 3938,
      "car": 3939,
      "ga": 3940,
      "lict": 3941,
      "ship": 3942,
      "Ġsal": 3943,
      "ĠTem": 3944,
      "ĠTime": 3945,
      "ils": 3946,
      "akapo": 3947,
      "Ġtrue": 3948,
      "Ġlands": 3949,
      "ĠFranc": 3950,
      "inkel": 3951,
      "Ġactivity": 3952,
      "Ġactivities": 3953,
      "Ġcompletely": 3954,
      "ĠVictor": 3955,
      "Ġess": 3956,
      "isher": 3957,
      "ĠSouthern": 3958,
      "cts": 3959,
      "Ġstating": 3960,
      "ĠDel": 3961,
      "send": 3962,
      "Ġmanaged": 3963,
      "Ġopportun": 3964,
      "ĠCenter": 3965,
      "ĠTownsend": 3966,
      "Ġrevealed": 3967,
      "Ġcontemporary": 3968,
      "like": 3969,
      "atives": 3970,
      "Ġfill": 3971,
      "Ġhour": 3972,
      "ems": 3973,
      "ocr": 3974,
      "ĠSea": 3975,
      "Ġquality": 3976,
      "Ġgraph": 3977,
      "ĠColon": 3978,
      "Ġrefused": 3979,
      "Ġlevels": 3980,
      "Ġdeclared": 3981,
      "Ġtrees": 3982,
      "Ġseparate": 3983,
      "ĠItalian": 3984,
      "cause": 3985,
      "iated": 3986,
      "Ġbad": 3987,
      "ication": 3988,
      "ĠSir": 3989,
      "ĠMidd": 3990,
      "ĠFinkel": 3991,
      "ĠLong": 3992,
      "ologist": 3993,
      "Ġblue": 3994,
      "annel": 3995,
      "Ġconstit": 3996,
      "ĠBecause": 3997,
      "rowd": 3998,
      "ĠForce": 3999,
      "Ġdrum": 4000,
      "ĠWalpole": 4001,
      "Ġquestion": 4002,
      "ĠHawai": 4003,
      "ĠMeyerbe": 4004,
      "ĠFinkelstein": 4005,
      "ĠMeyerbeer": 4006,
      "MS": 4007,
      "iqu": 4008,
      "ining": 4009,
      "Ġtoday": 4010,
      "lement": 4011,
      "ĠTessa": 4012,
      "ĠSol": 4013,
      "ify": 4014,
      "aped": 4015,
      "Ġuniversity": 4016,
      "peror": 4017,
      "Ġrecent": 4018,
      "Ġshell": 4019,
      "athus": 4020,
      "Ġblood": 4021,
      "Ġbackground": 4022,
      "ĠShiva": 4023,
      "Ġfeaturing": 4024,
      "Ġinstit": 4025,
      "Ġcarry": 4026,
      "Ġmodel": 4027,
      "Ġapproach": 4028,
      "Ġcontrast": 4029,
      "Ġhistorical": 4030,
      "Ġtypically": 4031,
      "Ġparents": 4032,
      "ares": 4033,
      "Ġiron": 4034,
      "Ġactions": 4035,
      "Ġpaper": 4036,
      "ĠCast": 4037,
      "Ġris": 4038,
      "oph": 4039,
      "Ġexpected": 4040,
      "Ġ51": 4041,
      "ĠYue": 4042,
      "Ġ76": 4043,
      "Ġdescript": 4044,
      "Ġissues": 4045,
      "Ġconditions": 4046,
      "Ġmultip": 4047,
      "ĠSmith": 4048,
      "ĠSociety": 4049,
      "ĠOttoman": 4050,
      "ĠNicole": 4051,
      "uff": 4052,
      "Ġtax": 4053,
      "hew": 4054,
      "Ġwing": 4055,
      "alty": 4056,
      "ican": 4057,
      "Ġreception": 4058,
      "ĠMill": 4059,
      "ĠBet": 4060,
      "utch": 4061,
      "ĠWild": 4062,
      "ĠLit": 4063,
      "Ġrhy": 4064,
      "Ġcompos": 4065,
      "rawn": 4066,
      "Ġplays": 4067,
      "Ġattention": 4068,
      "Ġweaken": 4069,
      "oint": 4070,
      "Ġpeace": 4071,
      "Ġentr": 4072,
      "Ġmainly": 4073,
      "Ġefforts": 4074,
      "Ġbecomes": 4075,
      "Ġhouses": 4076,
      "force": 4077,
      "cle": 4078,
      "Ġwit": 4079,
      "Ġpow": 4080,
      "Ġnation": 4081,
      "ĠBalt": 4082,
      "ĠJim": 4083,
      "ĠEmp": 4084,
      "Ġ37": 4085,
      "Ġresidents": 4086,
      "Ġoffer": 4087,
      "ounds": 4088,
      "Ġwebs": 4089,
      "Ġspecim": 4090,
      "Ġsubs": 4091,
      "Ġgrand": 4092,
      "Ġemot": 4093,
      "Ġbrown": 4094,
      "ervation": 4095
    },
    "merges": [
      [
        "Ġ",
        "t"
      ],
      [
        "h",
        "e"
      ],
      [
        "Ġ",
        "a"
      ],
      [
        "i",
        "n"
      ],
      [
        "Ġt",
        "he"
      ],
      [
        "e",
        "r"
      ],
      [
        "o",
        "n"
      ],
      [
        "Ġ",
        ","
      ],
      [
        "r",
        "e"
      ],
      [
        "Ġ",
        "s"
      ],
      [
        "Ġ",
        "o"
      ],
      [
        "Ġ",
        "w"
      ],
      [
        "e",
        "d"
      ],
      [
        "u",
        "n"
      ],
      [
        "Ġ",
        "."
      ],
      [
        "a",
        "t"
      ],
      [
        "n",
        "d"
      ],
      [
        "o",
        "r"
      ],
      [
        "Ġ",
        "c"
      ],
      [
        "i",
        "t"
      ],
      [
        "Ġ",
        "f"
      ],
      [
        "e",
        "n"
      ],
      [
        "i",
        "s"
      ],
      [
        "Ġo",
        "f"
      ],
      [
        "e",
        "s"
      ],
      [
        "Ġ",
        "b"
      ],
      [
        "Ġ",
        "in"
      ],
      [
        "a",
        "r"
      ],
      [
        "un",
        "k"
      ],
      [
        "a",
        "n"
      ],
      [
        "Ġ",
        "<"
      ],
      [
        "a",
        "l"
      ],
      [
        "Ġa",
        "nd"
      ],
      [
        "Ġ",
        "p"
      ],
      [
        "in",
        "g"
      ],
      [
        "a",
        "s"
      ],
      [
        "Ġt",
        "o"
      ],
      [
        "Ġ",
        "m"
      ],
      [
        "r",
        "o"
      ],
      [
        "i",
        "c"
      ],
      [
        "Ġ",
        "d"
      ],
      [
        "Ġ",
        "h"
      ],
      [
        "i",
        "on"
      ],
      [
        "l",
        "e"
      ],
      [
        "Ġ",
        "T"
      ],
      [
        "Ġ",
        "="
      ],
      [
        "Ġ",
        "re"
      ],
      [
        "Ġ",
        "\""
      ],
      [
        "Ġt",
        "h"
      ],
      [
        "en",
        "t"
      ],
      [
        "o",
        "u"
      ],
      [
        "Ġ",
        "A"
      ],
      [
        "Ġ",
        "1"
      ],
      [
        "i",
        "l"
      ],
      [
        "Ġ",
        "S"
      ],
      [
        "s",
        "t"
      ],
      [
        "Ġ",
        "l"
      ],
      [
        "Ġ",
        "Ċ"
      ],
      [
        "o",
        "m"
      ],
      [
        "Ġ",
        "e"
      ],
      [
        "Ġ",
        "n"
      ],
      [
        "Ġ",
        "@"
      ],
      [
        "a",
        "m"
      ],
      [
        "Ġ",
        "C"
      ],
      [
        "e",
        "l"
      ],
      [
        "a",
        "d"
      ],
      [
        "Ġw",
        "as"
      ],
      [
        "a",
        "c"
      ],
      [
        "ĠT",
        "he"
      ],
      [
        "Ġ",
        "on"
      ],
      [
        "Ġb",
        "e"
      ],
      [
        "u",
        "r"
      ],
      [
        "l",
        "y"
      ],
      [
        "Ġ",
        "M"
      ],
      [
        "Ġ",
        "'"
      ],
      [
        "Ġ",
        "I"
      ],
      [
        "Ġ",
        "g"
      ],
      [
        "Ġf",
        "or"
      ],
      [
        "i",
        "v"
      ],
      [
        "o",
        "l"
      ],
      [
        "t",
        "er"
      ],
      [
        "Ġ",
        "B"
      ],
      [
        "-",
        "@"
      ],
      [
        "Ġ@",
        "-@"
      ],
      [
        "i",
        "m"
      ],
      [
        "i",
        "d"
      ],
      [
        "i",
        "r"
      ],
      [
        "Ġa",
        "s"
      ],
      [
        "c",
        "t"
      ],
      [
        "i",
        "g"
      ],
      [
        "t",
        "h"
      ],
      [
        "o",
        "w"
      ],
      [
        "it",
        "h"
      ],
      [
        "Ġs",
        "t"
      ],
      [
        "Ġ",
        "H"
      ],
      [
        "u",
        "s"
      ],
      [
        "Ġ",
        "2"
      ],
      [
        "a",
        "y"
      ],
      [
        "Ġth",
        "at"
      ],
      [
        "Ġw",
        "ith"
      ],
      [
        "he",
        "r"
      ],
      [
        "o",
        "t"
      ],
      [
        "c",
        "e"
      ],
      [
        "v",
        "er"
      ],
      [
        "u",
        "t"
      ],
      [
        "at",
        "ion"
      ],
      [
        "e",
        "t"
      ],
      [
        "Ġ",
        "is"
      ],
      [
        "Ġ",
        "P"
      ],
      [
        "Ġw",
        "h"
      ],
      [
        "c",
        "h"
      ],
      [
        "Ġb",
        "y"
      ],
      [
        "Ġ",
        "R"
      ],
      [
        "Ġ",
        ")"
      ],
      [
        "Ġ",
        "("
      ],
      [
        "Ġa",
        "l"
      ],
      [
        "Ġ",
        "F"
      ],
      [
        "Ġ",
        "D"
      ],
      [
        "Ġc",
        "on"
      ],
      [
        "e",
        "m"
      ],
      [
        "u",
        "l"
      ],
      [
        "Ġ",
        "W"
      ],
      [
        "Ġa",
        "t"
      ],
      [
        "Ġ",
        "it"
      ],
      [
        "Ġ1",
        "9"
      ],
      [
        "a",
        "nd"
      ],
      [
        "a",
        "in"
      ],
      [
        "ro",
        "m"
      ],
      [
        "o",
        "s"
      ],
      [
        "Ġ",
        "N"
      ],
      [
        "Ġa",
        "n"
      ],
      [
        "Ġ",
        "G"
      ],
      [
        "Ġ",
        "L"
      ],
      [
        "er",
        "s"
      ],
      [
        "Ġ",
        "he"
      ],
      [
        "es",
        "t"
      ],
      [
        "a",
        "g"
      ],
      [
        "a",
        "v"
      ],
      [
        "0",
        "0"
      ],
      [
        "Ġ",
        "J"
      ],
      [
        "Ġs",
        "e"
      ],
      [
        "u",
        "m"
      ],
      [
        "Ġd",
        "e"
      ],
      [
        "Ġh",
        "is"
      ],
      [
        "Ġ",
        "r"
      ],
      [
        "Ġf",
        "rom"
      ],
      [
        "o",
        "d"
      ],
      [
        "Ġ",
        "O"
      ],
      [
        "r",
        "i"
      ],
      [
        "Ġc",
        "om"
      ],
      [
        "Ġ",
        "E"
      ],
      [
        "p",
        "e"
      ],
      [
        "un",
        "d"
      ],
      [
        "is",
        "t"
      ],
      [
        "Ġp",
        "ro"
      ],
      [
        "i",
        "f"
      ],
      [
        "l",
        "d"
      ],
      [
        "i",
        "es"
      ],
      [
        "er",
        "e"
      ],
      [
        "or",
        "t"
      ],
      [
        "Ġ",
        "v"
      ],
      [
        "re",
        "s"
      ],
      [
        "Ġs",
        "u"
      ],
      [
        "o",
        "re"
      ],
      [
        "Ġw",
        "ere"
      ],
      [
        "il",
        "l"
      ],
      [
        "ĠI",
        "n"
      ],
      [
        "a",
        "p"
      ],
      [
        "on",
        "g"
      ],
      [
        "e",
        "w"
      ],
      [
        "o",
        "p"
      ],
      [
        "ig",
        "h"
      ],
      [
        "ic",
        "h"
      ],
      [
        "Ġo",
        "r"
      ],
      [
        "at",
        "e"
      ],
      [
        "ar",
        "t"
      ],
      [
        "al",
        "l"
      ],
      [
        "ar",
        "d"
      ],
      [
        "a",
        "k"
      ],
      [
        "Ġc",
        "h"
      ],
      [
        "b",
        "er"
      ],
      [
        "am",
        "e"
      ],
      [
        "Ġe",
        "x"
      ],
      [
        "g",
        "h"
      ],
      [
        "a",
        "b"
      ],
      [
        "u",
        "d"
      ],
      [
        "Ġp",
        "l"
      ],
      [
        "s",
        "e"
      ],
      [
        "at",
        "ed"
      ],
      [
        "an",
        "t"
      ],
      [
        "it",
        "y"
      ],
      [
        "Ġa",
        "re"
      ],
      [
        "Ġ",
        "â"
      ],
      [
        "o",
        "c"
      ],
      [
        "iv",
        "e"
      ],
      [
        "es",
        "s"
      ],
      [
        "q",
        "u"
      ],
      [
        "Ġs",
        "h"
      ],
      [
        "Ġâ",
        "Ģ"
      ],
      [
        "Ġh",
        "ad"
      ],
      [
        "Ġ",
        "k"
      ],
      [
        "ac",
        "k"
      ],
      [
        "Ġwh",
        "ich"
      ],
      [
        "u",
        "p"
      ],
      [
        "Ġ",
        "U"
      ],
      [
        "re",
        "d"
      ],
      [
        "Ġ",
        "y"
      ],
      [
        "Ġ",
        "K"
      ],
      [
        "Ġ",
        "le"
      ],
      [
        "o",
        "v"
      ],
      [
        "ou",
        "r"
      ],
      [
        "Ġn",
        "ot"
      ],
      [
        "m",
        "ent"
      ],
      [
        "as",
        "t"
      ],
      [
        "i",
        "p"
      ],
      [
        "ĠS",
        "t"
      ],
      [
        "r",
        "it"
      ],
      [
        "or",
        "d"
      ],
      [
        "e",
        "ar"
      ],
      [
        "p",
        "t"
      ],
      [
        "Ġt",
        "r"
      ],
      [
        "g",
        "e"
      ],
      [
        "al",
        "ly"
      ],
      [
        "i",
        "an"
      ],
      [
        "t",
        "her"
      ],
      [
        "o",
        "st"
      ],
      [
        "in",
        "e"
      ],
      [
        "av",
        "e"
      ],
      [
        "igh",
        "t"
      ],
      [
        "o",
        "un"
      ],
      [
        "el",
        "l"
      ],
      [
        "Ġ",
        "3"
      ],
      [
        "is",
        "h"
      ],
      [
        "c",
        "l"
      ],
      [
        "ar",
        "y"
      ],
      [
        "ĠC",
        "h"
      ],
      [
        "Ġ2",
        "00"
      ],
      [
        "u",
        "st"
      ],
      [
        "ir",
        "st"
      ],
      [
        "i",
        "a"
      ],
      [
        "Ġ",
        ";"
      ],
      [
        "p",
        "p"
      ],
      [
        "t",
        "e"
      ],
      [
        "Ġcom",
        "p"
      ],
      [
        "Ġthe",
        "ir"
      ],
      [
        "Ġb",
        "ut"
      ],
      [
        "c",
        "c"
      ],
      [
        "s",
        "o"
      ],
      [
        "ct",
        "ion"
      ],
      [
        "f",
        "ter"
      ],
      [
        "Ġf",
        "irst"
      ],
      [
        "ou",
        "s"
      ],
      [
        "u",
        "re"
      ],
      [
        "Ġit",
        "s"
      ],
      [
        "ou",
        "ld"
      ],
      [
        "r",
        "a"
      ],
      [
        "ĠâĢ",
        "ĵ"
      ],
      [
        "id",
        "e"
      ],
      [
        "Ġw",
        "he"
      ],
      [
        "Ġcon",
        "t"
      ],
      [
        "Ġa",
        "r"
      ],
      [
        "u",
        "e"
      ],
      [
        "ic",
        "al"
      ],
      [
        "om",
        "e"
      ],
      [
        "Ġ",
        "un"
      ],
      [
        "w",
        "o"
      ],
      [
        "o",
        "g"
      ],
      [
        "he",
        "d"
      ],
      [
        "Ġ2",
        "0"
      ],
      [
        "Ġ",
        ":"
      ],
      [
        "i",
        "al"
      ],
      [
        "u",
        "b"
      ],
      [
        "i",
        "e"
      ],
      [
        "Ġ",
        "her"
      ],
      [
        "Ġal",
        "so"
      ],
      [
        "it",
        "ion"
      ],
      [
        "Ġ",
        "ro"
      ],
      [
        "Ġin",
        "t"
      ],
      [
        "Ġ",
        "V"
      ],
      [
        "ow",
        "n"
      ],
      [
        "Ġc",
        "l"
      ],
      [
        "at",
        "er"
      ],
      [
        "ou",
        "t"
      ],
      [
        "ig",
        "n"
      ],
      [
        "Ġ",
        "us"
      ],
      [
        "or",
        "m"
      ],
      [
        "or",
        "k"
      ],
      [
        "Ġa",
        "b"
      ],
      [
        "Ġa",
        "d"
      ],
      [
        "o",
        "k"
      ],
      [
        "f",
        "f"
      ],
      [
        "p",
        "er"
      ],
      [
        "Ġh",
        "ave"
      ],
      [
        "ag",
        "e"
      ],
      [
        "r",
        "u"
      ],
      [
        "i",
        "re"
      ],
      [
        "ĠH",
        "e"
      ],
      [
        "Ġon",
        "e"
      ],
      [
        "as",
        "s"
      ],
      [
        "Ġh",
        "as"
      ],
      [
        "Ġre",
        "c"
      ],
      [
        "l",
        "ow"
      ],
      [
        "m",
        "er"
      ],
      [
        "im",
        "e"
      ],
      [
        "Ġbe",
        "en"
      ],
      [
        "Ġt",
        "wo"
      ],
      [
        "Ġ",
        "4"
      ],
      [
        "d",
        "u"
      ],
      [
        "Ġre",
        "s"
      ],
      [
        "ĠT",
        "h"
      ],
      [
        "Ġ1",
        "8"
      ],
      [
        ".",
        "@"
      ],
      [
        "Ġ@",
        ".@"
      ],
      [
        "Ġp",
        "er"
      ],
      [
        "on",
        "d"
      ],
      [
        "Ġ",
        "5"
      ],
      [
        "re",
        "e"
      ],
      [
        "Ġb",
        "o"
      ],
      [
        "Ġwh",
        "o"
      ],
      [
        "en",
        "ce"
      ],
      [
        "ur",
        "ing"
      ],
      [
        "ou",
        "gh"
      ],
      [
        "l",
        "and"
      ],
      [
        "t",
        "ed"
      ],
      [
        "Ġth",
        "is"
      ],
      [
        "a",
        "re"
      ],
      [
        "Ġbe",
        "c"
      ],
      [
        "i",
        "le"
      ],
      [
        "r",
        "y"
      ],
      [
        "p",
        "l"
      ],
      [
        "or",
        "y"
      ],
      [
        "an",
        "ce"
      ],
      [
        "u",
        "gh"
      ],
      [
        "e",
        "ct"
      ],
      [
        "ĠI",
        "t"
      ],
      [
        "an",
        "s"
      ],
      [
        "Ġs",
        "c"
      ],
      [
        "Ġpl",
        "ay"
      ],
      [
        "ĠA",
        "l"
      ],
      [
        "Ġthe",
        "y"
      ],
      [
        "cl",
        "ud"
      ],
      [
        "Ġy",
        "ear"
      ],
      [
        "Ġ20",
        "1"
      ],
      [
        "Ġp",
        "art"
      ],
      [
        "Ġa",
        "g"
      ],
      [
        "ad",
        "e"
      ],
      [
        "Ġd",
        "es"
      ],
      [
        "ation",
        "s"
      ],
      [
        "Ġm",
        "an"
      ],
      [
        "r",
        "ic"
      ],
      [
        "Ġo",
        "ther"
      ],
      [
        "Ġd",
        "is"
      ],
      [
        "ul",
        "t"
      ],
      [
        "Ġt",
        "e"
      ],
      [
        "el",
        "y"
      ],
      [
        "Ġa",
        "fter"
      ],
      [
        "ac",
        "h"
      ],
      [
        "Ġ",
        "j"
      ],
      [
        "Ġs",
        "er"
      ],
      [
        "Ġo",
        "ver"
      ],
      [
        "o",
        "ver"
      ],
      [
        "Ġof",
        "f"
      ],
      [
        "Ġ",
        "up"
      ],
      [
        ",",
        "@"
      ],
      [
        "Ġ@",
        ",@"
      ],
      [
        "an",
        "g"
      ],
      [
        "Ġin",
        "clud"
      ],
      [
        "Ġs",
        "p"
      ],
      [
        "ion",
        "s"
      ],
      [
        "Ġ",
        "en"
      ],
      [
        "it",
        "e"
      ],
      [
        "ur",
        "n"
      ],
      [
        "ac",
        "t"
      ],
      [
        "o",
        "und"
      ],
      [
        "oun",
        "t"
      ],
      [
        "Ġ",
        "im"
      ],
      [
        "ac",
        "e"
      ],
      [
        "ic",
        "e"
      ],
      [
        "i",
        "z"
      ],
      [
        "i",
        "b"
      ],
      [
        "w",
        "n"
      ],
      [
        "Ġo",
        "ut"
      ],
      [
        "k",
        "e"
      ],
      [
        "res",
        "s"
      ],
      [
        "Ġ",
        "Y"
      ],
      [
        "ar",
        "k"
      ],
      [
        "Ġt",
        "ime"
      ],
      [
        "Ġn",
        "e"
      ],
      [
        "Ġint",
        "o"
      ],
      [
        "Ġf",
        "in"
      ],
      [
        "Ġp",
        "re"
      ],
      [
        "Ġe",
        "v"
      ],
      [
        "c",
        "ed"
      ],
      [
        "p",
        "ort"
      ],
      [
        "w",
        "e"
      ],
      [
        "ĠO",
        "n"
      ],
      [
        "Ġs",
        "pe"
      ],
      [
        "c",
        "es"
      ],
      [
        "Ġw",
        "ould"
      ],
      [
        "Ġm",
        "ore"
      ],
      [
        "Ġs",
        "he"
      ],
      [
        "Ġcom",
        "m"
      ],
      [
        "as",
        "on"
      ],
      [
        "Ġat",
        "t"
      ],
      [
        "w",
        "ard"
      ],
      [
        "ro",
        "ugh"
      ],
      [
        "Ġal",
        "l"
      ],
      [
        "re",
        "n"
      ],
      [
        "os",
        "e"
      ],
      [
        "on",
        "e"
      ],
      [
        "a",
        "il"
      ],
      [
        "it",
        "ed"
      ],
      [
        "Ġh",
        "im"
      ],
      [
        "am",
        "p"
      ],
      [
        "Ġw",
        "e"
      ],
      [
        "ter",
        "n"
      ],
      [
        "i",
        "ed"
      ],
      [
        "en",
        "s"
      ],
      [
        "o",
        "in"
      ],
      [
        "as",
        "ed"
      ],
      [
        "Ġ",
        "6"
      ],
      [
        "ĠU",
        "n"
      ],
      [
        "Ġc",
        "ent"
      ],
      [
        "ri",
        "b"
      ],
      [
        "ĠR",
        "e"
      ],
      [
        "Ġw",
        "ork"
      ],
      [
        "ent",
        "s"
      ],
      [
        "il",
        "d"
      ],
      [
        "ĠS",
        "e"
      ],
      [
        "i",
        "x"
      ],
      [
        "Ġm",
        "e"
      ],
      [
        "o",
        "od"
      ],
      [
        "as",
        "e"
      ],
      [
        "l",
        "es"
      ],
      [
        "ing",
        "s"
      ],
      [
        "t",
        "s"
      ],
      [
        "m",
        "an"
      ],
      [
        "ro",
        "und"
      ],
      [
        "Ġ",
        "7"
      ],
      [
        "Ġf",
        "e"
      ],
      [
        "Ġthe",
        "m"
      ],
      [
        "ab",
        "le"
      ],
      [
        "i",
        "ous"
      ],
      [
        "Ġwhe",
        "n"
      ],
      [
        "Ġbe",
        "t"
      ],
      [
        "Ġs",
        "ong"
      ],
      [
        "ak",
        "e"
      ],
      [
        "or",
        "s"
      ],
      [
        "Ġse",
        "c"
      ],
      [
        "at",
        "es"
      ],
      [
        "al",
        "s"
      ],
      [
        "v",
        "el"
      ],
      [
        "ub",
        "l"
      ],
      [
        "Ġe",
        "ar"
      ],
      [
        "Ġre",
        "m"
      ],
      [
        "ĠA",
        "n"
      ],
      [
        "ol",
        "d"
      ],
      [
        "is",
        "s"
      ],
      [
        "er",
        "ed"
      ],
      [
        "Ġk",
        "n"
      ],
      [
        "f",
        "orm"
      ],
      [
        "Ġm",
        "ost"
      ],
      [
        "Ġd",
        "uring"
      ],
      [
        "g",
        "an"
      ],
      [
        "at",
        "h"
      ],
      [
        "a",
        "us"
      ],
      [
        "Ġon",
        "ly"
      ],
      [
        "f",
        "er"
      ],
      [
        "und",
        "er"
      ],
      [
        "il",
        "m"
      ],
      [
        "Ġn",
        "ew"
      ],
      [
        "Ġg",
        "ame"
      ],
      [
        "o",
        "y"
      ],
      [
        "v",
        "ed"
      ],
      [
        "em",
        "ber"
      ],
      [
        "v",
        "e"
      ],
      [
        "or",
        "th"
      ],
      [
        "ol",
        "low"
      ],
      [
        "we",
        "en"
      ],
      [
        "Ġ19",
        "9"
      ],
      [
        "re",
        "at"
      ],
      [
        "ĠA",
        "s"
      ],
      [
        "w",
        "ay"
      ],
      [
        "ou",
        "th"
      ],
      [
        "ĠA",
        "r"
      ],
      [
        "Ġ",
        "9"
      ],
      [
        "Ġ",
        "8"
      ],
      [
        "Ġre",
        "l"
      ],
      [
        "Ġc",
        "an"
      ],
      [
        "Ġab",
        "out"
      ],
      [
        "ter",
        "s"
      ],
      [
        "Ġag",
        "ain"
      ],
      [
        "Ġse",
        "ason"
      ],
      [
        "Ġth",
        "ree"
      ],
      [
        "Ġcon",
        "s"
      ],
      [
        "Ġth",
        "an"
      ],
      [
        "ĠE",
        "n"
      ],
      [
        "ic",
        "k"
      ],
      [
        "u",
        "g"
      ],
      [
        "ĠM",
        "ar"
      ],
      [
        "Ġbet",
        "ween"
      ],
      [
        "at",
        "t"
      ],
      [
        "a",
        "w"
      ],
      [
        "r",
        "al"
      ],
      [
        "Ġrec",
        "ord"
      ],
      [
        "Ġs",
        "ome"
      ],
      [
        "ation",
        "al"
      ],
      [
        "Ġ",
        "under"
      ],
      [
        "on",
        "s"
      ],
      [
        "Ġch",
        "ar"
      ],
      [
        "ct",
        "ed"
      ],
      [
        "ul",
        "ar"
      ],
      [
        "f",
        "ore"
      ],
      [
        "Ġth",
        "rough"
      ],
      [
        "in",
        "d"
      ],
      [
        "ic",
        "t"
      ],
      [
        "Ġl",
        "ater"
      ],
      [
        "h",
        "ip"
      ],
      [
        "i",
        "ew"
      ],
      [
        "Ġc",
        "ol"
      ],
      [
        "Ġn",
        "um"
      ],
      [
        "Ġ",
        "00"
      ],
      [
        "ĠC",
        "om"
      ],
      [
        "f",
        "t"
      ],
      [
        "is",
        "ion"
      ],
      [
        "Ġw",
        "rit"
      ],
      [
        "Ġwh",
        "ile"
      ],
      [
        "ĠD",
        "e"
      ],
      [
        "Ġpro",
        "du"
      ],
      [
        "Ġp",
        "os"
      ],
      [
        "Ġf",
        "ilm"
      ],
      [
        "Ġre",
        "le"
      ],
      [
        "Ġ",
        "ver"
      ],
      [
        "am",
        "es"
      ],
      [
        "Ġe",
        "nd"
      ],
      [
        "Ġin",
        "ter"
      ],
      [
        "is",
        "hed"
      ],
      [
        "Ġa",
        "p"
      ],
      [
        "e",
        "y"
      ],
      [
        "Ġp",
        "e"
      ],
      [
        "Ġm",
        "ade"
      ],
      [
        "Ġp",
        "r"
      ],
      [
        "Ġfor",
        "m"
      ],
      [
        "n",
        "ing"
      ],
      [
        "Ġf",
        "l"
      ],
      [
        "Ġre",
        "g"
      ],
      [
        "Ġas",
        "s"
      ],
      [
        "or",
        "ld"
      ],
      [
        "Ġwhe",
        "re"
      ],
      [
        "Ġs",
        "o"
      ],
      [
        "Ġspe",
        "c"
      ],
      [
        "ĠN",
        "ew"
      ],
      [
        "Ġm",
        "ov"
      ],
      [
        "e",
        "ver"
      ],
      [
        "mer",
        "ic"
      ],
      [
        "ĠA",
        "meric"
      ],
      [
        "ur",
        "y"
      ],
      [
        "Ġl",
        "ar"
      ],
      [
        "b",
        "um"
      ],
      [
        "Ġa",
        "c"
      ],
      [
        "Ġa",
        "pp"
      ],
      [
        "Ġre",
        "t"
      ],
      [
        "r",
        "on"
      ],
      [
        "Ġf",
        "ollow"
      ],
      [
        "en",
        "er"
      ],
      [
        "Ġn",
        "o"
      ],
      [
        "Ġb",
        "u"
      ],
      [
        "Ġsu",
        "ch"
      ],
      [
        "Ġde",
        "f"
      ],
      [
        "Ġsec",
        "ond"
      ],
      [
        "iv",
        "ed"
      ],
      [
        "Ġf",
        "our"
      ],
      [
        "oc",
        "k"
      ],
      [
        "a",
        "id"
      ],
      [
        "Ġm",
        "us"
      ],
      [
        "Ġ",
        "qu"
      ],
      [
        "Ġa",
        "cc"
      ],
      [
        "Ġus",
        "ed"
      ],
      [
        "Ġsu",
        "b"
      ],
      [
        "ol",
        "og"
      ],
      [
        "Ġin",
        "c"
      ],
      [
        "Ġa",
        "ct"
      ],
      [
        "i",
        "ke"
      ],
      [
        "ĠA",
        "t"
      ],
      [
        "ro",
        "p"
      ],
      [
        "Ġd",
        "ay"
      ],
      [
        "ĠTh",
        "is"
      ],
      [
        "ar",
        "s"
      ],
      [
        "ĠL",
        "e"
      ],
      [
        "Ġp",
        "ubl"
      ],
      [
        "if",
        "ic"
      ],
      [
        "Ġa",
        "m"
      ],
      [
        "u",
        "al"
      ],
      [
        "Ġc",
        "all"
      ],
      [
        "Ġal",
        "bum"
      ],
      [
        "Ġin",
        "d"
      ],
      [
        "he",
        "s"
      ],
      [
        "Ġ00",
        "0"
      ],
      [
        "Ġbe",
        "fore"
      ],
      [
        "Ġd",
        "o"
      ],
      [
        "Ġap",
        "pe"
      ],
      [
        "o",
        "b"
      ],
      [
        "il",
        "y"
      ],
      [
        "o",
        "h"
      ],
      [
        "Ġbe",
        "ing"
      ],
      [
        "an",
        "k"
      ],
      [
        "Ġg",
        "r"
      ],
      [
        "Ġc",
        "o"
      ],
      [
        "an",
        "y"
      ],
      [
        "Ġyear",
        "s"
      ],
      [
        "ĠEn",
        "g"
      ],
      [
        "Ġthe",
        "re"
      ],
      [
        "Ġsu",
        "pp"
      ],
      [
        "Ġg",
        "ro"
      ],
      [
        "e",
        "nd"
      ],
      [
        "c",
        "k"
      ],
      [
        "ow",
        "ever"
      ],
      [
        "at",
        "ing"
      ],
      [
        "an",
        "e"
      ],
      [
        "Ġf",
        "ound"
      ],
      [
        "Ġ",
        "0"
      ],
      [
        "Ġe",
        "le"
      ],
      [
        "Ġh",
        "igh"
      ],
      [
        "Ġs",
        "et"
      ],
      [
        "i",
        "el"
      ],
      [
        "Ġe",
        "p"
      ],
      [
        "if",
        "e"
      ],
      [
        "ic",
        "s"
      ],
      [
        "or",
        "n"
      ],
      [
        "he",
        "n"
      ],
      [
        "Ġs",
        "y"
      ],
      [
        "ir",
        "d"
      ],
      [
        "Ġ",
        "ent"
      ],
      [
        "ot",
        "her"
      ],
      [
        "iv",
        "er"
      ],
      [
        "Ġs",
        "ur"
      ],
      [
        "ain",
        "ed"
      ],
      [
        "Ġ1",
        "0"
      ],
      [
        "Ġser",
        "ies"
      ],
      [
        "ig",
        "in"
      ],
      [
        "Ġnum",
        "ber"
      ],
      [
        "p",
        "en"
      ],
      [
        "t",
        "en"
      ],
      [
        "l",
        "l"
      ],
      [
        "in",
        "ce"
      ],
      [
        "Ġl",
        "oc"
      ],
      [
        "aus",
        "e"
      ],
      [
        "Ġde",
        "c"
      ],
      [
        "Ġp",
        "res"
      ],
      [
        "p",
        "h"
      ],
      [
        "vel",
        "op"
      ],
      [
        "Ġbo",
        "th"
      ],
      [
        "od",
        "e"
      ],
      [
        "Ġse",
        "ver"
      ],
      [
        "it",
        "ies"
      ],
      [
        "ce",
        "pt"
      ],
      [
        "Ġ1",
        "2"
      ],
      [
        "Ġthe",
        "n"
      ],
      [
        "Ġinclud",
        "ing"
      ],
      [
        "in",
        "es"
      ],
      [
        "Ġep",
        "is"
      ],
      [
        "s",
        "on"
      ],
      [
        "ĠB",
        "rit"
      ],
      [
        "Ġ",
        "/"
      ],
      [
        "Ġagain",
        "st"
      ],
      [
        "Ġw",
        "ell"
      ],
      [
        "Ġbec",
        "ame"
      ],
      [
        "Ġkn",
        "own"
      ],
      [
        "j",
        "ect"
      ],
      [
        "ĠâĢ",
        "Ķ"
      ],
      [
        "ro",
        "s"
      ],
      [
        "is",
        "ed"
      ],
      [
        "Ġp",
        "o"
      ],
      [
        "t",
        "on"
      ],
      [
        "Ġchar",
        "ac"
      ],
      [
        "Ġad",
        "d"
      ],
      [
        "Ġper",
        "form"
      ],
      [
        "Ġdes",
        "c"
      ],
      [
        "Ġs",
        "ing"
      ],
      [
        "Ġb",
        "l"
      ],
      [
        "Ġg",
        "o"
      ],
      [
        "Ġc",
        "ap"
      ],
      [
        "Ġ19",
        "8"
      ],
      [
        "Ġd",
        "ire"
      ],
      [
        "ur",
        "ch"
      ],
      [
        "ĠJ",
        "oh"
      ],
      [
        "a",
        "j"
      ],
      [
        "Ġ1",
        "6"
      ],
      [
        "al",
        "e"
      ],
      [
        "Ġb",
        "ack"
      ],
      [
        "Ġman",
        "y"
      ],
      [
        "ĠS",
        "h"
      ],
      [
        "Ġp",
        "op"
      ],
      [
        "p",
        "r"
      ],
      [
        "Ġm",
        "ain"
      ],
      [
        "id",
        "ent"
      ],
      [
        "th",
        "ough"
      ],
      [
        "ĠUn",
        "ited"
      ],
      [
        "Ġin",
        "v"
      ],
      [
        "Ġst",
        "ud"
      ],
      [
        "it",
        "s"
      ],
      [
        "Ġl",
        "ong"
      ],
      [
        "is",
        "e"
      ],
      [
        "at",
        "her"
      ],
      [
        "u",
        "res"
      ],
      [
        "Ġtr",
        "ans"
      ],
      [
        "Ġor",
        "igin"
      ],
      [
        "i",
        "o"
      ],
      [
        "ĠJoh",
        "n"
      ],
      [
        "ĠB",
        "r"
      ],
      [
        "i",
        "et"
      ],
      [
        "er",
        "t"
      ],
      [
        "em",
        "ent"
      ],
      [
        "Ġcent",
        "ury"
      ],
      [
        "Ġm",
        "on"
      ],
      [
        "Ġte",
        "am"
      ],
      [
        "o",
        "ber"
      ],
      [
        "ĠA",
        "fter"
      ],
      [
        "o",
        "ol"
      ],
      [
        "ĠS",
        "c"
      ],
      [
        "Ġ",
        "est"
      ],
      [
        "Ġde",
        "velop"
      ],
      [
        "Ġsh",
        "ow"
      ],
      [
        "an",
        "n"
      ],
      [
        "Ġm",
        "in"
      ],
      [
        "iel",
        "d"
      ],
      [
        "e",
        "k"
      ],
      [
        "ow",
        "er"
      ],
      [
        "Ġe",
        "m"
      ],
      [
        "i",
        "er"
      ],
      [
        "el",
        "f"
      ],
      [
        "Ġ19",
        "4"
      ],
      [
        "a",
        "ir"
      ],
      [
        "ut",
        "e"
      ],
      [
        "Ġc",
        "re"
      ],
      [
        "Ġsever",
        "al"
      ],
      [
        "ĠS",
        "he"
      ],
      [
        "Ġle",
        "ad"
      ],
      [
        "u",
        "ch"
      ],
      [
        "Ġ1",
        "7"
      ],
      [
        "a",
        "red"
      ],
      [
        "Ġbe",
        "gan"
      ],
      [
        "Ġ19",
        "6"
      ],
      [
        "f",
        "ul"
      ],
      [
        "iv",
        "ers"
      ],
      [
        "er",
        "n"
      ],
      [
        "Ġ1",
        "1"
      ],
      [
        "Ġ1",
        "5"
      ],
      [
        "Ġm",
        "ill"
      ],
      [
        "Ġd",
        "if"
      ],
      [
        "Ġcont",
        "in"
      ],
      [
        "Ġ19",
        "7"
      ],
      [
        "over",
        "n"
      ],
      [
        "Ġs",
        "ign"
      ],
      [
        "u",
        "ally"
      ],
      [
        "r",
        "am"
      ],
      [
        "v",
        "iew"
      ],
      [
        "Ġs",
        "m"
      ],
      [
        "i",
        "red"
      ],
      [
        "at",
        "ive"
      ],
      [
        "Ġm",
        "ay"
      ],
      [
        "Ġsh",
        "ip"
      ],
      [
        "Ġcomp",
        "le"
      ],
      [
        "Ġb",
        "r"
      ],
      [
        "Ġc",
        "ould"
      ],
      [
        "Ġear",
        "ly"
      ],
      [
        "Ġc",
        "rit"
      ],
      [
        "Ġd",
        "id"
      ],
      [
        "Ġcall",
        "ed"
      ],
      [
        "ain",
        "s"
      ],
      [
        "Ġar",
        "t"
      ],
      [
        "Ġepis",
        "ode"
      ],
      [
        "t",
        "il"
      ],
      [
        "Ġn",
        "ear"
      ],
      [
        "Ġo",
        "b"
      ],
      [
        "ĠI",
        "nd"
      ],
      [
        "Ġhis",
        "t"
      ],
      [
        "Ġp",
        "ol"
      ],
      [
        "Ġdesc",
        "rib"
      ],
      [
        "l",
        "ed"
      ],
      [
        "Ġb",
        "el"
      ],
      [
        "em",
        "b"
      ],
      [
        "u",
        "ed"
      ],
      [
        "Ġre",
        "ce"
      ],
      [
        "op",
        "le"
      ],
      [
        "i",
        "am"
      ],
      [
        "un",
        "e"
      ],
      [
        "Ġal",
        "ong"
      ],
      [
        "Ġr",
        "un"
      ],
      [
        "in",
        "s"
      ],
      [
        "Ġt",
        "er"
      ],
      [
        "im",
        "es"
      ],
      [
        "ment",
        "s"
      ],
      [
        "Ġde",
        "p"
      ],
      [
        "Ġb",
        "ro"
      ],
      [
        "cc",
        "ess"
      ],
      [
        "Ġs",
        "aid"
      ],
      [
        "le",
        "y"
      ],
      [
        "ĠW",
        "h"
      ],
      [
        "Ġfe",
        "at"
      ],
      [
        "ĠAmeric",
        "an"
      ],
      [
        "Ġd",
        "own"
      ],
      [
        "v",
        "en"
      ],
      [
        "ĠI",
        "s"
      ],
      [
        "Ġin",
        "st"
      ],
      [
        "Ġthe",
        "se"
      ],
      [
        "ak",
        "ing"
      ],
      [
        "ĠM",
        "ay"
      ],
      [
        "d",
        "er"
      ],
      [
        "Ġm",
        "il"
      ],
      [
        "Ġd",
        "ist"
      ],
      [
        "ĠA",
        "ust"
      ],
      [
        "Ġth",
        "ough"
      ],
      [
        "g",
        "est"
      ],
      [
        "ĠG",
        "er"
      ],
      [
        "ros",
        "s"
      ],
      [
        "Ġdis",
        "c"
      ],
      [
        "y",
        "l"
      ],
      [
        "ĠBrit",
        "ish"
      ],
      [
        "Ġo",
        "per"
      ],
      [
        "Ġun",
        "til"
      ],
      [
        "Ġ",
        "Z"
      ],
      [
        "ov",
        "e"
      ],
      [
        "t",
        "ing"
      ],
      [
        "o",
        "ot"
      ],
      [
        "Ġst",
        "art"
      ],
      [
        "an",
        "c"
      ],
      [
        "Ġc",
        "ity"
      ],
      [
        "Ġs",
        "ame"
      ],
      [
        "r",
        "ap"
      ],
      [
        "Ġin",
        "f"
      ],
      [
        "u",
        "red"
      ],
      [
        "Ġpre",
        "v"
      ],
      [
        "Ġrele",
        "ased"
      ],
      [
        "el",
        "s"
      ],
      [
        "Ġg",
        "ener"
      ],
      [
        "t",
        "y"
      ],
      [
        "an",
        "ge"
      ],
      [
        "Ġex",
        "p"
      ],
      [
        "Ġo",
        "wn"
      ],
      [
        "iz",
        "ed"
      ],
      [
        "Ġan",
        "y"
      ],
      [
        "Ġret",
        "urn"
      ],
      [
        "te",
        "nd"
      ],
      [
        "am",
        "ed"
      ],
      [
        "ĠThe",
        "y"
      ],
      [
        "i",
        "ally"
      ],
      [
        "ĠW",
        "ar"
      ],
      [
        "Ġk",
        "m"
      ],
      [
        "id",
        "ed"
      ],
      [
        "Ġl",
        "and"
      ],
      [
        "Ġdes",
        "ign"
      ],
      [
        "Ġw",
        "ar"
      ],
      [
        "Ġre",
        "p"
      ],
      [
        "Ġmus",
        "ic"
      ],
      [
        "Ġpro",
        "v"
      ],
      [
        "Ġim",
        "p"
      ],
      [
        "Ġmill",
        "ion"
      ],
      [
        "Ġbec",
        "ause"
      ],
      [
        "Ġare",
        "a"
      ],
      [
        "Ġus",
        "e"
      ],
      [
        "aj",
        "or"
      ],
      [
        "ĠC",
        "on"
      ],
      [
        "Ġc",
        "ar"
      ],
      [
        "Ġf",
        "am"
      ],
      [
        "Ġa",
        "ir"
      ],
      [
        "a",
        "z"
      ],
      [
        "ĠA",
        "ug"
      ],
      [
        "ĠAug",
        "ust"
      ],
      [
        "om",
        "an"
      ],
      [
        "Ġl",
        "ike"
      ],
      [
        "Ġo",
        "pen"
      ],
      [
        "Ġsu",
        "ccess"
      ],
      [
        "Ġm",
        "at"
      ],
      [
        "os",
        "ed"
      ],
      [
        "Ġs",
        "im"
      ],
      [
        "ĠF",
        "r"
      ],
      [
        "ĠCh",
        "r"
      ],
      [
        "Ġo",
        "cc"
      ],
      [
        "ers",
        "on"
      ],
      [
        "in",
        "k"
      ],
      [
        "e",
        "p"
      ],
      [
        "en",
        "n"
      ],
      [
        "Ġcon",
        "st"
      ],
      [
        "o",
        "ok"
      ],
      [
        "Ġpe",
        "ople"
      ],
      [
        "ul",
        "l"
      ],
      [
        "Ġe",
        "ff"
      ],
      [
        "h",
        "y"
      ],
      [
        "i",
        "um"
      ],
      [
        "Ġin",
        "s"
      ],
      [
        "Ġp",
        "ass"
      ],
      [
        "ch",
        "ool"
      ],
      [
        "Ġoff",
        "ic"
      ],
      [
        "st",
        "em"
      ],
      [
        "ib",
        "le"
      ],
      [
        "x",
        "t"
      ],
      [
        "Ġs",
        "ix"
      ],
      [
        "Ġc",
        "ount"
      ],
      [
        "Ġ19",
        "5"
      ],
      [
        "Ġsupp",
        "ort"
      ],
      [
        "ĠB",
        "l"
      ],
      [
        "ĠB",
        "e"
      ],
      [
        "Ġa",
        "round"
      ],
      [
        "m",
        "y"
      ],
      [
        "ĠH",
        "owever"
      ],
      [
        "Ġsm",
        "all"
      ],
      [
        "a",
        "h"
      ],
      [
        "Ġw",
        "in"
      ],
      [
        "Ġ",
        "%"
      ],
      [
        "ĠSe",
        "pt"
      ],
      [
        "u",
        "c"
      ],
      [
        "Ġn",
        "orth"
      ],
      [
        "Ġad",
        "v"
      ],
      [
        "Ġd",
        "am"
      ],
      [
        "Ġgro",
        "up"
      ],
      [
        "Ġst",
        "r"
      ],
      [
        "ĠC",
        "ar"
      ],
      [
        "Ġp",
        "oin"
      ],
      [
        "Ġe",
        "ach"
      ],
      [
        "ĠSept",
        "ember"
      ],
      [
        "u",
        "es"
      ],
      [
        "on",
        "y"
      ],
      [
        "Ġcons",
        "id"
      ],
      [
        "Ġm",
        "et"
      ],
      [
        "ou",
        "se"
      ],
      [
        "Ġfollow",
        "ing"
      ],
      [
        "ĠP",
        "l"
      ],
      [
        "Ġcharac",
        "ter"
      ],
      [
        "ĠJ",
        "u"
      ],
      [
        "er",
        "v"
      ],
      [
        "ist",
        "s"
      ],
      [
        "ward",
        "s"
      ],
      [
        "ĠW",
        "orld"
      ],
      [
        "Ġl",
        "ife"
      ],
      [
        "m",
        "s"
      ],
      [
        "Ġ",
        "ed"
      ],
      [
        "ĠAust",
        "ral"
      ],
      [
        "Ġhe",
        "ad"
      ],
      [
        "Ġ1",
        "3"
      ],
      [
        "ain",
        "ing"
      ],
      [
        "Ġf",
        "ive"
      ],
      [
        "Ġm",
        "od"
      ],
      [
        "Ġcont",
        "ro"
      ],
      [
        "Ġg",
        "overn"
      ],
      [
        "Ġatt",
        "ack"
      ],
      [
        "o",
        "le"
      ],
      [
        "Ġ19",
        "3"
      ],
      [
        "ord",
        "ing"
      ],
      [
        "ĠCom",
        "m"
      ],
      [
        "i",
        "ent"
      ],
      [
        "al",
        "es"
      ],
      [
        "Ġv",
        "ar"
      ],
      [
        "os",
        "s"
      ],
      [
        "u",
        "th"
      ],
      [
        "ĠAl",
        "l"
      ],
      [
        "Ġw",
        "ill"
      ],
      [
        "ĠT",
        "e"
      ],
      [
        "Ġlar",
        "ge"
      ],
      [
        "Ġe",
        "ver"
      ],
      [
        "ut",
        "ion"
      ],
      [
        "et",
        "s"
      ],
      [
        "Ġ19",
        "1"
      ],
      [
        "ĠI",
        "I"
      ],
      [
        "ĠH",
        "er"
      ],
      [
        "Ġg",
        "u"
      ],
      [
        "ĠC",
        "ol"
      ],
      [
        "Ġan",
        "n"
      ],
      [
        "Ġre",
        "port"
      ],
      [
        "ro",
        "w"
      ],
      [
        "Ġcon",
        "c"
      ],
      [
        "ag",
        "ue"
      ],
      [
        "ur",
        "al"
      ],
      [
        "ĠU",
        "S"
      ],
      [
        "ĠM",
        "e"
      ],
      [
        "ĠC",
        "l"
      ],
      [
        "ro",
        "te"
      ],
      [
        "l",
        "ish"
      ],
      [
        "ĠJ",
        "une"
      ],
      [
        "Ġbo",
        "ok"
      ],
      [
        "ĠN",
        "orth"
      ],
      [
        "av",
        "ing"
      ],
      [
        "ac",
        "ed"
      ],
      [
        "ĠE",
        "u"
      ],
      [
        "as",
        "h"
      ],
      [
        "ĠF",
        "or"
      ],
      [
        "Ġt",
        "it"
      ],
      [
        "ĠGer",
        "man"
      ],
      [
        "d",
        "om"
      ],
      [
        "Ġs",
        "ince"
      ],
      [
        "ĠSt",
        "ates"
      ],
      [
        "i",
        "k"
      ],
      [
        "Ġp",
        "rom"
      ],
      [
        "Ġs",
        "outh"
      ],
      [
        "Ġrece",
        "ived"
      ],
      [
        "Ġm",
        "ajor"
      ],
      [
        "Ġfin",
        "al"
      ],
      [
        "il",
        "t"
      ],
      [
        "m",
        "ed"
      ],
      [
        "p",
        "ed"
      ],
      [
        "Ġn",
        "ame"
      ],
      [
        "at",
        "ely"
      ],
      [
        "iv",
        "ision"
      ],
      [
        "ĠJ",
        "an"
      ],
      [
        "ĠA",
        "d"
      ],
      [
        "pe",
        "ct"
      ],
      [
        "ĠO",
        "ct"
      ],
      [
        "Ġpart",
        "ic"
      ],
      [
        "Ġsy",
        "stem"
      ],
      [
        "ĠS",
        "outh"
      ],
      [
        "Ġpubl",
        "ic"
      ],
      [
        "Ġc",
        "are"
      ],
      [
        "Ġst",
        "ate"
      ],
      [
        "Ġd",
        "r"
      ],
      [
        "ĠChr",
        "ist"
      ],
      [
        "Ġwh",
        "at"
      ],
      [
        "ĠK",
        "ing"
      ],
      [
        "iv",
        "es"
      ],
      [
        "Ġdire",
        "ct"
      ],
      [
        "u",
        "ary"
      ],
      [
        "Ġl",
        "ast"
      ],
      [
        "Ġhe",
        "l"
      ],
      [
        "Ġdescrib",
        "ed"
      ],
      [
        "t",
        "le"
      ],
      [
        "he",
        "l"
      ],
      [
        "Ġex",
        "t"
      ],
      [
        "ĠOct",
        "ober"
      ],
      [
        "ore",
        "d"
      ],
      [
        "Ġ1",
        "4"
      ],
      [
        "Ġl",
        "ine"
      ],
      [
        "Ġ",
        "$"
      ],
      [
        "Ġappe",
        "ar"
      ],
      [
        "Ġre",
        "st"
      ],
      [
        "ĠC",
        "an"
      ],
      [
        "Ġb",
        "att"
      ],
      [
        "Ġwe",
        "ek"
      ],
      [
        "Ġplay",
        "ed"
      ],
      [
        "c",
        "ess"
      ],
      [
        "Ġcl",
        "ass"
      ],
      [
        "Ġbu",
        "ild"
      ],
      [
        "Ġinc",
        "re"
      ],
      [
        "Ġto",
        "ok"
      ],
      [
        "rop",
        "ical"
      ],
      [
        "Ġn",
        "ow"
      ],
      [
        "ĠF",
        "e"
      ],
      [
        "ĠN",
        "ov"
      ],
      [
        "ar",
        "l"
      ],
      [
        "Ġ",
        "["
      ],
      [
        "Ġ",
        "]"
      ],
      [
        "ĠY",
        "ork"
      ],
      [
        "g",
        "in"
      ],
      [
        "Ġw",
        "orld"
      ],
      [
        "ag",
        "ed"
      ],
      [
        "ĠJu",
        "ly"
      ],
      [
        "Ġw",
        "rote"
      ],
      [
        "Ġl",
        "ate"
      ],
      [
        "ag",
        "es"
      ],
      [
        ".",
        "."
      ],
      [
        "ĠT",
        "r"
      ],
      [
        "iv",
        "ing"
      ],
      [
        "em",
        "pt"
      ],
      [
        "Ã",
        "©"
      ],
      [
        "ion",
        "al"
      ],
      [
        "b",
        "le"
      ],
      [
        "Ġw",
        "on"
      ],
      [
        "Ġspec",
        "ies"
      ],
      [
        "olog",
        "y"
      ],
      [
        "ide",
        "o"
      ],
      [
        "Ġst",
        "ru"
      ],
      [
        "a",
        "im"
      ],
      [
        "Ġch",
        "ild"
      ],
      [
        "Ġ.",
        ".."
      ],
      [
        "Ġm",
        "uch"
      ],
      [
        "Ġ2",
        "5"
      ],
      [
        "ĠD",
        "uring"
      ],
      [
        "Ġd",
        "ue"
      ],
      [
        "od",
        "y"
      ],
      [
        "if",
        "ied"
      ],
      [
        "Ġser",
        "v"
      ],
      [
        "ĠA",
        "pr"
      ],
      [
        "Ġsing",
        "le"
      ],
      [
        "ĠApr",
        "il"
      ],
      [
        "Ġc",
        "amp"
      ],
      [
        "Ġal",
        "low"
      ],
      [
        "at",
        "s"
      ],
      [
        "i",
        "od"
      ],
      [
        "m",
        "in"
      ],
      [
        "ĠG",
        "u"
      ],
      [
        "Ġsh",
        "ort"
      ],
      [
        "Ġp",
        "ort"
      ],
      [
        "Ġde",
        "ath"
      ],
      [
        "Ġver",
        "s"
      ],
      [
        "Ġj",
        "ust"
      ],
      [
        "b",
        "all"
      ],
      [
        "Ġt",
        "y"
      ],
      [
        "Ġm",
        "ar"
      ],
      [
        "Ġan",
        "other"
      ],
      [
        "Ġinclud",
        "ed"
      ],
      [
        "ĠEu",
        "ro"
      ],
      [
        "Ġpos",
        "s"
      ],
      [
        "ĠJan",
        "uary"
      ],
      [
        "Ġo",
        "ld"
      ],
      [
        "il",
        "ity"
      ],
      [
        "iv",
        "ely"
      ],
      [
        "Ġst",
        "orm"
      ],
      [
        "g",
        "et"
      ],
      [
        "Ġev",
        "en"
      ],
      [
        "Ġdif",
        "fer"
      ],
      [
        "Ġg",
        "un"
      ],
      [
        "Ġwith",
        "in"
      ],
      [
        "ĠEng",
        "land"
      ],
      [
        "Ġl",
        "ist"
      ],
      [
        "iss",
        "ion"
      ],
      [
        "Ġle",
        "ft"
      ],
      [
        "Ġres",
        "ult"
      ],
      [
        "is",
        "m"
      ],
      [
        "om",
        "in"
      ],
      [
        "Ġpos",
        "ition"
      ],
      [
        "Ġn",
        "amed"
      ],
      [
        "Ġb",
        "ased"
      ],
      [
        "Ġest",
        "ab"
      ],
      [
        "Ġ",
        "if"
      ],
      [
        "Ġcon",
        "f"
      ],
      [
        "ant",
        "s"
      ],
      [
        "Ġar",
        "r"
      ],
      [
        "Ġal",
        "though"
      ],
      [
        "Ġv",
        "is"
      ],
      [
        "Ġpro",
        "g"
      ],
      [
        "Ġatt",
        "empt"
      ],
      [
        "a",
        "x"
      ],
      [
        "on",
        "t"
      ],
      [
        "Ġ3",
        "0"
      ],
      [
        "Ġver",
        "y"
      ],
      [
        "Ġapp",
        "ro"
      ],
      [
        "in",
        "a"
      ],
      [
        "Ġth",
        "ird"
      ],
      [
        "Ġg",
        "ames"
      ],
      [
        "b",
        "y"
      ],
      [
        "it",
        "al"
      ],
      [
        "Ġto",
        "p"
      ],
      [
        "Ġre",
        "f"
      ],
      [
        "ĠA",
        "nd"
      ],
      [
        "ak",
        "es"
      ],
      [
        "Ġbel",
        "ie"
      ],
      [
        "Ġtr",
        "ack"
      ],
      [
        "ction",
        "s"
      ],
      [
        "ĠMar",
        "ch"
      ],
      [
        "n",
        "er"
      ],
      [
        "p",
        "le"
      ],
      [
        "Ġl",
        "it"
      ],
      [
        "ĠG",
        "r"
      ],
      [
        "Ġprev",
        "ious"
      ],
      [
        "Ġfam",
        "ily"
      ],
      [
        "ĠM",
        "us"
      ],
      [
        "ĠP",
        "ro"
      ],
      [
        "ĠNov",
        "ember"
      ],
      [
        "Ġp",
        "ower"
      ],
      [
        "Ġt",
        "ri"
      ],
      [
        "Ġre",
        "view"
      ],
      [
        "Ġper",
        "iod"
      ],
      [
        "Ġev",
        "ent"
      ],
      [
        "Ġ",
        "Q"
      ],
      [
        "Ġb",
        "est"
      ],
      [
        "Ġh",
        "ome"
      ],
      [
        "ĠG",
        "e"
      ],
      [
        "m",
        "ber"
      ],
      [
        "Ġw",
        "ay"
      ],
      [
        "il",
        "ar"
      ],
      [
        "ur",
        "ric"
      ],
      [
        "Ġs",
        "chool"
      ],
      [
        "Ġres",
        "p"
      ],
      [
        "ĠR",
        "o"
      ],
      [
        "ĠEuro",
        "pe"
      ],
      [
        "Ġw",
        "ater"
      ],
      [
        "ĠH",
        "is"
      ],
      [
        "Ġgovern",
        "ment"
      ],
      [
        "an",
        "ces"
      ],
      [
        "og",
        "rap"
      ],
      [
        "ent",
        "ly"
      ],
      [
        "ce",
        "mber"
      ],
      [
        "Ġex",
        "pl"
      ],
      [
        "ĠDe",
        "cember"
      ],
      [
        "Ġ19",
        "2"
      ],
      [
        "Ġm",
        "en"
      ],
      [
        "re",
        "t"
      ],
      [
        "Ġth",
        "ose"
      ],
      [
        "av",
        "y"
      ],
      [
        "ra",
        "ft"
      ],
      [
        "ĠThe",
        "re"
      ],
      [
        "ĠB",
        "y"
      ],
      [
        "g",
        "er"
      ],
      [
        "Ġt",
        "urn"
      ],
      [
        "Ġconst",
        "ru"
      ],
      [
        "i",
        "ence"
      ],
      [
        "Ġh",
        "um"
      ],
      [
        "Ġpl",
        "ace"
      ],
      [
        "ĠC",
        "ity"
      ],
      [
        "ul",
        "ation"
      ],
      [
        "Ġor",
        "gan"
      ],
      [
        "Ġs",
        "l"
      ],
      [
        "Ġbu",
        "ilt"
      ],
      [
        "at",
        "ure"
      ],
      [
        "Ġb",
        "re"
      ],
      [
        "pe",
        "nd"
      ],
      [
        "ard",
        "s"
      ],
      [
        "ur",
        "ther"
      ],
      [
        "Ġg",
        "reat"
      ],
      [
        "ian",
        "s"
      ],
      [
        "id",
        "es"
      ],
      [
        "Ġst",
        "ory"
      ],
      [
        "Ġpro",
        "te"
      ],
      [
        "Ġcomm",
        "and"
      ],
      [
        "ac",
        "hed"
      ],
      [
        "Ġk",
        "ill"
      ],
      [
        "Ġmon",
        "th"
      ],
      [
        "ĠW",
        "hen"
      ],
      [
        "Ġcol",
        "le"
      ],
      [
        "c",
        "hed"
      ],
      [
        "he",
        "st"
      ],
      [
        "Ġs",
        "ent"
      ],
      [
        "Ġp",
        "erson"
      ],
      [
        "Ġorigin",
        "al"
      ],
      [
        "ri",
        "pt"
      ],
      [
        "ivers",
        "ity"
      ],
      [
        "it",
        "ary"
      ],
      [
        "Ġm",
        "ake"
      ],
      [
        "Ġh",
        "and"
      ],
      [
        "Ġo",
        "pp"
      ],
      [
        "ed",
        "er"
      ],
      [
        "Ġ1",
        "00"
      ],
      [
        "Ġ200",
        "9"
      ],
      [
        "Ġ201",
        "0"
      ],
      [
        "Ġm",
        "ed"
      ],
      [
        "Ġv",
        "ideo"
      ],
      [
        "ĠN",
        "ational"
      ],
      [
        "Ġ",
        "Â"
      ],
      [
        "Ġ200",
        "8"
      ],
      [
        "Ġa",
        "uth"
      ],
      [
        "Ġre",
        "qu"
      ],
      [
        "Ġh",
        "al"
      ],
      [
        "ent",
        "ion"
      ],
      [
        "Ġpres",
        "ent"
      ],
      [
        "oc",
        "i"
      ],
      [
        "a",
        "ur"
      ],
      [
        "p",
        "or"
      ],
      [
        "Ġm",
        "ark"
      ],
      [
        "Ġp",
        "h"
      ],
      [
        "Ġsu",
        "g"
      ],
      [
        "h",
        "am"
      ],
      [
        "Ġcl",
        "ub"
      ],
      [
        "Ġen",
        "g"
      ],
      [
        "en",
        "ces"
      ],
      [
        "ri",
        "end"
      ],
      [
        "iv",
        "en"
      ],
      [
        "as",
        "ter"
      ],
      [
        "el",
        "t"
      ],
      [
        "en",
        "e"
      ],
      [
        "Ġv",
        "iew"
      ],
      [
        "ĠM",
        "c"
      ],
      [
        "ic",
        "ally"
      ],
      [
        "s",
        "elf"
      ],
      [
        "ĠR",
        "iver"
      ],
      [
        "Ġmov",
        "ed"
      ],
      [
        "Ġl",
        "ed"
      ],
      [
        "Ġro",
        "le"
      ],
      [
        "Ġadd",
        "ition"
      ],
      [
        "Ġcap",
        "t"
      ],
      [
        "Ġst",
        "and"
      ],
      [
        "Ġst",
        "ill"
      ],
      [
        "Ġc",
        "ame"
      ],
      [
        "Ġle",
        "g"
      ],
      [
        "Ġloc",
        "al"
      ],
      [
        "Ġis",
        "s"
      ],
      [
        "Ġre",
        "pl"
      ],
      [
        "ren",
        "ch"
      ],
      [
        "g",
        "y"
      ],
      [
        "en",
        "se"
      ],
      [
        "ĠP",
        "r"
      ],
      [
        "a",
        "ff"
      ],
      [
        "Ġof",
        "ten"
      ],
      [
        "Ġhist",
        "ory"
      ],
      [
        "urric",
        "ane"
      ],
      [
        "Ġcomm",
        "on"
      ],
      [
        "Ġc",
        "aus"
      ],
      [
        "Ġd",
        "est"
      ],
      [
        "iv",
        "al"
      ],
      [
        "ĠW",
        "e"
      ],
      [
        "Ġc",
        "our"
      ],
      [
        "a",
        "e"
      ],
      [
        "is",
        "on"
      ],
      [
        "ĠM",
        "an"
      ],
      [
        "Ġd",
        "em"
      ],
      [
        "ak",
        "en"
      ],
      [
        "Ġeff",
        "ect"
      ],
      [
        "er",
        "y"
      ],
      [
        "Ġf",
        "ew"
      ],
      [
        "b",
        "e"
      ],
      [
        "ĠB",
        "o"
      ],
      [
        "ad",
        "y"
      ],
      [
        "ĠN",
        "o"
      ],
      [
        "op",
        "s"
      ],
      [
        "Ġ200",
        "7"
      ],
      [
        "Ġne",
        "xt"
      ],
      [
        "Ġconsid",
        "ered"
      ],
      [
        "ĠF",
        "l"
      ],
      [
        "Ġtr",
        "ad"
      ],
      [
        "or",
        "ies"
      ],
      [
        "en",
        "g"
      ],
      [
        "Ġplay",
        "er"
      ],
      [
        "Ġsug",
        "gest"
      ],
      [
        "l",
        "ing"
      ],
      [
        "le",
        "v"
      ],
      [
        "Ġst",
        "ar"
      ],
      [
        "as",
        "tern"
      ],
      [
        "ĠS",
        "p"
      ],
      [
        "ĠF",
        "rench"
      ],
      [
        "Ġex",
        "per"
      ],
      [
        "s",
        "ide"
      ],
      [
        "Ġm",
        "y"
      ],
      [
        "Ġsim",
        "ilar"
      ],
      [
        "Ġcare",
        "er"
      ],
      [
        "ĠOn",
        "e"
      ],
      [
        "Ġrecord",
        "ed"
      ],
      [
        "ĠEng",
        "lish"
      ],
      [
        "Ġs",
        "ide"
      ],
      [
        "us",
        "s"
      ],
      [
        "Ġr",
        "ight"
      ],
      [
        "ĠP",
        "e"
      ],
      [
        "in",
        "ed"
      ],
      [
        "Ġc",
        "r"
      ],
      [
        "Ġin",
        "it"
      ],
      [
        "le",
        "t"
      ],
      [
        "Ġim",
        "port"
      ],
      [
        "Ġre",
        "al"
      ],
      [
        "ĠO",
        "r"
      ],
      [
        "Ġcl",
        "aim"
      ],
      [
        "qu",
        "e"
      ],
      [
        "ĠB",
        "att"
      ],
      [
        "Ġcomp",
        "any"
      ],
      [
        "a",
        "i"
      ],
      [
        "Ġc",
        "over"
      ],
      [
        "Ġpubl",
        "ished"
      ],
      [
        "ĠB",
        "ro"
      ],
      [
        "Ġde",
        "b"
      ],
      [
        "Ġcontin",
        "ued"
      ],
      [
        "Ġcont",
        "r"
      ],
      [
        "re",
        "w"
      ],
      [
        "ar",
        "n"
      ],
      [
        "id",
        "ge"
      ],
      [
        "Ġre",
        "fer"
      ],
      [
        "Ġy",
        "ou"
      ],
      [
        "Ġt",
        "ake"
      ],
      [
        "Ġb",
        "as"
      ],
      [
        "Ġwith",
        "out"
      ],
      [
        "Ġs",
        "old"
      ],
      [
        "Ġm",
        "id"
      ],
      [
        "ĠP",
        "h"
      ],
      [
        "tern",
        "ational"
      ],
      [
        "Ġsong",
        "s"
      ],
      [
        "Ġdiffer",
        "ent"
      ],
      [
        "Ġs",
        "ay"
      ],
      [
        "Ġto",
        "wn"
      ],
      [
        "Ġfor",
        "mer"
      ],
      [
        "ĠW",
        "ith"
      ],
      [
        "Ġan",
        "t"
      ],
      [
        "i",
        "or"
      ],
      [
        "Ġw",
        "ind"
      ],
      [
        "Ġhe",
        "ld"
      ],
      [
        "ĠCom",
        "p"
      ],
      [
        "at",
        "ter"
      ],
      [
        "is",
        "ter"
      ],
      [
        "ut",
        "ed"
      ],
      [
        "ĠA",
        "cc"
      ],
      [
        "Ġam",
        "ong"
      ],
      [
        "n",
        "ess"
      ],
      [
        "Ġm",
        "emb"
      ],
      [
        "Ġle",
        "vel"
      ],
      [
        "l",
        "u"
      ],
      [
        "Ġto",
        "t"
      ],
      [
        "Ġar",
        "ch"
      ],
      [
        "Ġro",
        "ad"
      ],
      [
        "Ġt",
        "em"
      ],
      [
        "Ġpol",
        "it"
      ],
      [
        "Ġf",
        "ield"
      ],
      [
        "g",
        "ed"
      ],
      [
        "Ġwrit",
        "ten"
      ],
      [
        "ar",
        "ch"
      ],
      [
        "th",
        "ing"
      ],
      [
        "ĠSt",
        "ate"
      ],
      [
        "b",
        "s"
      ],
      [
        "Ġpl",
        "an"
      ],
      [
        "Ġever",
        "y"
      ],
      [
        "p",
        "s"
      ],
      [
        "Ġ",
        "es"
      ],
      [
        "ĠP",
        "ort"
      ],
      [
        "Ġhal",
        "f"
      ],
      [
        "al",
        "k"
      ],
      [
        "Ġ2",
        "1"
      ],
      [
        "ĠD",
        "ivision"
      ],
      [
        "amp",
        "ions"
      ],
      [
        "Ġt",
        "w"
      ],
      [
        "Ġ201",
        "1"
      ],
      [
        "Ġrele",
        "ase"
      ],
      [
        "res",
        "ent"
      ],
      [
        "v",
        "es"
      ],
      [
        "es",
        "tern"
      ],
      [
        "im",
        "ent"
      ],
      [
        "ĠW",
        "ill"
      ],
      [
        "e",
        "ad"
      ],
      [
        "Ġbec",
        "ome"
      ],
      [
        "Ġa",
        "v"
      ],
      [
        "Ġf",
        "urther"
      ],
      [
        "Ġm",
        "ag"
      ],
      [
        "Ġ200",
        "6"
      ],
      [
        "Ġcomm",
        "un"
      ],
      [
        "tend",
        "ed"
      ],
      [
        "ĠAcc",
        "ording"
      ],
      [
        "ĠAl",
        "though"
      ],
      [
        "ens",
        "ive"
      ],
      [
        "Ġw",
        "est"
      ],
      [
        "Ġh",
        "owever"
      ],
      [
        "Ġch",
        "urch"
      ],
      [
        "Ġ2",
        "3"
      ],
      [
        "Ġday",
        "s"
      ],
      [
        "Ġstr",
        "ong"
      ],
      [
        "ĠCan",
        "ad"
      ],
      [
        "y",
        "le"
      ],
      [
        "it",
        "ar"
      ],
      [
        "Ġe",
        "ast"
      ],
      [
        "Ġfin",
        "d"
      ],
      [
        "Ġvers",
        "ion"
      ],
      [
        "ro",
        "y"
      ],
      [
        "le",
        "ar"
      ],
      [
        "Ġj",
        "oin"
      ],
      [
        "un",
        "g"
      ],
      [
        "b",
        "r"
      ],
      [
        "b",
        "ru"
      ],
      [
        "Ġ",
        "&"
      ],
      [
        "ot",
        "t"
      ],
      [
        "ri",
        "ed"
      ],
      [
        "ĠCh",
        "urch"
      ],
      [
        "Ġcomp",
        "et"
      ],
      [
        "Ġtit",
        "le"
      ],
      [
        "ĠC",
        "ount"
      ],
      [
        "Ġpartic",
        "ular"
      ],
      [
        "n",
        "e"
      ],
      [
        "p",
        "ite"
      ],
      [
        "m",
        "p"
      ],
      [
        "Ġl",
        "ow"
      ],
      [
        "Ġmil",
        "itary"
      ],
      [
        "Ġp",
        "ar"
      ],
      [
        "Ġd",
        "el"
      ],
      [
        "p",
        "ar"
      ],
      [
        "Ġbe",
        "h"
      ],
      [
        "ro",
        "du"
      ],
      [
        "ĠR",
        "oman"
      ],
      [
        "Ġor",
        "der"
      ],
      [
        "ĠLe",
        "ague"
      ],
      [
        "Ġauth",
        "or"
      ],
      [
        "Ġpro",
        "p"
      ],
      [
        "ĠM",
        "in"
      ],
      [
        "Ġdef",
        "e"
      ],
      [
        "Ġcontro",
        "l"
      ],
      [
        "Ġf",
        "oot"
      ],
      [
        "al",
        "y"
      ],
      [
        "ou",
        "ther"
      ],
      [
        "ĠS",
        "ong"
      ],
      [
        "ĠFe",
        "bru"
      ],
      [
        "outher",
        "n"
      ],
      [
        "ĠFebru",
        "ary"
      ],
      [
        "ĠP",
        "er"
      ],
      [
        "ĠG",
        "ener"
      ],
      [
        "Ġt",
        "imes"
      ],
      [
        "f",
        "ric"
      ],
      [
        "Ġg",
        "ave"
      ],
      [
        "Ġ2",
        "2"
      ],
      [
        "Ġl",
        "ess"
      ],
      [
        "Ġ",
        "!"
      ],
      [
        "Ġs",
        "it"
      ],
      [
        "Ġ2",
        "6"
      ],
      [
        "Ġreport",
        "ed"
      ],
      [
        "Ġmemb",
        "ers"
      ],
      [
        "Ġf",
        "r"
      ],
      [
        "Ġb",
        "and"
      ],
      [
        "ĠD",
        "yl"
      ],
      [
        "Ġv",
        "ict"
      ],
      [
        "ra",
        "w"
      ],
      [
        "ĠDyl",
        "an"
      ],
      [
        "Ġ2",
        "4"
      ],
      [
        "ot",
        "s"
      ],
      [
        "Ġch",
        "ang"
      ],
      [
        "ĠGe",
        "or"
      ],
      [
        "Ġf",
        "ore"
      ],
      [
        "ĠA",
        "b"
      ],
      [
        "Ġn",
        "ort"
      ],
      [
        "Ġprodu",
        "ced"
      ],
      [
        "c",
        "hes"
      ],
      [
        "Ġ201",
        "2"
      ],
      [
        "lev",
        "ision"
      ],
      [
        "Ġpro",
        "f"
      ],
      [
        "Ġe",
        "l"
      ],
      [
        "Ġtot",
        "al"
      ],
      [
        "a",
        "ugh"
      ],
      [
        "ic",
        "es"
      ],
      [
        "ĠP",
        "ark"
      ],
      [
        "ĠO",
        "ld"
      ],
      [
        "ail",
        "ed"
      ],
      [
        "er",
        "ing"
      ],
      [
        "ur",
        "s"
      ],
      [
        "Ġst",
        "at"
      ],
      [
        "ĠW",
        "est"
      ],
      [
        "l",
        "ine"
      ],
      [
        "ac",
        "es"
      ],
      [
        "Ġprodu",
        "ction"
      ],
      [
        "Ġpop",
        "ular"
      ],
      [
        "iet",
        "y"
      ],
      [
        "Ġf",
        "re"
      ],
      [
        "Ġde",
        "cl"
      ],
      [
        "cept",
        "ion"
      ],
      [
        "Ġt",
        "ropical"
      ],
      [
        "ĠB",
        "ar"
      ],
      [
        "Ġn",
        "ov"
      ],
      [
        "ron",
        "t"
      ],
      [
        "her",
        "n"
      ],
      [
        "oun",
        "g"
      ],
      [
        "Ġpro",
        "ject"
      ],
      [
        "Ġs",
        "ol"
      ],
      [
        "Ġfor",
        "ces"
      ],
      [
        "ĠJ",
        "ap"
      ],
      [
        "ition",
        "s"
      ],
      [
        "Ġpoin",
        "t"
      ],
      [
        "Ġchild",
        "ren"
      ],
      [
        "ĠJap",
        "an"
      ],
      [
        "Ġc",
        "ur"
      ],
      [
        "Ġc",
        "ult"
      ],
      [
        "Ġh",
        "aving"
      ],
      [
        "ĠP",
        "ar"
      ],
      [
        "Ġinclud",
        "e"
      ],
      [
        "re",
        "en"
      ],
      [
        "Ġcrit",
        "ic"
      ],
      [
        "Ġob",
        "s"
      ],
      [
        "Ġhist",
        "or"
      ],
      [
        "pe",
        "c"
      ],
      [
        "l",
        "er"
      ],
      [
        "Ġ2",
        "8"
      ],
      [
        "Ġinv",
        "ol"
      ],
      [
        "Ġ",
        "X"
      ],
      [
        "al",
        "ion"
      ],
      [
        "Ġl",
        "ost"
      ],
      [
        "Ġinf",
        "lu"
      ],
      [
        "Ġg",
        "iven"
      ],
      [
        "Ġw",
        "ant"
      ],
      [
        "ĠAs",
        "s"
      ],
      [
        "in",
        "c"
      ],
      [
        "ress",
        "ion"
      ],
      [
        "Ġcount",
        "ry"
      ],
      [
        "s",
        "h"
      ],
      [
        "Ġt",
        "ro"
      ],
      [
        "Ġf",
        "ire"
      ],
      [
        "Ġsign",
        "ific"
      ],
      [
        "Ġrep",
        "resent"
      ],
      [
        "Ġman",
        "ag"
      ],
      [
        "a",
        "pe"
      ],
      [
        "om",
        "en"
      ],
      [
        "iz",
        "e"
      ],
      [
        "Ġ201",
        "3"
      ],
      [
        "ĠS",
        "im"
      ],
      [
        "ch",
        "n"
      ],
      [
        "Ġs",
        "ite"
      ],
      [
        "om",
        "et"
      ],
      [
        "Ġse",
        "en"
      ],
      [
        "os",
        "p"
      ],
      [
        "Ġe",
        "ight"
      ],
      [
        "ĠD",
        "es"
      ],
      [
        "Ġprog",
        "ram"
      ],
      [
        "Ġm",
        "aking"
      ],
      [
        "ĠA",
        "m"
      ],
      [
        "ver",
        "s"
      ],
      [
        "Ġne",
        "ver"
      ],
      [
        "Ġf",
        "ar"
      ],
      [
        "ĠM",
        "iss"
      ],
      [
        "Ġst",
        "ated"
      ],
      [
        "Ġestab",
        "l"
      ],
      [
        "Ġp",
        "ress"
      ],
      [
        "Ġd",
        "et"
      ],
      [
        "ĠA",
        "fric"
      ],
      [
        "Ġcom",
        "b"
      ],
      [
        "ĠE",
        "d"
      ],
      [
        "ĠGener",
        "al"
      ],
      [
        "Ġb",
        "ody"
      ],
      [
        "Ġsh",
        "ould"
      ],
      [
        "Ġa",
        "ff"
      ],
      [
        "ĠC",
        "ent"
      ],
      [
        "ĠWh",
        "ile"
      ],
      [
        "Ġmat",
        "ch"
      ],
      [
        "it",
        "her"
      ],
      [
        "Ġf",
        "act"
      ],
      [
        "pl",
        "oy"
      ],
      [
        "Ġreturn",
        "ed"
      ],
      [
        "re",
        "et"
      ],
      [
        "is",
        "ing"
      ],
      [
        "Ġp",
        "at"
      ],
      [
        "ĠD",
        "av"
      ],
      [
        "ĠUn",
        "iversity"
      ],
      [
        "ren",
        "t"
      ],
      [
        "c",
        "raft"
      ],
      [
        "Ġf",
        "em"
      ],
      [
        "en",
        "c"
      ],
      [
        "Ġor",
        "d"
      ],
      [
        "Ġf",
        "t"
      ],
      [
        "Ġp",
        "ost"
      ],
      [
        "ĠP",
        "ol"
      ],
      [
        "our",
        "s"
      ],
      [
        "ĠThe",
        "se"
      ],
      [
        "Ġ19",
        "0"
      ],
      [
        "ĠAmeric",
        "a"
      ],
      [
        "ĠE",
        "ar"
      ],
      [
        "Ġship",
        "s"
      ],
      [
        "Ġestabl",
        "ished"
      ],
      [
        "Ġs",
        "ound"
      ],
      [
        "Ġh",
        "ow"
      ],
      [
        "Ġis",
        "land"
      ],
      [
        "se",
        "qu"
      ],
      [
        "Ġear",
        "l"
      ],
      [
        "ampions",
        "hip"
      ],
      [
        "Ġpop",
        "ulation"
      ],
      [
        "Ġann",
        "oun"
      ],
      [
        "Ġre",
        "ached"
      ],
      [
        "Ġe",
        "qu"
      ],
      [
        "ĠSt",
        "e"
      ],
      [
        "Ġstru",
        "ct"
      ],
      [
        "ĠJ",
        "ack"
      ],
      [
        "Ġch",
        "art"
      ],
      [
        "Ġ5",
        "0"
      ],
      [
        "Ġa",
        "way"
      ],
      [
        "re",
        "land"
      ],
      [
        "Ġs",
        "oc"
      ],
      [
        "ad",
        "es"
      ],
      [
        "ĠI",
        "reland"
      ],
      [
        "ab",
        "ly"
      ],
      [
        "Ġnot",
        "ed"
      ],
      [
        "ĠA",
        "ir"
      ],
      [
        "ig",
        "ade"
      ],
      [
        "ĠH",
        "a"
      ],
      [
        "Ġto",
        "o"
      ],
      [
        "pl",
        "ay"
      ],
      [
        "a",
        "ul"
      ],
      [
        "o",
        "pe"
      ],
      [
        "Ġf",
        "riend"
      ],
      [
        "Ġg",
        "od"
      ],
      [
        "Ġg",
        "round"
      ],
      [
        "Ġthrough",
        "out"
      ],
      [
        "Ġac",
        "ross"
      ],
      [
        "Ġdevelop",
        "ed"
      ],
      [
        "Ġthough",
        "t"
      ],
      [
        "Ġl",
        "ight"
      ],
      [
        "ĠE",
        "v"
      ],
      [
        "f",
        "ic"
      ],
      [
        "o",
        "x"
      ],
      [
        "Ġse",
        "ven"
      ],
      [
        "m",
        "e"
      ],
      [
        "Ġg",
        "en"
      ],
      [
        "Ġ2",
        "7"
      ],
      [
        "ĠL",
        "ond"
      ],
      [
        "Ġint",
        "rodu"
      ],
      [
        "ĠLond",
        "on"
      ],
      [
        "Ġd",
        "iv"
      ],
      [
        "Ġus",
        "ing"
      ],
      [
        "Ġhim",
        "self"
      ],
      [
        "g",
        "round"
      ],
      [
        "Ġdevelop",
        "ment"
      ],
      [
        "ĠN",
        "e"
      ],
      [
        "ĠWill",
        "iam"
      ],
      [
        "Ġg",
        "ood"
      ],
      [
        "Ġdest",
        "roy"
      ],
      [
        "Ġl",
        "a"
      ],
      [
        "ĠF",
        "eder"
      ],
      [
        "f",
        "ord"
      ],
      [
        "Ġh",
        "ig"
      ],
      [
        "Ġl",
        "im"
      ],
      [
        "ain",
        "t"
      ],
      [
        "um",
        "ent"
      ],
      [
        "m",
        "ost"
      ],
      [
        "Ġf",
        "elt"
      ],
      [
        "es",
        "e"
      ],
      [
        "ĠM",
        "ich"
      ],
      [
        "Ġsignific",
        "ant"
      ],
      [
        "us",
        "ed"
      ],
      [
        "ree",
        "k"
      ],
      [
        "ĠAustral",
        "ia"
      ],
      [
        "y",
        "n"
      ],
      [
        "id",
        "ence"
      ],
      [
        "ct",
        "or"
      ],
      [
        "olog",
        "ical"
      ],
      [
        "Ġperform",
        "ed"
      ],
      [
        "Ġimport",
        "ant"
      ],
      [
        "a",
        "u"
      ],
      [
        "Ġc",
        "ast"
      ],
      [
        "w",
        "ork"
      ],
      [
        "Ġp",
        "ra"
      ],
      [
        "am",
        "b"
      ],
      [
        "Ġwrit",
        "ing"
      ],
      [
        "ĠAt",
        "l"
      ],
      [
        "Ġmil",
        "es"
      ],
      [
        "Ġc",
        "ou"
      ],
      [
        "Ġf",
        "ather"
      ],
      [
        "ar",
        "r"
      ],
      [
        "ord",
        "s"
      ],
      [
        "Ġte",
        "levision"
      ],
      [
        "o",
        "on"
      ],
      [
        "Ġ",
        "ide"
      ],
      [
        "in",
        "t"
      ],
      [
        "re",
        "am"
      ],
      [
        "Ġinter",
        "est"
      ],
      [
        "ĠBl",
        "ack"
      ],
      [
        "Ġvar",
        "ious"
      ],
      [
        "at",
        "ic"
      ],
      [
        "iv",
        "il"
      ],
      [
        "Ġare",
        "as"
      ],
      [
        "Ġhum",
        "an"
      ],
      [
        "im",
        "ately"
      ],
      [
        "Ġto",
        "ur"
      ],
      [
        "Ġn",
        "ight"
      ],
      [
        "Ġbl",
        "ack"
      ],
      [
        "on",
        "es"
      ],
      [
        "Ġf",
        "ull"
      ],
      [
        "Ġd",
        "ied"
      ],
      [
        "Ġty",
        "p"
      ],
      [
        "Ġw",
        "ent"
      ],
      [
        "Ġl",
        "ook"
      ],
      [
        "ut",
        "es"
      ],
      [
        "Ġpro",
        "t"
      ],
      [
        "Ġw",
        "at"
      ],
      [
        "Ġwh",
        "ite"
      ],
      [
        "ĠR",
        "ich"
      ],
      [
        "Ġr",
        "ad"
      ],
      [
        "ĠCh",
        "ar"
      ],
      [
        "are",
        "n"
      ],
      [
        "Ġact",
        "iv"
      ],
      [
        "Ġdo",
        "es"
      ],
      [
        "Ġsuccess",
        "ful"
      ],
      [
        "a",
        "ign"
      ],
      [
        "ĠR",
        "ober"
      ],
      [
        "Ġev",
        "ents"
      ],
      [
        "Ġne",
        "ed"
      ],
      [
        "ĠRe",
        "g"
      ],
      [
        "Ġs",
        "k"
      ],
      [
        "Ġl",
        "aw"
      ],
      [
        "ie",
        "f"
      ],
      [
        "ĠRo",
        "ad"
      ],
      [
        "Ġplay",
        "ers"
      ],
      [
        "Ġstart",
        "ed"
      ],
      [
        "g",
        "es"
      ],
      [
        "ĠR",
        "oy"
      ],
      [
        "ĠJ",
        "ames"
      ],
      [
        "Ġmod",
        "ern"
      ],
      [
        "Ġt",
        "en"
      ],
      [
        "as",
        "k"
      ],
      [
        "Ġm",
        "m"
      ],
      [
        "Ġdisc",
        "over"
      ],
      [
        "Ġse",
        "e"
      ],
      [
        "Ġfe",
        "et"
      ],
      [
        "Ġform",
        "ed"
      ],
      [
        "Ġc",
        "or"
      ],
      [
        "it",
        "ive"
      ],
      [
        "Ġpo",
        "em"
      ],
      [
        "t",
        "ain"
      ],
      [
        "Ġr",
        "ange"
      ],
      [
        "ant",
        "ic"
      ],
      [
        "Ġcon",
        "v"
      ],
      [
        "Ġperform",
        "ance"
      ],
      [
        "ĠCount",
        "y"
      ],
      [
        "Ġm",
        "ix"
      ],
      [
        "Ġh",
        "ouse"
      ],
      [
        "Ġst",
        "yle"
      ],
      [
        "ric",
        "k"
      ],
      [
        "Ġrel",
        "ations"
      ],
      [
        "Ġbuild",
        "ing"
      ],
      [
        "Ġb",
        "all"
      ],
      [
        "Ġcaus",
        "ed"
      ],
      [
        "Ġc",
        "at"
      ],
      [
        "Ġfor",
        "ce"
      ],
      [
        "n",
        "a"
      ],
      [
        "Ġa",
        "ge"
      ],
      [
        "Ġre",
        "ad"
      ],
      [
        "Ġpr",
        "im"
      ],
      [
        "Ġp",
        "ut"
      ],
      [
        "al",
        "d"
      ],
      [
        "st",
        "er"
      ],
      [
        "r",
        "ation"
      ],
      [
        "ĠE",
        "l"
      ],
      [
        "Ġv",
        "ill"
      ],
      [
        "Ġtr",
        "av"
      ],
      [
        "Ġte",
        "chn"
      ],
      [
        "ĠY",
        "ou"
      ],
      [
        "Ġc",
        "y"
      ],
      [
        "al",
        "th"
      ],
      [
        "Ġcre",
        "ated"
      ],
      [
        "a",
        "f"
      ],
      [
        "a",
        "el"
      ],
      [
        "ic",
        "o"
      ],
      [
        "ĠP",
        "al"
      ],
      [
        "Ġ18",
        "9"
      ],
      [
        "Ġoffic",
        "ial"
      ],
      [
        "Ġnov",
        "el"
      ],
      [
        "c",
        "on"
      ],
      [
        "Ġ200",
        "4"
      ],
      [
        "Ġsu",
        "ff"
      ],
      [
        "Ġ200",
        "5"
      ],
      [
        "ubl",
        "ic"
      ],
      [
        "Ġent",
        "ire"
      ],
      [
        "is",
        "c"
      ],
      [
        "ĠT",
        "o"
      ],
      [
        "us",
        "h"
      ],
      [
        "Ġk",
        "e"
      ],
      [
        "og",
        "n"
      ],
      [
        "Ġab",
        "le"
      ],
      [
        "Ġpolit",
        "ical"
      ],
      [
        "e",
        "c"
      ],
      [
        "Ġf",
        "un"
      ],
      [
        "our",
        "n"
      ],
      [
        "Ġcharac",
        "ters"
      ],
      [
        "Ġs",
        "um"
      ],
      [
        "Ġg",
        "et"
      ],
      [
        "Ġother",
        "s"
      ],
      [
        "Ġrel",
        "ig"
      ],
      [
        "Ġco",
        "ast"
      ],
      [
        "ĠM",
        "ag"
      ],
      [
        "ĠH",
        "igh"
      ],
      [
        "Ġconstru",
        "ction"
      ],
      [
        "om",
        "b"
      ],
      [
        "Ġb",
        "ird"
      ],
      [
        "Ġbe",
        "gin"
      ],
      [
        "av",
        "es"
      ],
      [
        "ab",
        "or"
      ],
      [
        "in",
        "ess"
      ],
      [
        "ol",
        "l"
      ],
      [
        "Ġocc",
        "ur"
      ],
      [
        "r",
        "ing"
      ],
      [
        "Ġs",
        "on"
      ],
      [
        "Ġp",
        "it"
      ],
      [
        "Ġp",
        "ri"
      ],
      [
        "e",
        "pend"
      ],
      [
        "Ġc",
        "ert"
      ],
      [
        "ĠT",
        "own"
      ],
      [
        "ĠâĢ",
        "Ļ"
      ],
      [
        "d",
        "ay"
      ],
      [
        "y",
        "ing"
      ],
      [
        "Ġre",
        "d"
      ],
      [
        "ĠG",
        "l"
      ],
      [
        "ress",
        "ed"
      ],
      [
        "Ġon",
        "ce"
      ],
      [
        "amp",
        "le"
      ],
      [
        "Ġrem",
        "ained"
      ],
      [
        "ĠAn",
        "g"
      ],
      [
        "Ġloc",
        "ated"
      ],
      [
        "in",
        "ation"
      ],
      [
        "re",
        "st"
      ],
      [
        "it",
        "ing"
      ],
      [
        "as",
        "ing"
      ],
      [
        "ĠC",
        "are"
      ],
      [
        "Ġst",
        "e"
      ],
      [
        "ist",
        "ed"
      ],
      [
        "Ġbec",
        "om"
      ],
      [
        "Ġsur",
        "v"
      ],
      [
        "Ġprom",
        "ot"
      ],
      [
        "Ġbatt",
        "le"
      ],
      [
        "f",
        "all"
      ],
      [
        "Ġl",
        "ik"
      ],
      [
        "Ġn",
        "ational"
      ],
      [
        "ĠC",
        "or"
      ],
      [
        "Ġsc",
        "ored"
      ],
      [
        "Ġwork",
        "s"
      ],
      [
        "Ġdif",
        "fic"
      ],
      [
        "ĠKing",
        "dom"
      ],
      [
        "Ġdiffic",
        "ult"
      ],
      [
        "ĠH",
        "ist"
      ],
      [
        "ect",
        "ed"
      ],
      [
        "Ġprodu",
        "c"
      ],
      [
        "Ġme",
        "et"
      ],
      [
        "Ġcomple",
        "ted"
      ],
      [
        "ĠIs",
        "land"
      ],
      [
        "ĠAustral",
        "ian"
      ],
      [
        "Ġcamp",
        "aign"
      ],
      [
        "Ġtrad",
        "ition"
      ],
      [
        "Ġannoun",
        "ced"
      ],
      [
        "ĠS",
        "om"
      ],
      [
        "ĠC",
        "al"
      ],
      [
        "Ġr",
        "ank"
      ],
      [
        "ĠSe",
        "c"
      ],
      [
        "u",
        "ck"
      ],
      [
        "Ġst",
        "ars"
      ],
      [
        "Ġreg",
        "ion"
      ],
      [
        "at",
        "or"
      ],
      [
        "Ġf",
        "ig"
      ],
      [
        "Ġh",
        "old"
      ],
      [
        "Ġro",
        "ck"
      ],
      [
        "Ġgun",
        "s"
      ],
      [
        "ĠC",
        "up"
      ],
      [
        "ĠM",
        "or"
      ],
      [
        "ĠComp",
        "any"
      ],
      [
        "i",
        "ers"
      ],
      [
        "ri",
        "e"
      ],
      [
        "Ġpro",
        "cess"
      ],
      [
        "Ġlit",
        "tle"
      ],
      [
        "he",
        "m"
      ],
      [
        "Ġf",
        "av"
      ],
      [
        "Ġf",
        "ight"
      ],
      [
        "ĠRe",
        "c"
      ],
      [
        "Ġhigh",
        "way"
      ],
      [
        "Ġgo",
        "al"
      ],
      [
        "Ġinst",
        "ead"
      ],
      [
        "Ġhel",
        "p"
      ],
      [
        "Ġt",
        "re"
      ],
      [
        "iv",
        "id"
      ],
      [
        "ir",
        "c"
      ],
      [
        "Ġp",
        "red"
      ],
      [
        "ĠC",
        "ro"
      ],
      [
        "Ġv",
        "al"
      ],
      [
        "Ġgro",
        "w"
      ],
      [
        "Ġadd",
        "ed"
      ],
      [
        "it",
        "ted"
      ],
      [
        "am",
        "ent"
      ],
      [
        "Ġg",
        "l"
      ],
      [
        "rough",
        "t"
      ],
      [
        "Ġc",
        "ross"
      ],
      [
        "ĠO",
        "l"
      ],
      [
        "Ġle",
        "t"
      ],
      [
        "Ġle",
        "ast"
      ],
      [
        "Ġfollow",
        "ed"
      ],
      [
        "Ġf",
        "ac"
      ],
      [
        "Ġf",
        "ront"
      ],
      [
        "Ġre",
        "du"
      ],
      [
        "oun",
        "c"
      ],
      [
        "Ġ3",
        "1"
      ],
      [
        "Ġpe",
        "ak"
      ],
      [
        "Ġappe",
        "ared"
      ],
      [
        "Ġb",
        "orn"
      ],
      [
        "Ġre",
        "v"
      ],
      [
        "qu",
        "ad"
      ],
      [
        "ĠK",
        "e"
      ],
      [
        "Ġkn",
        "ow"
      ],
      [
        "Ġkill",
        "ed"
      ],
      [
        "le",
        "et"
      ],
      [
        "Ġorigin",
        "ally"
      ],
      [
        "Ġmonth",
        "s"
      ],
      [
        "Ġ",
        "er"
      ],
      [
        "re",
        "g"
      ],
      [
        "Ġw",
        "ife"
      ],
      [
        "Ġcom",
        "ment"
      ],
      [
        "ell",
        "ing"
      ],
      [
        "ĠAr",
        "my"
      ],
      [
        "Ġs",
        "outhern"
      ],
      [
        "or",
        "se"
      ],
      [
        "ĠDav",
        "id"
      ],
      [
        "o",
        "ice"
      ],
      [
        "Ġc",
        "as"
      ],
      [
        "Ġl",
        "oss"
      ],
      [
        "ĠB",
        "ill"
      ],
      [
        "ĠGr",
        "and"
      ],
      [
        "Ġf",
        "if"
      ],
      [
        "en",
        "ced"
      ],
      [
        "al",
        "ity"
      ],
      [
        "Ġh",
        "urricane"
      ],
      [
        "ent",
        "h"
      ],
      [
        "Ġn",
        "uc"
      ],
      [
        "ĠH",
        "am"
      ],
      [
        "ri",
        "es"
      ],
      [
        "Ġw",
        "omen"
      ],
      [
        "Ġass",
        "oci"
      ],
      [
        "Ġ",
        "ident"
      ],
      [
        "Ġe",
        "astern"
      ],
      [
        "Ġag",
        "re"
      ],
      [
        "ĠMus",
        "ic"
      ],
      [
        "b",
        "o"
      ],
      [
        "Ġ2",
        "9"
      ],
      [
        "ang",
        "u"
      ],
      [
        "Ġrelations",
        "hip"
      ],
      [
        "Ã",
        "¡"
      ],
      [
        "Ã",
        "Ń"
      ],
      [
        "Ġm",
        "ass"
      ],
      [
        "Ġ200",
        "3"
      ],
      [
        "Ġcrit",
        "ics"
      ],
      [
        "o",
        "ff"
      ],
      [
        "Ġm",
        "other"
      ],
      [
        "ĠS",
        "ome"
      ],
      [
        "Ġacc",
        "om"
      ],
      [
        "ĠFr",
        "ance"
      ],
      [
        "Ġevent",
        "ually"
      ],
      [
        "Ġa",
        "ward"
      ],
      [
        "ĠS",
        "up"
      ],
      [
        "ac",
        "y"
      ],
      [
        "Ġ4",
        "0"
      ],
      [
        "Ġ18",
        "5"
      ],
      [
        "Ġfeat",
        "ures"
      ],
      [
        "g",
        "r"
      ],
      [
        "Ġb",
        "us"
      ],
      [
        "le",
        "ct"
      ],
      [
        "id",
        "d"
      ],
      [
        "ĠO",
        "ther"
      ],
      [
        "Ġ201",
        "5"
      ],
      [
        "f",
        "ield"
      ],
      [
        "Ġl",
        "ive"
      ],
      [
        "Ġbro",
        "ad"
      ],
      [
        "c",
        "om"
      ],
      [
        "Ġa",
        "ud"
      ],
      [
        "Ġcon",
        "d"
      ],
      [
        "Ġan",
        "im"
      ],
      [
        "Ġy",
        "oung"
      ],
      [
        "r",
        "ay"
      ],
      [
        "Ġt",
        "aken"
      ],
      [
        "Ġc",
        "ell"
      ],
      [
        "Ġst",
        "ri"
      ],
      [
        "ap",
        "p"
      ],
      [
        "Ġro",
        "ute"
      ],
      [
        "Ġrec",
        "ogn"
      ],
      [
        "Ġapp",
        "oin"
      ],
      [
        "Ġfour",
        "th"
      ],
      [
        "ĠT",
        "wo"
      ],
      [
        "Ġser",
        "ved"
      ],
      [
        "he",
        "re"
      ],
      [
        "Ġb",
        "ar"
      ],
      [
        "ul",
        "ly"
      ],
      [
        "ĠE",
        "x"
      ],
      [
        "Ä",
        "ģ"
      ],
      [
        "ot",
        "a"
      ],
      [
        "em",
        "y"
      ],
      [
        "Ġest",
        "im"
      ],
      [
        "Ġdam",
        "age"
      ],
      [
        "Ġprof",
        "ess"
      ],
      [
        "Ġl",
        "ack"
      ],
      [
        "Ġhe",
        "avy"
      ],
      [
        "ant",
        "ry"
      ],
      [
        "arl",
        "iam"
      ],
      [
        "i",
        "que"
      ],
      [
        "in",
        "al"
      ],
      [
        "Ġs",
        "w"
      ],
      [
        "Ġb",
        "ase"
      ],
      [
        "Ġe",
        "ither"
      ],
      [
        "Ġse",
        "x"
      ],
      [
        "Ġdec",
        "ided"
      ],
      [
        "ĠBatt",
        "alion"
      ],
      [
        "Ġa",
        "ver"
      ],
      [
        "os",
        "aur"
      ],
      [
        "ĠL",
        "ove"
      ],
      [
        "Ġpro",
        "ble"
      ],
      [
        "Ġv",
        "oc"
      ],
      [
        "ĠS",
        "w"
      ],
      [
        "ol",
        "ution"
      ],
      [
        "Ġcon",
        "dom"
      ],
      [
        "Ġcom",
        "mer"
      ],
      [
        "Ġbeh",
        "ind"
      ],
      [
        "Ġto",
        "get"
      ],
      [
        "ap",
        "er"
      ],
      [
        "az",
        "ine"
      ],
      [
        "Ġbelie",
        "ved"
      ],
      [
        "Ġtoget",
        "her"
      ],
      [
        "Ġm",
        "or"
      ],
      [
        "Ġse",
        "par"
      ],
      [
        "ĠRober",
        "t"
      ],
      [
        "ch",
        "ie"
      ],
      [
        "Ġsu",
        "per"
      ],
      [
        "Ġar",
        "g"
      ],
      [
        "il",
        "le"
      ],
      [
        "ĠG",
        "od"
      ],
      [
        "ough",
        "t"
      ],
      [
        "Ġplay",
        "ing"
      ],
      [
        "ount",
        "ain"
      ],
      [
        "Ġind",
        "ivid"
      ],
      [
        "ĠCare",
        "y"
      ],
      [
        "arliam",
        "ent"
      ],
      [
        "Ġv",
        "e"
      ],
      [
        "Ġimp",
        "ro"
      ],
      [
        "ign",
        "ed"
      ],
      [
        "iz",
        "ation"
      ],
      [
        "l",
        "o"
      ],
      [
        "Ġc",
        "reat"
      ],
      [
        "Ġex",
        "ample"
      ],
      [
        "Ġspec",
        "ial"
      ],
      [
        "ĠRoy",
        "al"
      ],
      [
        "ounc",
        "il"
      ],
      [
        "ĠM",
        "on"
      ],
      [
        "Ġal",
        "most"
      ],
      [
        "Ġcl",
        "os"
      ],
      [
        "Ġcl",
        "ose"
      ],
      [
        "Ġ18",
        "8"
      ],
      [
        "Ġmov",
        "e"
      ],
      [
        "Ġac",
        "cept"
      ],
      [
        "em",
        "ents"
      ],
      [
        "Ġqu",
        "ar"
      ],
      [
        "Ġlead",
        "ing"
      ],
      [
        "hy",
        "s"
      ],
      [
        "ĠMe",
        "x"
      ],
      [
        "ĠEurope",
        "an"
      ],
      [
        "c",
        "ial"
      ],
      [
        "m",
        "ar"
      ],
      [
        "Ġb",
        "urn"
      ],
      [
        "Ġl",
        "angu"
      ],
      [
        "Ġas",
        "k"
      ],
      [
        "Ġgener",
        "ally"
      ],
      [
        "Ġserv",
        "ice"
      ],
      [
        "ĠFeder",
        "er"
      ],
      [
        "Ġto",
        "wards"
      ],
      [
        "Ġm",
        "ater"
      ],
      [
        "Ġro",
        "und"
      ],
      [
        "ach",
        "ing"
      ],
      [
        "Ġele",
        "ments"
      ],
      [
        "Ġopen",
        "ed"
      ],
      [
        "Ġf",
        "all"
      ],
      [
        "Ġh",
        "y"
      ],
      [
        "Ġar",
        "m"
      ],
      [
        "Ġs",
        "our"
      ],
      [
        "Ġb",
        "rought"
      ],
      [
        "Ġd",
        "ou"
      ],
      [
        "ĠS",
        "er"
      ],
      [
        "ur",
        "b"
      ],
      [
        "ĠB",
        "er"
      ],
      [
        "ĠBr",
        "igade"
      ],
      [
        "Ġweek",
        "s"
      ],
      [
        "Ġm",
        "iss"
      ],
      [
        "Ġn",
        "on"
      ],
      [
        "ĠIn",
        "ternational"
      ],
      [
        "Ġfin",
        "ished"
      ],
      [
        "ict",
        "ion"
      ],
      [
        "Ġc",
        "e"
      ],
      [
        "Ġc",
        "irc"
      ],
      [
        "ĠC",
        "r"
      ],
      [
        "ĠI",
        "r"
      ],
      [
        "ĠW",
        "ales"
      ],
      [
        "Ġr",
        "a"
      ],
      [
        "ill",
        "a"
      ],
      [
        "ric",
        "t"
      ],
      [
        "Ġla",
        "un"
      ],
      [
        "Ġs",
        "aw"
      ],
      [
        "ic",
        "ated"
      ],
      [
        "ce",
        "ed"
      ],
      [
        "Ġstud",
        "y"
      ],
      [
        "Ġfeat",
        "ured"
      ],
      [
        "Ġh",
        "ost"
      ],
      [
        "ĠV",
        "iet"
      ],
      [
        "Ġres",
        "pect"
      ],
      [
        "Ġair",
        "craft"
      ],
      [
        "i",
        "ation"
      ],
      [
        "Ġreg",
        "ular"
      ],
      [
        "ĠFl",
        "or"
      ],
      [
        "Ġd",
        "raw"
      ],
      [
        "id",
        "a"
      ],
      [
        "Ġen",
        "c"
      ],
      [
        "ir",
        "on"
      ],
      [
        "est",
        "s"
      ],
      [
        "Ġv",
        "ol"
      ],
      [
        "ĠWh",
        "ite"
      ],
      [
        "Ġgener",
        "al"
      ],
      [
        "Ġpoin",
        "ts"
      ],
      [
        "n",
        "ed"
      ],
      [
        "re",
        "ad"
      ],
      [
        "Ġre",
        "se"
      ],
      [
        "st",
        "on"
      ],
      [
        "ĠH",
        "en"
      ],
      [
        "et",
        "work"
      ],
      [
        "ĠP",
        "art"
      ],
      [
        "way",
        "s"
      ],
      [
        "Ġele",
        "ct"
      ],
      [
        "Ġdire",
        "cted"
      ],
      [
        "u",
        "ter"
      ],
      [
        "z",
        "e"
      ],
      [
        "oun",
        "ted"
      ],
      [
        "ĠCh",
        "ampionship"
      ],
      [
        "Ġcent",
        "ral"
      ],
      [
        "Ġprov",
        "ided"
      ],
      [
        "h",
        "ic"
      ],
      [
        "Ġa",
        "ction"
      ],
      [
        "ord",
        "an"
      ],
      [
        "Ġme",
        "as"
      ],
      [
        "v",
        "al"
      ],
      [
        "Ġf",
        "und"
      ],
      [
        "Ġin",
        "form"
      ],
      [
        "ĠA",
        "ct"
      ],
      [
        "ĠS",
        "y"
      ],
      [
        "ĠH",
        "ar"
      ],
      [
        "Ġ3",
        "5"
      ],
      [
        "Ġup",
        "on"
      ],
      [
        "ĠPl",
        "ay"
      ],
      [
        "Ġdirect",
        "or"
      ],
      [
        "ograp",
        "hy"
      ],
      [
        "i",
        "ol"
      ],
      [
        "Ġw",
        "all"
      ],
      [
        "ĠG",
        "ame"
      ],
      [
        "Ġme",
        "an"
      ],
      [
        "Ġappear",
        "ance"
      ],
      [
        "e",
        "um"
      ],
      [
        "Ġw",
        "id"
      ],
      [
        "ĠF",
        "ollow"
      ],
      [
        "ĠJ",
        "ordan"
      ],
      [
        "um",
        "b"
      ],
      [
        "ĠE",
        "ast"
      ],
      [
        "Ġ18",
        "6"
      ],
      [
        "Ġcol",
        "l"
      ],
      [
        "Ġearl",
        "ier"
      ],
      [
        "Ġm",
        "i"
      ],
      [
        "ĠF",
        "rom"
      ],
      [
        "od",
        "es"
      ],
      [
        "Ġy",
        "ard"
      ],
      [
        "ĠTh",
        "om"
      ],
      [
        "enc",
        "y"
      ],
      [
        "ĠP",
        "res"
      ],
      [
        "Ġse",
        "qu"
      ],
      [
        "Ġr",
        "ather"
      ],
      [
        "Ġk",
        "ing"
      ],
      [
        "Ġ201",
        "4"
      ],
      [
        "Ġfl",
        "ood"
      ],
      [
        "Ġfem",
        "ale"
      ],
      [
        "ĠAtl",
        "antic"
      ],
      [
        "b",
        "it"
      ],
      [
        "in",
        "o"
      ],
      [
        "ir",
        "l"
      ],
      [
        "Ġind",
        "ust"
      ],
      [
        "med",
        "i"
      ],
      [
        "Ġcur",
        "rent"
      ],
      [
        "Ġtro",
        "ops"
      ],
      [
        "Ġlar",
        "gest"
      ],
      [
        "Ġvict",
        "ory"
      ],
      [
        "ĠFollow",
        "ing"
      ],
      [
        "or",
        "ing"
      ],
      [
        "Ġre",
        "n"
      ],
      [
        "Ġre",
        "ve"
      ],
      [
        "ĠJ",
        "ew"
      ],
      [
        "Ġde",
        "v"
      ],
      [
        "Ġsub",
        "sequ"
      ],
      [
        "Ġem",
        "ploy"
      ],
      [
        "Ġoper",
        "ations"
      ],
      [
        "ĠChrist",
        "ian"
      ],
      [
        "Ġparticular",
        "ly"
      ],
      [
        "ĠGeor",
        "ge"
      ],
      [
        "Ġmanag",
        "er"
      ],
      [
        "m",
        "ing"
      ],
      [
        "Ġa",
        "chie"
      ],
      [
        "Ġc",
        "ost"
      ],
      [
        "ĠM",
        "ad"
      ],
      [
        "ĠH",
        "ouse"
      ],
      [
        "ĠD",
        "ay"
      ],
      [
        "ĠHer",
        "o"
      ],
      [
        "c",
        "her"
      ],
      [
        "o",
        "id"
      ],
      [
        "ĠM",
        "ary"
      ],
      [
        "ud",
        "e"
      ],
      [
        "ĠRe",
        "p"
      ],
      [
        "Ġopen",
        "ing"
      ],
      [
        "Ġwant",
        "ed"
      ],
      [
        "st",
        "it"
      ],
      [
        "Ġbe",
        "g"
      ],
      [
        "ĠD",
        "u"
      ],
      [
        "Ġcon",
        "du"
      ],
      [
        "m",
        "b"
      ],
      [
        "el",
        "er"
      ],
      [
        "ĠR",
        "ed"
      ],
      [
        "ort",
        "s"
      ],
      [
        "Ġy",
        "ards"
      ],
      [
        "Ġev",
        "idence"
      ],
      [
        "i",
        "ber"
      ],
      [
        "Ġc",
        "ut"
      ],
      [
        "Ġre",
        "ason"
      ],
      [
        "ou",
        "ri"
      ],
      [
        "Ġr",
        "iver"
      ],
      [
        "Ġpro",
        "b"
      ],
      [
        "Ġex",
        "c"
      ],
      [
        "oun",
        "ter"
      ],
      [
        "ĠComm",
        "and"
      ],
      [
        "Ġnort",
        "hern"
      ],
      [
        "ĠFlor",
        "ida"
      ],
      [
        "Ġm",
        "ember"
      ],
      [
        "Ġst",
        "age"
      ],
      [
        "Ġins",
        "p"
      ],
      [
        "c",
        "ast"
      ],
      [
        "Ġl",
        "eng"
      ],
      [
        "ĠR",
        "ock"
      ],
      [
        "ĠSt",
        "reet"
      ],
      [
        "Ġ5",
        "00"
      ],
      [
        "Ġout",
        "side"
      ],
      [
        "Ġcre",
        "w"
      ],
      [
        "Ġallow",
        "ed"
      ],
      [
        "Ġposs",
        "ible"
      ],
      [
        "Ġeng",
        "ine"
      ],
      [
        "o",
        "o"
      ],
      [
        "Ġf",
        "oc"
      ],
      [
        "Ġb",
        "i"
      ],
      [
        "Ġst",
        "ren"
      ],
      [
        "act",
        "ion"
      ],
      [
        "Ġsay",
        "ing"
      ],
      [
        "s",
        "el"
      ],
      [
        "Ġ",
        "ill"
      ],
      [
        "ĠM",
        "ed"
      ],
      [
        "ell",
        "ow"
      ],
      [
        "ĠOl",
        "iv"
      ],
      [
        "c",
        "ript"
      ],
      [
        "er",
        "ous"
      ],
      [
        "at",
        "ural"
      ],
      [
        "an",
        "ia"
      ],
      [
        "Ġh",
        "it"
      ],
      [
        "Ġh",
        "ours"
      ],
      [
        "Ġwh",
        "om"
      ],
      [
        "w",
        "est"
      ],
      [
        "Ġc",
        "ase"
      ],
      [
        "an",
        "ch"
      ],
      [
        "ent",
        "ial"
      ],
      [
        "Ġn",
        "omin"
      ],
      [
        "con",
        "om"
      ],
      [
        "at",
        "ors"
      ],
      [
        "Ġfor",
        "t"
      ],
      [
        "Ġde",
        "ter"
      ],
      [
        "Ġex",
        "ist"
      ],
      [
        "Ġ200",
        "1"
      ],
      [
        "Ġwork",
        "ed"
      ],
      [
        "Ġreg",
        "ard"
      ],
      [
        "ĠMiss",
        "ouri"
      ],
      [
        "al",
        "t"
      ],
      [
        "ĠM",
        "ost"
      ],
      [
        "ĠO",
        "d"
      ],
      [
        "Ġpr",
        "act"
      ],
      [
        "Ġstren",
        "g"
      ],
      [
        "e",
        "al"
      ],
      [
        "at",
        "in"
      ],
      [
        "Ġm",
        "ot"
      ],
      [
        "am",
        "a"
      ],
      [
        "ĠB",
        "ra"
      ],
      [
        "Ġwork",
        "ing"
      ],
      [
        "Ġter",
        "rit"
      ],
      [
        "Ġresp",
        "ons"
      ],
      [
        "Ġleng",
        "th"
      ],
      [
        "c",
        "ent"
      ],
      [
        "nd",
        "er"
      ],
      [
        "ĠM",
        "y"
      ],
      [
        "Ġnew",
        "s"
      ],
      [
        "Ġre",
        "b"
      ],
      [
        "os",
        "ition"
      ],
      [
        "ĠG",
        "al"
      ],
      [
        "art",
        "ment"
      ],
      [
        "Ġdef",
        "end"
      ],
      [
        "bo",
        "ard"
      ],
      [
        "Ġmater",
        "ial"
      ],
      [
        "at",
        "a"
      ],
      [
        "Ġb",
        "ur"
      ],
      [
        "Ġm",
        "ach"
      ],
      [
        "Ġg",
        "old"
      ],
      [
        "Ġpo",
        "or"
      ],
      [
        "Ġdesign",
        "ed"
      ],
      [
        "Ġf",
        "ree"
      ],
      [
        "Ġl",
        "ove"
      ],
      [
        "ĠB",
        "ay"
      ],
      [
        "ĠP",
        "aul"
      ],
      [
        "Ġse",
        "em"
      ],
      [
        "um",
        "p"
      ],
      [
        "Ġr",
        "ul"
      ],
      [
        "Ġne",
        "g"
      ],
      [
        "ĠTe",
        "ch"
      ],
      [
        "th",
        "od"
      ],
      [
        "Ġst",
        "ay"
      ],
      [
        "ĠW",
        "al"
      ],
      [
        "and",
        "ing"
      ],
      [
        "Ġpra",
        "ised"
      ],
      [
        "u",
        "el"
      ],
      [
        "ĠC",
        "o"
      ],
      [
        "ĠM",
        "ark"
      ],
      [
        "Ġfor",
        "ced"
      ],
      [
        "ĠF",
        "irst"
      ],
      [
        "ight",
        "s"
      ],
      [
        "ish",
        "ing"
      ],
      [
        "Ġrem",
        "ains"
      ],
      [
        "ĠInd",
        "ian"
      ],
      [
        "Ġav",
        "ail"
      ],
      [
        "Ġfoot",
        "ball"
      ],
      [
        "o",
        "res"
      ],
      [
        "ĠB",
        "est"
      ],
      [
        "Ġ18",
        "7"
      ],
      [
        "Ġ197",
        "0"
      ],
      [
        "ĠPh",
        "il"
      ],
      [
        "Ġb",
        "ill"
      ],
      [
        "an",
        "a"
      ],
      [
        "Ġth",
        "ink"
      ],
      [
        "Ġst",
        "ation"
      ],
      [
        "Ġwind",
        "s"
      ],
      [
        "ĠMich",
        "ael"
      ],
      [
        "l",
        "ess"
      ],
      [
        "Ġt",
        "reat"
      ],
      [
        "Ġc",
        "op"
      ],
      [
        "ĠW",
        "il"
      ],
      [
        "Ġqu",
        "ick"
      ],
      [
        "Ġgo",
        "als"
      ],
      [
        "Ġincre",
        "ased"
      ],
      [
        "Ġcontr",
        "act"
      ],
      [
        "he",
        "ast"
      ],
      [
        "en",
        "ed"
      ],
      [
        "Ġp",
        "ast"
      ],
      [
        "Ġd",
        "i"
      ],
      [
        "ap",
        "s"
      ],
      [
        "Ġprevious",
        "ly"
      ],
      [
        "ĠÂ",
        "£"
      ],
      [
        "i",
        "us"
      ],
      [
        "v",
        "est"
      ],
      [
        "ic",
        "a"
      ],
      [
        "Ġg",
        "re"
      ],
      [
        "ag",
        "o"
      ],
      [
        "ĠE",
        "gy"
      ],
      [
        "Ġab",
        "ove"
      ],
      [
        "Ġrepl",
        "aced"
      ],
      [
        "ĠEgy",
        "pt"
      ],
      [
        "g",
        "g"
      ],
      [
        "u",
        "le"
      ],
      [
        "x",
        "as"
      ],
      [
        "ĠC",
        "ap"
      ],
      [
        "ĠB",
        "ut"
      ],
      [
        "ver",
        "t"
      ],
      [
        "Ġso",
        "on"
      ],
      [
        "Ġinv",
        "est"
      ],
      [
        "ĠRich",
        "ard"
      ],
      [
        "Ġc",
        "ivil"
      ],
      [
        "Ġl",
        "y"
      ],
      [
        "ĠB",
        "us"
      ],
      [
        "Ġv",
        "iol"
      ],
      [
        "ĠDes",
        "pite"
      ],
      [
        "Ġbus",
        "iness"
      ],
      [
        "Ġh",
        "on"
      ],
      [
        "Ġinter",
        "view"
      ],
      [
        "Ġm",
        "er"
      ],
      [
        "Ġth",
        "reat"
      ],
      [
        "ess",
        "ion"
      ],
      [
        "Ġ200",
        "0"
      ],
      [
        "rib",
        "uted"
      ],
      [
        "Ġwrit",
        "er"
      ],
      [
        "ĠÂ",
        "°"
      ],
      [
        "Ġcommer",
        "cial"
      ],
      [
        "ĠHen",
        "ry"
      ],
      [
        "er",
        "ved"
      ],
      [
        "as",
        "ion"
      ],
      [
        "Ġm",
        "ph"
      ],
      [
        "ir",
        "th"
      ],
      [
        "ĠH",
        "ill"
      ],
      [
        "Ġun",
        "its"
      ],
      [
        "hen",
        "s"
      ],
      [
        "ĠCanad",
        "a"
      ],
      [
        "Ġestim",
        "ated"
      ],
      [
        "Ġc",
        "lear"
      ],
      [
        "ar",
        "a"
      ],
      [
        "ĠS",
        "an"
      ],
      [
        "Ġ199",
        "0"
      ],
      [
        "Ġacc",
        "ount"
      ],
      [
        "ann",
        "ed"
      ],
      [
        "ĠQ",
        "ue"
      ],
      [
        "Ġes",
        "c"
      ],
      [
        "Ġquar",
        "ter"
      ],
      [
        "Ġs",
        "omet"
      ],
      [
        "Ġp",
        "ain"
      ],
      [
        "ĠK",
        "h"
      ],
      [
        "Ġclaim",
        "ed"
      ],
      [
        "Ġjoin",
        "ed"
      ],
      [
        "ĠJapan",
        "ese"
      ],
      [
        "Ġhig",
        "hest"
      ],
      [
        "u",
        "ation"
      ],
      [
        "Ġt",
        "rib"
      ],
      [
        "ut",
        "ive"
      ],
      [
        "Ġpl",
        "aced"
      ],
      [
        "Ġspec",
        "ific"
      ],
      [
        "Ġsur",
        "f"
      ],
      [
        "ĠBro",
        "wn"
      ],
      [
        "ĠOld",
        "ham"
      ],
      [
        "Ġinvol",
        "ved"
      ],
      [
        "w",
        "h"
      ],
      [
        "y",
        "e"
      ],
      [
        "Ġ",
        "z"
      ],
      [
        "Ġm",
        "ust"
      ],
      [
        "ĠT",
        "imes"
      ],
      [
        "Ġl",
        "o"
      ],
      [
        "Ġsign",
        "ed"
      ],
      [
        "Ġdisc",
        "uss"
      ],
      [
        "Ġsuggest",
        "ed"
      ],
      [
        "ĠPres",
        "ident"
      ],
      [
        "ĠT",
        "or"
      ],
      [
        "ĠV",
        "ir"
      ],
      [
        "Ġpart",
        "s"
      ],
      [
        "ĠDe",
        "p"
      ],
      [
        "Ġcour",
        "t"
      ],
      [
        "Ġw",
        "estern"
      ],
      [
        "om",
        "s"
      ],
      [
        "et",
        "t"
      ],
      [
        "Ġint",
        "ens"
      ],
      [
        "Ġ18",
        "3"
      ],
      [
        "ĠOliv",
        "ier"
      ],
      [
        "B",
        "C"
      ],
      [
        "it",
        "er"
      ],
      [
        "Ġpro",
        "per"
      ],
      [
        "Ġle",
        "ague"
      ],
      [
        "cl",
        "us"
      ],
      [
        "Ġits",
        "elf"
      ],
      [
        "Ġpr",
        "iv"
      ],
      [
        "ĠCar",
        "ol"
      ],
      [
        "ĠViet",
        "n"
      ],
      [
        "l",
        "ic"
      ],
      [
        "Ġp",
        "ers"
      ],
      [
        "ĠD",
        "r"
      ],
      [
        "ĠW",
        "he"
      ],
      [
        "ĠL",
        "ater"
      ],
      [
        "ist",
        "ic"
      ],
      [
        "wo",
        "od"
      ],
      [
        "Ġob",
        "ject"
      ],
      [
        "ĠInd",
        "ia"
      ],
      [
        "Ġaver",
        "age"
      ],
      [
        "ĠMex",
        "ico"
      ],
      [
        "t",
        "t"
      ],
      [
        "Ġt",
        "aking"
      ],
      [
        "th",
        "let"
      ],
      [
        "Ġch",
        "ange"
      ],
      [
        "Ġsh",
        "ot"
      ],
      [
        "ĠAr",
        "ab"
      ],
      [
        "Ġavail",
        "able"
      ],
      [
        "ing",
        "ton"
      ],
      [
        "ĠS",
        "chool"
      ],
      [
        "ol",
        "ic"
      ],
      [
        "os",
        "ing"
[...]
